{"__null__": 0, "__start__": 1, "__end__": 2, "__unk__": 3, "__newln__": 4, ".": 5, ",": 6, "the": 7, "'": 8, "and": 9, "of": 10, "to": 11, "a": 12, "in": 13, "i": 14, "you": 15, "\"": 16, "s": 17, "was": 18, "it": 19, "?": 20, "he": 21, "that": 22, "-": 23, "is": 24, "on": 25, "for": 26, "__silence__": 27, "with": 28, "as": 29, "t": 30, "his": 31, "at": 32, "her": 33, "she": 34, "by": 35, "this": 36, "!": 37, "from": 38, ")": 39, "(": 40, "me": 41, "my": 42, "be": 43, "what": 44, "but": 45, "are": 46, "we": 47, "not": 48, "have": 49, "an": 50, "had": 51, "they": 52, "were": 53, "no": 54, "all": 55, "him": 56, "one": 57, "m": 58, "do": 59, "there": 60, "up": 61, "can": 62, "out": 63, "so": 64, "or": 65, "your": 66, "don": 67, "re": 68, "just": 69, "know": 70, "like": 71, "about": 72, "who": 73, "’": 74, "if": 75, "which": 76, "when": 77, "been": 78, "has": 79, "time": 80, "first": 81, "would": 82, "their": 83, "get": 84, "d": 85, "here": 86, "then": 87, "into": 88, "now": 89, "back": 90, "after": 91, "right": 92, "well": 93, "said": 94, "two": 95, "go": 96, "ll": 97, "also": 98, "them": 99, "more": 100, "over": 101, "how": 102, "new": 103, "will": 104, "did": 105, ":": 106, "could": 107, "where": 108, "its": 109, "some": 110, "other": 111, "only": 112, "us": 113, "see": 114, "come": 115, "want": 116, "ve": 117, ";": 118, "got": 119, "down": 120, "oh": 121, "man": 122, "good": 123, "think": 124, "–": 125, "before": 126, "going": 127, "didn": 128, "why": 129, "yeah": 130, "let": 131, "way": 132, "than": 133, "made": 134, "through": 135, "off": 136, "take": 137, "people": 138, "years": 139, "even": 140, "look": 141, "yes": 142, "1": 143, "because": 144, "around": 145, "too": 146, "any": 147, "during": 148, "three": 149, "these": 150, "most": 151, "our": 152, "school": 153, "never": 154, "make": 155, "something": 156, "while": 157, "still": 158, "world": 159, "very": 160, "being": 161, "okay": 162, "may": 163, "again": 164, "much": 165, "work": 166, "between": 167, "say": 168, "year": 169, "need": 170, "little": 171, "day": 172, "tell": 173, "really": 174, "later": 175, "2": 176, "many": 177, "such": 178, "long": 179, "head": 180, "under": 181, "used": 182, "%": 183, "away": 184, "life": 185, "both": 186, "city": 187, "against": 188, "o": 189, "house": 190, "part": 191, "second": 192, "name": 193, "until": 194, "am": 195, "re@@": 196, "should": 197, "won": 198, "home": 199, "/": 200, "last": 201, "eyes": 202, "place": 203, "un@@": 204, "since": 205, "took": 206, "thought": 207, "left": 208, "same": 209, "another": 210, "known": 211, "love": 212, "state": 213, "u": 214, "those": 215, "3": 216, "old": 217, "called": 218, "family": 219, "gonna": 220, "found": 221, "k@@": 222, "high": 223, "hand": 224, "sure": 225, "hey": 226, "own": 227, "give": 228, "each": 229, "help": 230, "became": 231, "war": 232, "team": 233, "came": 234, "night": 235, "born": 236, "university": 237, "great": 238, "♪": 239, "end": 240, "american": 241, "mean": 242, "thing": 243, "four": 244, "son": 245, "de": 246, "united": 247, "father": 248, "face": 249, "find": 250, "national": 251, "nothing": 252, "5": 253, "anything": 254, "season": 255, "side": 256, "went": 257, "c": 258, "put": 259, "4": 260, "use": 261, "told": 262, "men": 263, "however": 264, "film": 265, "in@@": 266, "doing": 267, "best": 268, "d@@": 269, "room": 270, "states": 271, "south": 272, "every": 273, "number": 274, "must": 275, "o@@": 276, "next": 277, "including": 278, "sorry": 279, "show": 280, "wanted": 281, "*": 282, "game": 283, "wasn": 284, "area": 285, "ever": 286, "group": 287, "asked": 288, "e": 289, "few": 290, "t@@": 291, "please": 292, "company": 293, "north": 294, "maybe": 295, "several": 296, "looked": 297, "better": 298, "l": 299, "always": 300, "god": 301, "began": 302, "town": 303, "things": 304, "line": 305, "stop": 306, "without": 307, "knew": 308, "early": 309, "mr": 310, "call": 311, "once": 312, "music": 313, "keep": 314, "set": 315, "10": 316, "p@@": 317, "i@@": 318, "series": 319, "er": 320, "small": 321, "does": 322, "five": 323, "000": 324, "saw": 325, "enough": 326, "mother": 327, "z@@": 328, "u@@": 329, "s@@": 330, "along": 331, "y@@": 332, "k": 333, "king": 334, "though": 335, "following": 336, "a@@": 337, "n@@": 338, "water": 339, "together": 340, "held": 341, "door": 342, "feel": 343, "body": 344, "6": 345, "age": 346, "al@@": 347, "thank": 348, "talk": 349, "ar@@": 350, "everything": 351, "sir": 352, "might": 353, "b": 354, "open": 355, "john": 356, "played": 357, "g@@": 358, "big": 359, "started": 360, "government": 361, "album": 362, "released": 363, "air": 364, "party": 365, "able": 366, "e@@": 367, "leave": 368, "done": 369, "car": 370, "course": 371, "b@@": 372, "west": 373, "7": 374, "someone": 375, "general": 376, "st": 377, "m@@": 378, "$": 379, "an@@": 380, "al": 381, "ma@@": 382, "looking": 383, "play": 384, "hands": 385, "woman": 386, "seen": 387, "days": 388, "wait": 389, "p": 390, "times": 391, "behind": 392, "girl": 393, "death": 394, "es": 395, "based": 396, "having": 397, "late": 398, "black": 399, "money": 400, "turned": 401, "g": 402, "point": 403, "led": 404, "league": 405, "club": 406, "land": 407, "couldn": 408, "n": 409, "different": 410, "run": 411, "y": 412, "mind": 413, "felt": 414, "uh": 415, "top": 416, "already": 417, "women": 418, "white": 419, "8": 420, "doesn": 421, "college": 422, "system": 423, "ro@@": 424, "station": 425, "front": 426, "c@@": 427, "county": 428, "gave": 429, "hard": 430, "public": 431, "coming": 432, "children": 433, "himself": 434, "book": 435, "moved": 436, "ers": 437, "church": 438, "large": 439, "building": 440, "york": 441, "power": 442, "j@@": 443, "kind": 444, "order": 445, "making": 446, "lot": 447, "lost": 448, "live": 449, "march": 450, "band": 451, "fine": 452, "trying": 453, "song": 454, "business": 455, "within": 456, "voice": 457, "east": 458, "f": 459, "real": 460, "guy": 461, "young": 462, "believe": 463, "single": 464, "20": 465, "september": 466, "de@@": 467, "half": 468, "v@@": 469, "—": 470, "june": 471, "today": 472, "century": 473, "heard": 474, "9": 475, "en@@": 476, "h@@": 477, "er@@": 478, "ha@@": 479, "although": 480, "care": 481, "bad": 482, "en": 483, "built": 484, "october": 485, "light": 486, "six": 487, "district": 488, "january": 489, "f@@": 490, "red": 491, "ra@@": 492, "member": 493, "law": 494, "river": 495, "july": 496, "12": 497, "brother": 498, "located": 499, "else": 500, "road": 501, "hear": 502, "l@@": 503, "almost": 504, "international": 505, "inside": 506, "president": 507, "r": 508, "august": 509, "r@@": 510, "local": 511, "major": 512, "field": 513, "named": 514, "dead": 515, "april": 516, "due": 517, "di@@": 518, "close": 519, "0": 520, "soon": 521, "british": 522, "former": 523, "third": 524, "stay": 525, "service": 526, "wife": 527, "move": 528, "full": 529, "across": 530, "yet": 531, "w@@": 532, "getting": 533, "far": 534, "near": 535, "happened": 536, "died": 537, "november": 538, "street": 539, "friend": 540, "working": 541, "heart": 542, "case": 543, "country": 544, "2010": 545, "office": 546, "15": 547, "isn": 548, "december": 549, "main": 550, "ed": 551, "18": 552, "&": 553, "ri@@": 554, "army": 555, "final": 556, "wouldn": 557, "boy": 558, "kill": 559, "fire": 560, "30": 561, "received": 562, "story": 563, "often": 564, "become": 565, "try": 566, "members": 567, "population": 568, "less": 569, "am@@": 570, "start": 571, "um": 572, "idea": 573, "given": 574, "ask": 575, "h": 576, "wrong": 577, "least": 578, "served": 579, "park": 580, "talking": 581, "understand": 582, "free": 583, "history": 584, "taking": 585, "2011": 586, "guys": 587, "morning": 588, "form": 589, "le@@": 590, "million": 591, "nice": 592, "el@@": 593, "hold": 594, "ate": 595, "moment": 596, "si@@": 597, "remember": 598, "hell": 599, "killed": 600, "police": 601, "control": 602, "says": 603, "ch@@": 604, "co@@": 605, "important": 606, "at@@": 607, "x": 608, "games": 609, "opened": 610, "mo@@": 611, "actually": 612, "worked": 613, "dad": 614, "turn": 615, "2012": 616, "court": 617, "li@@": 618, "11": 619, "living": 620, "english": 621, "february": 622, "others": 623, "either": 624, "according": 625, "job": 626, "2008": 627, "art": 628, "probably": 629, "among": 630, "football": 631, "married": 632, "2009": 633, "myself": 634, "or@@": 635, "hair": 636, "bo@@": 637, "v": 638, "alone": 639, "el": 640, "bed": 641, "hit": 642, "friends": 643, "whole": 644, "gone": 645, "blood": 646, "se@@": 647, "ah": 648, "center": 649, "human": 650, "bit": 651, "using": 652, "french": 653, "short": 654, "taken": 655, "la": 656, "sh@@": 657, "ing": 658, "change": 659, "tried": 660, "ti@@": 661, "force": 662, "st@@": 663, "rest": 664, "2013": 665, "ab@@": 666, "person": 667, "25": 668, "2007": 669, "words": 670, "thanks": 671, "ten": 672, "on@@": 673, "ii": 674, "co": 675, "class": 676, "published": 677, "16": 678, "village": 679, "2014": 680, "met": 681, "included": 682, "outside": 683, "word": 684, "matter": 685, "career": 686, "include": 687, "minutes": 688, "14": 689, "original": 690, "be@@": 691, "everyone": 692, "man@@": 693, "mar@@": 694, "act": 695, "meet": 696, "finally": 697, "london": 698, "saying": 699, "phone": 700, "record": 701, "z": 702, "past": 703, "ation": 704, "mouth": 705, "lo@@": 706, "sound": 707, "baby": 708, "support": 709, "ready": 710, "brought": 711, "mom": 712, "per": 713, "week": 714, "continued": 715, "‘": 716, "works": 717, "division": 718, "dark": 719, "returned": 720, "13": 721, "island": 722, "daughter": 723, "listen": 724, "win": 725, "anyone": 726, "arms": 727, "students": 728, "non": 729, "2006": 730, "ground": 731, "as@@": 732, "con@@": 733, "months": 734, "2@@": 735, "true": 736, "instead": 737, "sent": 738, "level": 739, "special": 740, "ago": 741, "military": 742, "german": 743, "ran": 744, "community": 745, "board": 746, "2015": 747, "ok": 748, "shot": 749, "development": 750, "die": 751, "to@@": 752, "car@@": 753, "feet": 754, "j": 755, "playing": 756, "central": 757, "child": 758, "th@@": 759, "research": 760, "shit": 761, "council": 762, "position": 763, "round": 764, "24": 765, "cup": 766, "bu@@": 767, "17": 768, "reached": 769, "pretty": 770, "low": 771, "hours": 772, "100": 773, "fact": 774, "hall": 775, "bring": 776, "ship": 777, "su@@": 778, "established": 779, "problem": 780, "ated": 781, "da": 782, "dr": 783, "miss": 784, "running": 785, "upon": 786, "fight": 787, "further": 788, "ad@@": 789, "written": 790, "table": 791, "hi": 792, "needed": 793, "role": 794, "news": 795, "education": 796, "x@@": 797, "period": 798, "happy": 799, "rock": 800, "3@@": 801, "ts": 802, "mine": 803, "followed": 804, "me@@": 805, "gu@@": 806, "means": 807, "sister": 808, "player": 809, "toward": 810, "cut": 811, "total": 812, "em@@": 813, "created": 814, "deal": 815, "director": 816, "ne@@": 817, "present": 818, "james": 819, "information": 820, "various": 821, "lead": 822, "bi@@": 823, "program": 824, "return": 825, "hope": 826, "4@@": 827, "sometimes": 828, "floor": 829, "ma": 830, "rather": 831, "television": 832, "space": 833, "joined": 834, "england": 835, "is@@": 836, "title": 837, "blue": 838, "thinking": 839, "radio": 840, "looks": 841, "wrote": 842, "haven": 843, "seven": 844, "2016": 845, "it@@": 846, "food": 847, "im@@": 848, "sa@@": 849, "ac@@": 850, "yourself": 851, "political": 852, "western": 853, "mu@@": 854, "du@@": 855, "appeared": 856, "produced": 857, "george": 858, "le": 859, "dis@@": 860, "watch": 861, "per@@": 862, "16@@": 863, "go@@": 864, "ho@@": 865, "plan": 866, "battle": 867, "ine": 868, "sp@@": 869, "guess": 870, "makes": 871, "possible": 872, "list": 873, "decided": 874, "2005": 875, "middle": 876, "pulled": 877, "cause": 878, "san": 879, "hello": 880, "site": 881, "ni@@": 882, "department": 883, "considered": 884, "ted": 885, "social": 886, "ya": 887, "21": 888, "se": 889, "deep": 890, "lu@@": 891, "region": 892, "mi@@": 893, "william": 894, "minute": 895, "do@@": 896, "seemed": 897, "species": 898, "production": 899, "po@@": 900, "green": 901, "w": 902, "union": 903, "finished": 904, "closed": 905, "“": 906, "ar": 907, "hot": 908, "above": 909, "tonight": 910, "leaving": 911, "founded": 912, "huh": 913, "”": 914, "royal": 915, "wall": 916, "award": 917, "arm": 918, "strong": 919, "project": 920, "stone": 921, "common": 922, "ru@@": 923, "david": 924, "19": 925, "stood": 926, "quite": 927, "tv": 928, "quickly": 929, "exactly": 930, "society": 931, "reason": 932, "match": 933, "read": 934, "fucking": 935, "ag@@": 936, "chief": 937, "summer": 938, "vi@@": 939, "husband": 940, "america": 941, "announced": 942, "captain": 943, "version": 944, "girls": 945, "beautiful": 946, "lord": 947, "5@@": 948, "22": 949, "ber@@": 950, "eight": 951, "stand": 952, "question": 953, "ta@@": 954, "so@@": 955, "kept": 956, "feeling": 957, "changed": 958, "50": 959, "fuck": 960, "ating": 961, "parents": 962, "smile": 963, "language": 964, "star": 965, "forward": 966, "race": 967, "sea": 968, "hurt": 969, "herself": 970, "pay": 971, "election": 972, "jack": 973, "association": 974, "ha": 975, "longer": 976, "formed": 977, "usually": 978, "chance": 979, "hadn": 980, "6@@": 981, "attack": 982, "hu@@": 983, "break": 984, "2000": 985, "shut": 986, "es@@": 987, "hospital": 988, "2004": 989, "championship": 990, "services": 991, "23": 992, "ice": 993, "pro@@": 994, "et": 995, "ka": 996, "whatever": 997, "bar@@": 998, "post": 999, "ting": 1000, "doctor": 1001, "waiting": 1002, "gun": 1003, "over@@": 1004, "mc@@": 1005, "master": 1006, "video": 1007, "os": 1008, "clear": 1009, "india": 1010, "design": 1011, "cor@@": 1012, "couple": 1013, "walk": 1014, "style": 1015, "eventually": 1016, "training": 1017, "comes": 1018, "no@@": 1019, "despite": 1020, "release": 1021, "lake": 1022, "wants": 1023, "private": 1024, "fall": 1025, "similar": 1026, "northern": 1027, "california": 1028, "developed": 1029, "]": 1030, "forces": 1031, "17@@": 1032, "seat": 1033, "gold": 1034, "ia": 1035, "date": 1036, "moving": 1037, "ko@@": 1038, "[": 1039, "ton": 1040, "type": 1041, "professional": 1042, "easy": 1043, "ous": 1044, "par@@": 1045, "example": 1046, "ba@@": 1047, "te": 1048, "bank": 1049, "walked": 1050, "om@@": 1051, "southern": 1052, "future": 1053, "ic@@": 1054, "tu@@": 1055, "michael": 1056, "har@@": 1057, "trust": 1058, "lady": 1059, "france": 1060, "sat": 1061, "pre@@": 1062, "tomorrow": 1063, "term": 1064, "modern": 1065, "science": 1066, "track": 1067, "sit": 1068, "points": 1069, "signed": 1070, "stopped": 1071, "average": 1072, "european": 1073, "records": 1074, "answer": 1075, "stage": 1076, "la@@": 1077, "popular": 1078, "bridge": 1079, "worry": 1080, "meeting": 1081, "involved": 1082, "especially": 1083, "cold": 1084, "entire": 1085, "australia": 1086, "26": 1087, "28": 1088, "books": 1089, "27": 1090, "recorded": 1091, "study": 1092, "paul": 1093, "result": 1094, "ec@@": 1095, "hour": 1096, "minister": 1097, "sleep": 1098, "qu@@": 1099, "lips": 1100, "earth": 1101, "areas": 1102, "passed": 1103, "sense": 1104, "op@@": 1105, "ant": 1106, "throughout": 1107, "damn": 1108, "described": 1109, "7@@": 1110, "fell": 1111, "health": 1112, "sold": 1113, "wood": 1114, "na@@": 1115, "ka@@": 1116, "weeks": 1117, "originally": 1118, "action": 1119, "beginning": 1120, "towards": 1121, "standing": 1122, "40": 1123, "na": 1124, "spent": 1125, "mark": 1126, "sub@@": 1127, "process": 1128, "event": 1129, "added": 1130, "happen": 1131, "size": 1132, "sch@@": 1133, "knows": 1134, "remained": 1135, "kids": 1136, "ap@@": 1137, "wide": 1138, "pe@@": 1139, "security": 1140, "et@@": 1141, "attention": 1142, "speak": 1143, "boys": 1144, "2017": 1145, "2003": 1146, "character": 1147, "truth": 1148, "tour": 1149, "drive": 1150, "8@@": 1151, "elected": 1152, "canada": 1153, "addition": 1154, "sha@@": 1155, "takes": 1156, "ter@@": 1157, "ian": 1158, "available": 1159, "perhaps": 1160, "supposed": 1161, "mm": 1162, "wanna": 1163, "leading": 1164, "base": 1165, "lived": 1166, "thomas": 1167, "breath": 1168, "current": 1169, "key": 1170, "bar": 1171, "lower": 1172, "goes": 1173, "skin": 1174, "ates": 1175, "eat": 1176, "meant": 1177, "hi@@": 1178, "construction": 1179, "officer": 1180, "mon@@": 1181, "eye": 1182, "railway": 1183, "sky": 1184, "gi@@": 1185, "route": 1186, "caught": 1187, "self": 1188, "songs": 1189, "schools": 1190, "onto": 1191, "giving": 1192, "range": 1193, "certain": 1194, "placed": 1195, "ver@@": 1196, "pu@@": 1197, "check": 1198, "anyway": 1199, "crazy": 1200, "cu@@": 1201, "uk": 1202, "hill": 1203, "9@@": 1204, "indian": 1205, "ey": 1206, "mrs": 1207, "gotta": 1208, "ol@@": 1209, "brown": 1210, "15@@": 1211, "cross": 1212, "events": 1213, "sex": 1214, "il@@": 1215, "henry": 1216, "dance": 1217, "da@@": 1218, "mor@@": 1219, "peter": 1220, "ley": 1221, "inter@@": 1222, "29": 1223, "pa@@": 1224, "fast": 1225, "drink": 1226, "energy": 1227, "teams": 1228, "lives": 1229, "pi@@": 1230, "appointed": 1231, "ended": 1232, "allowed": 1233, "pain": 1234, "designed": 1235, "fi@@": 1236, "au@@": 1237, "kid": 1238, "te@@": 1239, "earlier": 1240, "robert": 1241, "figure": 1242, "raised": 1243, "…": 1244, "rights": 1245, "ring": 1246, "safe": 1247, "test": 1248, "bill": 1249, "2001": 1250, "fingers": 1251, "itself": 1252, "whose": 1253, "ass": 1254, "stuff": 1255, "2002": 1256, "ds": 1257, "official": 1258, "holding": 1259, "thus": 1260, "media": 1261, "currently": 1262, "touch": 1263, "afraid": 1264, "ford": 1265, "charles": 1266, "europe": 1267, "professor": 1268, "sun": 1269, "ball": 1270, "step": 1271, "coach": 1272, "sc@@": 1273, "chest": 1274, "market": 1275, "eastern": 1276, "nearly": 1277, "germany": 1278, "grand": 1279, "nodded": 1280, "gets": 1281, "der": 1282, "arts": 1283, "centre": 1284, "female": 1285, "largest": 1286, "queen": 1287, "movement": 1288, "writing": 1289, "older": 1290, "features": 1291, "interest": 1292, "ans": 1293, "players": 1294, "ca@@": 1295, "month": 1296, "report": 1297, "network": 1298, "museum": 1299, "performance": 1300, "aren": 1301, "straight": 1302, "committee": 1303, "section": 1304, "ain": 1305, "completely": 1306, "telling": 1307, "ge@@": 1308, "her@@": 1309, "mary": 1310, "cover": 1311, "model": 1312, "ps": 1313, "pass": 1314, "personal": 1315, "ic": 1316, "needs": 1317, "medical": 1318, "glass": 1319, "heavy": 1320, "ahead": 1321, "forget": 1322, "ly": 1323, "save": 1324, "box": 1325, "wish": 1326, "van": 1327, "dog": 1328, "debut": 1329, "ku@@": 1330, "nine": 1331, "ina": 1332, "fun": 1333, "china": 1334, "seems": 1335, "ki@@": 1336, "ons": 1337, "piece": 1338, "immediately": 1339, "rose": 1340, "groups": 1341, "washington": 1342, "poor": 1343, "square": 1344, "perfect": 1345, "fourth": 1346, "parts": 1347, "leader": 1348, "performed": 1349, "episode": 1350, "australian": 1351, "ana": 1352, "completed": 1353, "starting": 1354, "sk@@": 1355, "ms": 1356, "paper": 1357, "ne": 1358, "view": 1359, ">": 1360, "serious": 1361, "he@@": 1362, "gh@@": 1363, "can@@": 1364, "excuse": 1365, "press": 1366, "reported": 1367, "magazine": 1368, "below": 1369, "festival": 1370, "civil": 1371, "except": 1372, "sing": 1373, "follow": 1374, "neck": 1375, "smiled": 1376, "shows": 1377, "trouble": 1378, "31": 1379, "institute": 1380, "=": 1381, "federal": 1382, "window": 1383, "sam": 1384, "ra": 1385, "forced": 1386, "opening": 1387, "chinese": 1388, "em": 1389, "twenty": 1390, "higher": 1391, "ks": 1392, "<": 1393, "command": 1394, "ad": 1395, "ones": 1396, "tri@@": 1397, "natural": 1398, "ir@@": 1399, "cannot": 1400, "kingdom": 1401, "movie": 1402, "success": 1403, "bay": 1404, "degree": 1405, "les": 1406, "sa": 1407, "staff": 1408, "studies": 1409, "themselves": 1410, "relationship": 1411, "student": 1412, "via": 1413, "mer@@": 1414, "previous": 1415, "provided": 1416, "evidence": 1417, "th": 1418, "data": 1419, "alive": 1420, "aircraft": 1421, "sal@@": 1422, "ter": 1423, "worth": 1424, "ci@@": 1425, "conference": 1426, "lines": 1427, "ard": 1428, "shook": 1429, "cool": 1430, "campaign": 1431, "japanese": 1432, "whether": 1433, "decision": 1434, "als": 1435, "slowly": 1436, "winning": 1437, "complete": 1438, "mid": 1439, "anymore": 1440, "helped": 1441, "covered": 1442, "pick": 1443, "ke@@": 1444, "port": 1445, "entered": 1446, "1999": 1447, "shoulder": 1448, "coast": 1449, "seeing": 1450, "los": 1451, "jo@@": 1452, "for@@": 1453, "academy": 1454, "sign": 1455, "train": 1456, "ev@@": 1457, "russian": 1458, "technology": 1459, "replaced": 1460, "hotel": 1461, "kiss": 1462, "mission": 1463, "di": 1464, "systems": 1465, "suddenly": 1466, "studio": 1467, "secret": 1468, "beat": 1469, "competition": 1470, "era": 1471, "chair": 1472, "families": 1473, "independent": 1474, "organization": 1475, "ta": 1476, "watching": 1477, "countries": 1478, "ba": 1479, "introduced": 1480, "smith": 1481, "sitting": 1482, "miles": 1483, "richard": 1484, "foot": 1485, "legs": 1486, "valley": 1487, "dropped": 1488, "christian": 1489, "ty": 1490, "sort": 1491, "provide": 1492, "broke": 1493, "ak@@": 1494, "whom": 1495, "paris": 1496, "choice": 1497, "directed": 1498, "includes": 1499, "cha@@": 1500, "successful": 1501, "ur@@": 1502, "der@@": 1503, "featured": 1504, "sounds": 1505, "unit": 1506, "bur@@": 1507, "mal@@": 1508, "reach": 1509, "arrived": 1510, "trade": 1511, "send": 1512, "ga@@": 1513, "stated": 1514, "owned": 1515, "practice": 1516, "chapter": 1517, "sports": 1518, "capital": 1519, "operation": 1520, "tree": 1521, "fighting": 1522, "seem": 1523, "places": 1524, "fu@@": 1525, "regular": 1526, "experience": 1527, "ju@@": 1528, "fear": 1529, "senior": 1530, "speed": 1531, "ing@@": 1532, "lie": 1533, "industry": 1534, "computer": 1535, "lose": 1536, "guard": 1537, "runs": 1538, "ke": 1539, "shall": 1540, "offered": 1541, "ch": 1542, "management": 1543, "prince": 1544, "wi@@": 1545, "governor": 1546, "1998": 1547, "related": 1548, "problems": 1549, "loved": 1550, "canadian": 1551, "fish": 1552, "spanish": 1553, "ja@@": 1554, "japan": 1555, "managed": 1556, "buildings": 1557, "ent": 1558, "ations": 1559, "fa@@": 1560, "marriage": 1561, "id": 1562, "pl@@": 1563, "active": 1564, "names": 1565, "everybody": 1566, "units": 1567, "double": 1568, "dinner": 1569, "watched": 1570, "goal": 1571, "contract": 1572, "property": 1573, "ph@@": 1574, "african": 1575, "out@@": 1576, "ed@@": 1577, "500": 1578, "pull": 1579, "nobody": 1580, "q@@": 1581, "ex@@": 1582, "standard": 1583, "wa@@": 1584, "situation": 1585, "ways": 1586, "stupid": 1587, "bra@@": 1588, "mostly": 1589, "artist": 1590, "min@@": 1591, "simply": 1592, "access": 1593, "scene": 1594, "famous": 1595, "mountain": 1596, "cell": 1597, "primary": 1598, "native": 1599, "studied": 1600, "foreign": 1601, "ent@@": 1602, "tom": 1603, "manager": 1604, "ner": 1605, "corner": 1606, "questions": 1607, "buy": 1608, "none": 1609, "caused": 1610, "bus": 1611, "census": 1612, "shi@@": 1613, "allow": 1614, "sweet": 1615, "ul@@": 1616, "believed": 1617, "channel": 1618, "ram@@": 1619, "1997": 1620, "previously": 1621, "texas": 1622, "theatre": 1623, "italian": 1624, "join": 1625, "horse": 1626, "1996": 1627, "broken": 1628, "coffee": 1629, "direction": 1630, "peace": 1631, "roman": 1632, "films": 1633, "nature": 1634, "attended": 1635, "fully": 1636, "hate": 1637, "ie": 1638, "ko": 1639, "store": 1640, "paid": 1641, "murder": 1642, "normal": 1643, "library": 1644, "closer": 1645, "length": 1646, "engine": 1647, "operations": 1648, "edge": 1649, "forest": 1650, "grew": 1651, "simple": 1652, "loss": 1653, "yo@@": 1654, "den": 1655, "limited": 1656, "charge": 1657, "ings": 1658, "evening": 1659, "dream": 1660, "ships": 1661, "pan@@": 1662, "camp": 1663, "location": 1664, "plans": 1665, "hundred": 1666, "ability": 1667, "brothers": 1668, "promise": 1669, "generally": 1670, "calling": 1671, "quiet": 1672, "ded": 1673, "boat": 1674, "picture": 1675, "agreed": 1676, "é@@": 1677, "africa": 1678, "prior": 1679, "silver": 1680, "tournament": 1681, "ling": 1682, "saint": 1683, "distance": 1684, "carried": 1685, "cost": 1686, "castle": 1687, "issue": 1688, "becoming": 1689, "required": 1690, "collection": 1691, "ran@@": 1692, "wind": 1693, "offer": 1694, "structure": 1695, "economic": 1696, "navy": 1697, "surface": 1698, "male": 1699, "mis@@": 1700, "secretary": 1701, "awards": 1702, "rate": 1703, "difficult": 1704, "somebody": 1705, "ki": 1706, "cast": 1707, "bye": 1708, "ben": 1709, "uncle": 1710, "mike": 1711, "stars": 1712, "bl@@": 1713, "chicago": 1714, "60": 1715, "walking": 1716, "finish": 1717, "anti": 1718, "lee": 1719, "traditional": 1720, "beyond": 1721, "asking": 1722, "particular": 1723, "flight": 1724, "1995": 1725, "hmm": 1726, "sick": 1727, "share": 1728, "ham": 1729, "han@@": 1730, "continue": 1731, "45": 1732, "joe": 1733, "culture": 1734, "letter": 1735, "novel": 1736, "scored": 1737, "awarded": 1738, "bag": 1739, "plant": 1740, "ite": 1741, "wing": 1742, "frank": 1743, "subject": 1744, "filled": 1745, "significant": 1746, "initially": 1747, "sts": 1748, "failed": 1749, "issues": 1750, "1994": 1751, "ay@@": 1752, "ler": 1753, "quick": 1754, "km": 1755, "catch": 1756, "br": 1757, "airport": 1758, "changes": 1759, "companies": 1760, "expected": 1761, "lay": 1762, "dear": 1763, "200": 1764, "victory": 1765, "shirt": 1766, "terms": 1767, "ding": 1768, "protect": 1769, "write": 1770, "metal": 1771, "1992": 1772, "particularly": 1773, "create": 1774, "pal@@": 1775, "commission": 1776, "source": 1777, "showed": 1778, "approximately": 1779, "picked": 1780, "weren": 1781, "gra@@": 1782, "realized": 1783, "clothes": 1784, "republic": 1785, "headed": 1786, "bal@@": 1787, "cl@@": 1788, "singer": 1789, "province": 1790, "catholic": 1791, "soldiers": 1792, "writer": 1793, "spoke": 1794, "seconds": 1795, "slow": 1796, "likely": 1797, "tor@@": 1798, "prison": 1799, "ou@@": 1800, "cases": 1801, "we@@": 1802, "yours": 1803, "ireland": 1804, "commercial": 1805, "drop": 1806, "fort": 1807, "gas": 1808, "legal": 1809, "highest": 1810, "response": 1811, "focus": 1812, "highway": 1813, "houses": 1814, "rich": 1815, "#": 1816, "funny": 1817, "stories": 1818, "honey": 1819, "jesus": 1820, "theory": 1821, "appearance": 1822, "agent": 1823, "ies": 1824, "br@@": 1825, "war@@": 1826, "mac@@": 1827, "kitchen": 1828, "color": 1829, "ancient": 1830, "shouldn": 1831, "commander": 1832, "wearing": 1833, "ll@@": 1834, "directly": 1835, "fo@@": 1836, "card": 1837, "defeated": 1838, "weight": 1839, "san@@": 1840, "65": 1841, "beach": 1842, "rule": 1843, "upper": 1844, "ss": 1845, "acting": 1846, "ordered": 1847, "under@@": 1848, "policy": 1849, "launched": 1850, "temple": 1851, "kar@@": 1852, "foundation": 1853, "empire": 1854, "clean": 1855, "super@@": 1856, "com@@": 1857, "1993": 1858, "individual": 1859, "spread": 1860, "1990": 1861, "noted": 1862, "fellow": 1863, "responsible": 1864, "gar@@": 1865, "judge": 1866, "justice": 1867, "welcome": 1868, "visit": 1869, "financial": 1870, "historic": 1871, "oil": 1872, "gate": 1873, "religious": 1874, "material": 1875, "contact": 1876, "effect": 1877, "dress": 1878, "ys": 1879, "reading": 1880, "tr@@": 1881, "fair": 1882, "stared": 1883, "teacher": 1884, "memory": 1885, "plays": 1886, "learn": 1887, "missing": 1888, "ig@@": 1889, "bought": 1890, "soft": 1891, "somewhere": 1892, "code": 1893, "throat": 1894, "numerous": 1895, "discovered": 1896, "machine": 1897, "meaning": 1898, "lying": 1899, "shoot": 1900, "1991": 1901, "rules": 1902, "cars": 1903, "soviet": 1904, "attempt": 1905, "é": 1906, "complex": 1907, "id@@": 1908, "uses": 1909, "ger@@": 1910, "musical": 1911, "additional": 1912, "strange": 1913, "cre@@": 1914, "va": 1915, "numbers": 1916, "larger": 1917, "spring": 1918, "increased": 1919, "turning": 1920, "dar@@": 1921, "pop": 1922, "serve": 1923, "ang@@": 1924, "twice": 1925, "des": 1926, "youth": 1927, "explain": 1928, "ly@@": 1929, "pushed": 1930, "artists": 1931, "author": 1932, "¶": 1933, "ness": 1934, "brain": 1935, "listed": 1936, "ish": 1937, "pressure": 1938, "executive": 1939, "growing": 1940, "trees": 1941, "martin": 1942, "ge": 1943, "parliament": 1944, "wh@@": 1945, "spot": 1946, "dy": 1947, "remains": 1948, "crew": 1949, "up@@": 1950, "annual": 1951, "regional": 1952, "stepped": 1953, "magic": 1954, "nu@@": 1955, "associated": 1956, "az@@": 1957, "ser@@": 1958, "heat": 1959, "glad": 1960, "ins": 1961, "worse": 1962, "gaze": 1963, "mexico": 1964, "va@@": 1965, "00": 1966, "note": 1967, "winter": 1968, "leaves": 1969, "wow": 1970, "gives": 1971, "results": 1972, "ville": 1973, "ga": 1974, "35": 1975, "characters": 1976, "lies": 1977, "huge": 1978, "losing": 1979, "physical": 1980, "end@@": 1981, "walls": 1982, "honor": 1983, "wonder": 1984, "mat@@": 1985, "serving": 1986, "majority": 1987, "0@@": 1988, "risk": 1989, "troops": 1990, "bri@@": 1991, "warm": 1992, "nearby": 1993, "cal@@": 1994, "all@@": 1995, "scared": 1996, "angeles": 1997, "speaking": 1998, "escape": 1999, "ride": 2000, "income": 2001, "score": 2002, "shown": 2003, "soul": 2004, "boss": 2005, "planned": 2006, "ator": 2007, "ten@@": 2008, "laughed": 2009, "italy": 2010, "surprise": 2011, "count": 2012, "defense": 2013, "tower": 2014, "fer@@": 2015, "killing": 2016, "slightly": 2017, "activities": 2018, "il": 2019, "ker": 2020, "vo@@": 2021, "1989": 2022, "assistant": 2023, "ends": 2024, "crime": 2025, "sed": 2026, "separate": 2027, "louis": 2028, "greek": 2029, "build": 2030, "ry": 2031, "av@@": 2032, "direct": 2033, "programs": 2034, "keeping": 2035, "calm": 2036, "joseph": 2037, "chi@@": 2038, "prime": 2039, "oc@@": 2040, "recent": 2041, "therefore": 2042, "claimed": 2043, "lieutenant": 2044, "val@@": 2045, "hy@@": 2046, "ray": 2047, "nick": 2048, "sel@@": 2049, "den@@": 2050, "search": 2051, "specific": 2052, "appears": 2053, "ally": 2054, "expression": 2055, "nation": 2056, "represented": 2057, "ali@@": 2058, "christmas": 2059, "assembly": 2060, "super": 2061, "powerful": 2062, "and@@": 2063, "ity": 2064, "storm": 2065, "ens": 2066, "virginia": 2067, "pr@@": 2068, "bel@@": 2069, "purpose": 2070, "forms": 2071, "block": 2072, "recording": 2073, "message": 2074, "ep@@": 2075, "appear": 2076, "worried": 2077, "sar@@": 2078, "sl@@": 2079, "ster": 2080, "del@@": 2081, "tracks": 2082, "recently": 2083, "bottom": 2084, "screen": 2085, "settled": 2086, "trip": 2087, "ze": 2088, "status": 2089, "administration": 2090, "1st": 2091, "empty": 2092, "bet": 2093, "ir": 2094, "yard": 2095, "irish": 2096, "feature": 2097, "ism": 2098, "ff@@": 2099, "ell": 2100, "80": 2101, "variety": 2102, "teeth": 2103, "ses": 2104, "fifth": 2105, "junior": 2106, "sur@@": 2107, "bor@@": 2108, "fl@@": 2109, "ino": 2110, "presence": 2111, "begin": 2112, "florida": 2113, "handle": 2114, "hor@@": 2115, "leg": 2116, "ff": 2117, "earned": 2118, "tight": 2119, "supported": 2120, "windows": 2121, "workers": 2122, "pennsylvania": 2123, "remaining": 2124, "vote": 2125, "ben@@": 2126, "formula_@@": 2127, "1988": 2128, "iron": 2129, "interested": 2130, "calls": 2131, "strength": 2132, "tells": 2133, "est@@": 2134, "neither": 2135, "review": 2136, "officers": 2137, "cultural": 2138, "subsequently": 2139, "wear": 2140, "holy": 2141, "ong": 2142, "ban@@": 2143, "price": 2144, "travel": 2145, "flying": 2146, "actor": 2147, "firm": 2148, "knowledge": 2149, "selected": 2150, "beside": 2151, "ky": 2152, "tra@@": 2153, "32": 2154, "win@@": 2155, "amount": 2156, "increase": 2157, "sight": 2158, "value": 2159, "destroyed": 2160, "dangerous": 2161, "referred": 2162, "q": 2163, "mayor": 2164, "wild": 2165, "don@@": 2166, "est": 2167, "sell": 2168, "tar@@": 2169, "edition": 2170, "greater": 2171, "hang": 2172, "shop": 2173, "operated": 2174, "carry": 2175, "90": 2176, "basketball": 2177, "ay": 2178, "ari@@": 2179, "mad": 2180, "tears": 2181, "whoa": 2182, "cam@@": 2183, "eu@@": 2184, "grade": 2185, "sides": 2186, "plane": 2187, "knowing": 2188, "taught": 2189, "image": 2190, "medal": 2191, "pair": 2192, "apartment": 2193, "enemy": 2194, "liked": 2195, "wedding": 2196, "ny": 2197, "bishop": 2198, "max": 2199, "partner": 2200, "certainly": 2201, "alex": 2202, "goals": 2203, "individuals": 2204, "whispered": 2205, "authority": 2206, "1987": 2207, "historical": 2208, "nose": 2209, "besides": 2210, "easily": 2211, "lucky": 2212, "surprised": 2213, "golden": 2214, "lack": 2215, "jewish": 2216, "apart": 2217, "stations": 2218, "missed": 2219, "drew": 2220, "safety": 2221, "mentioned": 2222, "zealand": 2223, "throw": 2224, "contains": 2225, "ex": 2226, "ren@@": 2227, "removed": 2228, "ear": 2229, "unless": 2230, "driver": 2231, "edward": 2232, "remain": 2233, "lin@@": 2234, "1986": 2235, "mass": 2236, "page": 2237, "necessary": 2238, "replied": 2239, "pre": 2240, "learned": 2241, "chairman": 2242, "cities": 2243, "percent": 2244, "tired": 2245, "glanced": 2246, "border": 2247, "branch": 2248, "art@@": 2249, "influence": 2250, "smaller": 2251, "territory": 2252, "ist": 2253, "highly": 2254, "driving": 2255, "res": 2256, "finger": 2257, "my@@": 2258, "ve@@": 2259, "hole": 2260, "pacific": 2261, "lan@@": 2262, "congress": 2263, "text": 2264, "islands": 2265, "pri@@": 2266, "fly": 2267, "happens": 2268, "orders": 2269, "turns": 2270, "vice": 2271, "path": 2272, "baseball": 2273, "70": 2274, "gr@@": 2275, "grabbed": 2276, "the@@": 2277, "sons": 2278, "heads": 2279, "anna": 2280, "angry": 2281, "sin@@": 2282, "ach@@": 2283, "stadium": 2284, "bo": 2285, "hurry": 2286, "fought": 2287, "planning": 2288, "noticed": 2289, "wine": 2290, "sh": 2291, "emperor": 2292, "mile": 2293, "farm": 2294, "kin": 2295, "producer": 2296, "berg": 2297, "positive": 2298, "ill": 2299, "championships": 2300, "intended": 2301, "14@@": 2302, "luck": 2303, "presented": 2304, "bob": 2305, "1985": 2306, "lock": 2307, "wake": 2308, "matches": 2309, "ano": 2310, "dec@@": 2311, "1984": 2312, "silence": 2313, "engineering": 2314, "account": 2315, "estate": 2316, "damage": 2317, "mainly": 2318, "agreement": 2319, "sam@@": 2320, "daily": 2321, "lights": 2322, "scott": 2323, "ked": 2324, "weapons": 2325, "trial": 2326, "cr@@": 2327, "far@@": 2328, "bitch": 2329, "bodies": 2330, "doubt": 2331, "bro@@": 2332, "quality": 2333, "guns": 2334, "split": 2335, "newspaper": 2336, "effort": 2337, "busy": 2338, "ji": 2339, "pieces": 2340, "overall": 2341, "campus": 2342, "younger": 2343, "shoulders": 2344, "1980": 2345, "animal": 2346, "bird": 2347, "yellow": 2348, "seriously": 2349, "leaned": 2350, "gray": 2351, "multiple": 2352, "tic": 2353, "stomach": 2354, "fault": 2355, "possibly": 2356, "fit": 2357, "jim": 2358, "minor": 2359, "extended": 2360, "conditions": 2361, "tie": 2362, "careful": 2363, "ty@@": 2364, "democratic": 2365, "gen@@": 2366, "till": 2367, "retired": 2368, "steps": 2369, "nations": 2370, "cat": 2371, "|": 2372, "laugh": 2373, "protection": 2374, "dry": 2375, "shortly": 2376, "suit": 2377, "latter": 2378, "ending": 2379, "owner": 2380, "animals": 2381, "ant@@": 2382, "laid": 2383, "ca": 2384, "charlie": 2385, "function": 2386, "ja": 2387, "1@@": 2388, "ics": 2389, "clearly": 2390, "chart": 2391, "thousand": 2392, "jones": 2393, "products": 2394, "ai": 2395, "article": 2396, "19th": 2397, "levels": 2398, "bear": 2399, "provides": 2400, "accepted": 2401, "garden": 2402, "races": 2403, "accident": 2404, "daniel": 2405, "parish": 2406, "thoughts": 2407, "pa": 2408, "graduated": 2409, "za": 2410, "drama": 2411, "nor": 2412, "pleasure": 2413, "drug": 2414, "ce": 2415, "tro@@": 2416, "44": 2417, "1983": 2418, "truck": 2419, "evil": 2420, "apparently": 2421, "gl@@": 2422, "tony": 2423, "bright": 2424, "russia": 2425, "dor@@": 2426, "£": 2427, "broadcast": 2428, "britain": 2429, "bs": 2430, "del": 2431, "recognized": 2432, "tan@@": 2433, "birth": 2434, "conversation": 2435, "respect": 2436, "sta@@": 2437, "gri@@": 2438, "forever": 2439, "grant": 2440, "approach": 2441, "difference": 2442, "officially": 2443, "duke": 2444, "ew@@": 2445, "exchange": 2446, "corps": 2447, "á@@": 2448, "ken": 2449, "equipment": 2450, "definitely": 2451, "draw": 2452, "hide": 2453, "ski": 2454, "bre@@": 2455, "tall": 2456, "chris": 2457, "lands": 2458, "1982": 2459, "un": 2460, "powers": 2461, "hel@@": 2462, "doors": 2463, "afternoon": 2464, "traffic": 2465, "unable": 2466, "treatment": 2467, "households": 2468, "stayed": 2469, "adam": 2470, "composed": 2471, "64": 2472, "males": 2473, "ron": 2474, "revealed": 2475, "talked": 2476, "aged": 2477, "ea@@": 2478, "host": 2479, "seasons": 2480, "boston": 2481, "moon": 2482, "barely": 2483, "champion": 2484, "creek": 2485, "ical": 2486, "fe@@": 2487, "pen@@": 2488, "sen@@": 2489, "spend": 2490, "activity": 2491, "proposed": 2492, "online": 2493, "freedom": 2494, "burn": 2495, "mag@@": 2496, "yards": 2497, "editor": 2498, "enc@@": 2499, "row": 2500, "steve": 2501, "wales": 2502, "han": 2503, "prize": 2504, "um@@": 2505, "happening": 2506, "municipality": 2507, "growth": 2508, "1979": 2509, "anybody": 2510, "spain": 2511, "elements": 2512, "fields": 2513, "2nd": 2514, "els": 2515, "acquired": 2516, "humans": 2517, "connected": 2518, "colonel": 2519, "housing": 2520, "´": 2521, "imagine": 2522, "lifted": 2523, "flat": 2524, "ver": 2525, "ence": 2526, "ically": 2527, "females": 2528, "extra": 2529, "13@@": 2530, "steel": 2531, "thirty": 2532, "33": 2533, "ets": 2534, "mixed": 2535, "harry": 2536, "gro@@": 2537, "crowd": 2538, "christ": 2539, "threw": 2540, "ative": 2541, "net": 2542, "1945": 2543, "regiment": 2544, "rise": 2545, "pointed": 2546, "desk": 2547, "constructed": 2548, "tongue": 2549, "ines": 2550, "refused": 2551, "rec@@": 2552, "ara": 2553, "tone": 2554, "falls": 2555, "air@@": 2556, "ali": 2557, "potential": 2558, "absolutely": 2559, "anger": 2560, "1972": 2561, "opportunity": 2562, "digital": 2563, "suggested": 2564, "consists": 2565, "ages": 2566, "duty": 2567, "smell": 2568, "letters": 2569, "zone": 2570, "produce": 2571, "marry": 2572, "1980s": 2573, "rain": 2574, "10@@": 2575, "ho": 2576, "locked": 2577, "elizabeth": 2578, "men@@": 2579, "fleet": 2580, "iii": 2581, "kin@@": 2582, "gs": 2583, "bon@@": 2584, "totally": 2585, "ry@@": 2586, "effects": 2587, "1981": 2588, "que": 2589, "vision": 2590, "guest": 2591, "mountains": 2592, "ale": 2593, "ata": 2594, "attacked": 2595, "racing": 2596, "36": 2597, "mil@@": 2598, "impossible": 2599, "1974": 2600, "beneath": 2601, "pet@@": 2602, "issued": 2603, "dan": 2604, "residents": 2605, "fresh": 2606, "primarily": 2607, "painting": 2608, "pictures": 2609, "promoted": 2610, "putting": 2611, "dutch": 2612, "ves": 2613, "weird": 2614, "12@@": 2615, "scale": 2616, "quarter": 2617, "address": 2618, "pin@@": 2619, "ill@@": 2620, "focused": 2621, "guitar": 2622, "handed": 2623, "captured": 2624, "passing": 2625, "1970": 2626, "johnson": 2627, "stick": 2628, "expect": 2629, "carolina": 2630, "ur": 2631, "latin": 2632, "cat@@": 2633, "sexual": 2634, "finding": 2635, "ica": 2636, "anywhere": 2637, "initial": 2638, "thick": 2639, "1975": 2640, "shape": 2641, "fired": 2642, "sarah": 2643, "armed": 2644, "transport": 2645, "spirit": 2646, "township": 2647, "push": 2648, "roll": 2649, "daddy": 2650, "vampire": 2651, "agency": 2652, "1976": 2653, "otherwise": 2654, "defeat": 2655, "je@@": 2656, "francisco": 2657, "palace": 2658, "faced": 2659, "grace": 2660, "gre@@": 2661, "learning": 2662, "stock": 2663, "1978": 2664, "amazing": 2665, "accept": 2666, "types": 2667, "enter": 2668, "basis": 2669, "label": 2670, "claim": 2671, "dan@@": 2672, "birds": 2673, "hal@@": 2674, "1968": 2675, "wave": 2676, "winner": 2677, "product": 2678, "transferred": 2679, "com": 2680, "wonderful": 2681, "organized": 2682, "chosen": 2683, "ak": 2684, "global": 2685, "eric": 2686, "1970s": 2687, "roof": 2688, "occurred": 2689, "avenue": 2690, "interesting": 2691, "electric": 2692, "fr@@": 2693, "returning": 2694, "gal@@": 2695, "alexander": 2696, "challenge": 2697, "divided": 2698, "corporation": 2699, "target": 2700, "advanced": 2701, "sen": 2702, "birthday": 2703, "ment": 2704, "leaders": 2705, "sword": 2706, "saved": 2707, "plus": 2708, "staring": 2709, "dra@@": 2710, "waited": 2711, "realize": 2712, "bell": 2713, "ye": 2714, "compared": 2715, "ker@@": 2716, "shi": 2717, "scotland": 2718, "notable": 2719, "mistake": 2720, "buried": 2721, "obviously": 2722, "becomes": 2723, "jersey": 2724, "anti@@": 2725, "pro": 2726, "interview": 2727, "setting": 2728, "grow": 2729, "ang": 2730, "efforts": 2731, "notice": 2732, "ocean": 2733, "entrance": 2734, "projects": 2735, "joint": 2736, "ber": 2737, "34": 2738, "asia": 2739, "sor@@": 2740, "1973": 2741, "camera": 2742, "typically": 2743, "starts": 2744, "connection": 2745, "sets": 2746, "nor@@": 2747, "ena": 2748, "secondary": 2749, "ful": 2750, "journal": 2751, "lam@@": 2752, "rolled": 2753, "cap@@": 2754, "prepared": 2755, "tax": 2756, "ac": 2757, "victoria": 2758, "ek": 2759, "20th": 2760, "1977": 2761, "rome": 2762, "tea": 2763, "iz@@": 2764, "+": 2765, "ri": 2766, "ary": 2767, "af@@": 2768, "jackson": 2769, "ore": 2770, "38": 2771, "academic": 2772, "suppose": 2773, "sis": 2774, "ss@@": 2775, "pool": 2776, "helping": 2777, "li": 2778, "sti@@": 2779, "mel@@": 2780, "falling": 2781, "ken@@": 2782, "shed": 2783, "smart": 2784, "reasons": 2785, "lawyer": 2786, "medicine": 2787, "ble": 2788, "industrial": 2789, "tre@@": 2790, "asian": 2791, "selling": 2792, "avoid": 2793, "dressed": 2794, "anne": 2795, "cry": 2796, "assigned": 2797, "ger": 2798, "simon": 2799, "1969": 2800, "alright": 2801, "silent": 2802, "1971": 2803, "planet": 2804, "begins": 2805, "si": 2806, "suffered": 2807, "ob@@": 2808, "urban": 2809, "cas@@": 2810, "notes": 2811, "pressed": 2812, "tiny": 2813, "answered": 2814, "grown": 2815, "headquarters": 2816, "opera": 2817, "jean": 2818, "ery": 2819, "determined": 2820, "parties": 2821, "invited": 2822, "operating": 2823, "affairs": 2824, "mount": 2825, "ance": 2826, "ash@@": 2827, "300": 2828, "clubs": 2829, "feels": 2830, "agree": 2831, "char@@": 2832, "gained": 2833, "lin": 2834, "shared": 2835, "arrested": 2836, "fin@@": 2837, "beer": 2838, "williams": 2839, "dean": 2840, "prominent": 2841, "hearing": 2842, "star@@": 2843, "politician": 2844, "streets": 2845, "elections": 2846, "somehow": 2847, "ohio": 2848, "1967": 2849, "thinks": 2850, "ors": 2851, "singles": 2852, "tal@@": 2853, "software": 2854, "concept": 2855, "weather": 2856, "yesterday": 2857, "mann": 2858, "weapon": 2859, "ladies": 2860, "brand": 2861, "ro": 2862, "reaching": 2863, "ingly": 2864, "entertainment": 2865, "lunch": 2866, "laws": 2867, "israel": 2868, "relief": 2869, "clock": 2870, "eng@@": 2871, "actions": 2872, "cash": 2873, "breaking": 2874, "alongside": 2875, "literature": 2876, "critical": 2877, "ministry": 2878, "hol@@": 2879, "classes": 2880, "ee": 2881, "method": 2882, "environment": 2883, "reports": 2884, "remembered": 2885, "condition": 2886, "faith": 2887, "michigan": 2888, "marked": 2889, "theater": 2890, "declared": 2891, "terrible": 2892, "offers": 2893, "teaching": 2894, "enjoy": 2895, "3rd": 2896, "unique": 2897, "reality": 2898, "indeed": 2899, "median": 2900, "content": 2901, "sunday": 2902, "vehicle": 2903, "pulling": 2904, "tes": 2905, "serves": 2906, "75": 2907, "santa": 2908, "republican": 2909, "explained": 2910, "internet": 2911, "1960s": 2912, "commonly": 2913, "plants": 2914, "naval": 2915, "appearances": 2916, "capacity": 2917, "sil@@": 2918, "sw@@": 2919, "col@@": 2920, "wal@@": 2921, "crossed": 2922, "marine": 2923, "eh": 2924, "disease": 2925, "polish": 2926, "bc": 2927, "follows": 2928, "yu@@": 2929, "entirely": 2930, "kh@@": 2931, "37": 2932, "gor@@": 2933, "basic": 2934, "principal": 2935, "contemporary": 2936, "titled": 2937, "reserve": 2938, "snow": 2939, "acts": 2940, "cur@@": 2941, "twelve": 2942, "adopted": 2943, "concerned": 2944, "pack": 2945, "unlike": 2946, "gun@@": 2947, "ents": 2948, "formerly": 2949, "surrounding": 2950, "sydney": 2951, "albums": 2952, "plate": 2953, "pat@@": 2954, "42": 2955, "audience": 2956, "feelings": 2957, "sport": 2958, "jason": 2959, "scientific": 2960, "nar@@": 2961, "dedicated": 2962, "shooting": 2963, "speech": 2964, "positions": 2965, "leadership": 2966, "hoping": 2967, "48": 2968, "kissed": 2969, "strike": 2970, "worst": 2971, "ita": 2972, "princess": 2973, "blow": 2974, "purchased": 2975, "pp@@": 2976, "gotten": 2977, "ada": 2978, "analysis": 2979, "sion": 2980, "combined": 2981, "greatest": 2982, "zi@@": 2983, "dying": 2984, "ess": 2985, "bringing": 2986, "opposite": 2987, "flowers": 2988, "receive": 2989, "circle": 2990, "sharp": 2991, "squadron": 2992, "supply": 2993, "1990s": 2994, "senate": 2995, "restaurant": 2996, "settlement": 2997, "ideas": 2998, "formation": 2999, "continues": 3000, "intelligence": 3001, "founder": 3002, "sk": 3003, "ered": 3004, "zed": 3005, "var@@": 3006, "density": 3007, "core": 3008, "ryan": 3009, "showing": 3010, "mention": 3011, "cra@@": 3012, "generation": 3013, "consider": 3014, "lar@@": 3015, "andrew": 3016, "mi": 3017, "applied": 3018, "tw@@": 3019, "bowl": 3020, "tt@@": 3021, "facilities": 3022, "ping": 3023, "hunter": 3024, "sy@@": 3025, "sleeping": 3026, "hockey": 3027, "hand@@": 3028, "sad": 3029, "lane": 3030, "stuck": 3031, "fre@@": 3032, "promised": 3033, "claims": 3034, "jump": 3035, "jake": 3036, "lea@@": 3037, "motion": 3038, "sales": 3039, "gift": 3040, "brian": 3041, "mate": 3042, "confirmed": 3043, "kal@@": 3044, "1964": 3045, "wet": 3046, "details": 3047, "infantry": 3048, "ney": 3049, "bury": 3050, "may@@": 3051, "bedroom": 3052, "widely": 3053, "kan@@": 3054, "dem@@": 3055, "conducted": 3056, "comedy": 3057, "gan@@": 3058, "relations": 3059, "pocket": 3060, "aid": 3061, "ft": 3062, "investigation": 3063, "1965": 3064, "ok@@": 3065, "sha": 3066, "sol@@": 3067, "exist": 3068, "concert": 3069, "ned": 3070, "ears": 3071, "tion": 3072, "allows": 3073, "sources": 3074, "55": 3075, "platform": 3076, "carrying": 3077, "attacks": 3078, "1944": 3079, "solo": 3080, "knife": 3081, "trained": 3082, "singing": 3083, "granted": 3084, "credit": 3085, "signal": 3086, "trans@@": 3087, "impact": 3088, "holds": 3089, "candidate": 3090, "criminal": 3091, "allowing": 3092, "pur@@": 3093, "languages": 3094, "facility": 3095, "shu@@": 3096, "politics": 3097, "bbc": 3098, "1966": 3099, "jr": 3100, "wolf": 3101, "dy@@": 3102, "ward": 3103, "ti": 3104, "georgia": 3105, "pilot": 3106, "asks": 3107, "rail": 3108, "wil@@": 3109, "favor": 3110, "patient": 3111, "killer": 3112, "ai@@": 3113, "seats": 3114, "website": 3115, "emergency": 3116, "cy@@": 3117, "hong": 3118, "choose": 3119, "usa": 3120, "ven@@": 3121, "cro@@": 3122, "columbia": 3123, "ati@@": 3124, "ny@@": 3125, "prove": 3126, "resources": 3127, "favorite": 3128, "aware": 3129, "girlfriend": 3130, "understood": 3131, "smoke": 3132, "largely": 3133, "models": 3134, "semi": 3135, "ste@@": 3136, "darkness": 3137, "upset": 3138, "combat": 3139, "rooms": 3140, "touched": 3141, "loud": 3142, "usual": 3143, "statement": 3144, "taste": 3145, "tradition": 3146, "berlin": 3147, "crown": 3148, "thin": 3149, "fri@@": 3150, "dating": 3151, "railroad": 3152, "eating": 3153, "scottish": 3154, "revolution": 3155, "rugby": 3156, "renamed": 3157, "cells": 3158, "technical": 3159, "ot": 3160, "coat": 3161, "met@@": 3162, "household": 3163, "wings": 3164, "pol@@": 3165, "danger": 3166, "listening": 3167, "papers": 3168, "estimated": 3169, "guards": 3170, "figures": 3171, "rural": 3172, "deputy": 3173, "cancer": 3174, "ini": 3175, "finds": 3176, "bathroom": 3177, "chain": 3178, "tom@@": 3179, "kick": 3180, "jane": 3181, "taylor": 3182, "ung": 3183, "kidding": 3184, "raise": 3185, "dev@@": 3186, "rear": 3187, "sive": 3188, "ze@@": 3189, "tam@@": 3190, "reaction": 3191, "att@@": 3192, "tions": 3193, "ji@@": 3194, "arthur": 3195, "pra@@": 3196, "van@@": 3197, "trail": 3198, "decide": 3199, "kong": 3200, "41": 3201, "defined": 3202, "flow": 3203, "hat": 3204, "fox": 3205, "frame": 3206, "dude": 3207, "rick": 3208, "sm@@": 3209, "von": 3210, "ham@@": 3211, "knees": 3212, "bas@@": 3213, "noise": 3214, "factory": 3215, "wondered": 3216, "non@@": 3217, "drawn": 3218, "mess": 3219, "supreme": 3220, "1960": 3221, "bound": 3222, "tur@@": 3223, "beauty": 3224, "counter": 3225, "figured": 3226, "creation": 3227, "mer": 3228, "ster@@": 3229, "mental": 3230, "sea@@": 3231, "shoes": 3232, "stra@@": 3233, "weekend": 3234, "bone": 3235, "fans": 3236, "fixed": 3237, "47": 3238, "independence": 3239, "desire": 3240, "aside": 3241, "newly": 3242, "gam@@": 3243, "tru@@": 3244, "cer@@": 3245, "occupied": 3246, "ei@@": 3247, "actress": 3248, "sixth": 3249, "familiar": 3250, "ying": 3251, "4th": 3252, "gan": 3253, "detective": 3254, "swear": 3255, "maria": 3256, "nuclear": 3257, "hanging": 3258, "son@@": 3259, "unknown": 3260, "communities": 3261, "hired": 3262, "sounded": 3263, "new@@": 3264, "ties": 3265, "billy": 3266, "reduced": 3267, "dreams": 3268, "abandoned": 3269, "stairs": 3270, "memorial": 3271, "cards": 3272, "featuring": 3273, "shock": 3274, "inspired": 3275, "lt": 3276, "entry": 3277, "tive": 3278, "transfer": 3279, "ized": 3280, "chose": 3281, "identified": 3282, "nervous": 3283, "drinking": 3284, "uni@@": 3285, "participated": 3286, "39": 3287, "sighed": 3288, "distribution": 3289, "develop": 3290, "fa": 3291, "shing": 3292, "ering": 3293, "citizens": 3294, "angel": 3295, "1942": 3296, "sun@@": 3297, "letting": 3298, "mill": 3299, "rare": 3300, "hasn": 3301, "du": 3302, "task": 3303, "ath": 3304, "hen@@": 3305, "yo": 3306, "por@@": 3307, "matt": 3308, "cd": 3309, "providing": 3310, "clo@@": 3311, "ama": 3312, "bat@@": 3313, "woods": 3314, "pe": 3315, "ow@@": 3316, "boyfriend": 3317, "billion": 3318, "horses": 3319, "heavily": 3320, "volume": 3321, "aunt": 3322, "creating": 3323, "ls": 3324, "mur@@": 3325, "labor": 3326, "perform": 3327, "gay": 3328, "map": 3329, "visited": 3330, "file": 3331, "ooh": 3332, "hom@@": 3333, "faster": 3334, "drugs": 3335, "skills": 3336, "violence": 3337, "1963": 3338, "ranked": 3339, "mobile": 3340, "biggest": 3341, "existence": 3342, "black@@": 3343, "400": 3344, "titles": 3345, "jan@@": 3346, "hung": 3347, "willing": 3348, "designated": 3349, "chin": 3350, "drove": 3351, "hidden": 3352, "stands": 3353, "atlantic": 3354, "drunk": 3355, "classic": 3356, "dale": 3357, "disappeared": 3358, "americans": 3359, "hers": 3360, "weak": 3361, "teach": 3362, "kers": 3363, "centuries": 3364, "struck": 3365, "draft": 3366, "fix": 3367, "fan": 3368, "background": 3369, "ade": 3370, "grey": 3371, "resulted": 3372, "authorities": 3373, "ser": 3374, "roles": 3375, "performing": 3376, "ars": 3377, "jazz": 3378, "prevent": 3379, "by@@": 3380, "hero": 3381, "ck": 3382, "1941": 3383, "oldest": 3384, "attempted": 3385, "ched": 3386, "1962": 3387, "expanded": 3388, "ton@@": 3389, "vol@@": 3390, "ene": 3391, "injury": 3392, "covers": 3393, "grab": 3394, "threat": 3395, "hills": 3396, "adult": 3397, "orange": 3398, "liberal": 3399, "brief": 3400, "stu@@": 3401, "darling": 3402, "oo@@": 3403, "staying": 3404, "1940": 3405, "fiction": 3406, "vin@@": 3407, "format": 3408, "jimmy": 3409, "ats": 3410, "destroy": 3411, "ash": 3412, "episodes": 3413, "ura": 3414, "micro@@": 3415, "bottle": 3416, "link": 3417, "wilson": 3418, "fund": 3419, "advantage": 3420, "chamber": 3421, "concern": 3422, "officials": 3423, "critics": 3424, "wrapped": 3425, "controlled": 3426, "burned": 3427, "head@@": 3428, "52": 3429, "attorney": 3430, "illinois": 3431, "rank": 3432, "sy": 3433, "respectively": 3434, "su": 3435, "scoring": 3436, "proud": 3437, "bloody": 3438, "ns": 3439, "poland": 3440, "49": 3441, "permanent": 3442, "carefully": 3443, "thousands": 3444, "imperial": 3445, "kim": 3446, "opposition": 3447, "sites": 3448, "architecture": 3449, "chase": 3450, "classical": 3451, "tied": 3452, "organizations": 3453, "actual": 3454, "causing": 3455, "fool": 3456, "wore": 3457, "ow": 3458, "ely": 3459, "pants": 3460, "1948": 3461, "5th": 3462, "squad": 3463, "identity": 3464, "situated": 3465, "43": 3466, "rolling": 3467, "shrugged": 3468, "1943": 3469, "existing": 3470, "kam@@": 3471, "hoped": 3472, "dr@@": 3473, "hiding": 3474, "ell@@": 3475, "saturday": 3476, "neighborhood": 3477, "rush": 3478, "chi": 3479, "51": 3480, "waste": 3481, "alternative": 3482, "theme": 3483, "patients": 3484, "ani": 3485, "roger": 3486, "jo": 3487, "guilty": 3488, "keys": 3489, "burning": 3490, "ol": 3491, "fill": 3492, "cousin": 3493, "engaged": 3494, "understanding": 3495, "giant": 3496, "patrick": 3497, "administrative": 3498, "iti@@": 3499, "rac@@": 3500, "truly": 3501, "1939": 3502, "mo": 3503, "wheel": 3504, "phase": 3505, "slid": 3506, "os@@": 3507, "dro@@": 3508, "feed": 3509, "brigade": 3510, "ning": 3511, "constitution": 3512, "frequently": 3513, "mail": 3514, "bell@@": 3515, "quietly": 3516, "fuel": 3517, "trains": 3518, "faces": 3519, "relatively": 3520, "effective": 3521, "1946": 3522, "1961": 3523, "hosted": 3524, "fashion": 3525, "ron@@": 3526, "responsibility": 3527, "massachusetts": 3528, "46": 3529, "request": 3530, "resulting": 3531, "bomb": 3532, "economy": 3533, "ches": 3534, "materials": 3535, "admitted": 3536, "fat": 3537, "cheek": 3538, "reviews": 3539, "admit": 3540, "lla": 3541, "negative": 3542, "ese": 3543, "buddy": 3544, "kat@@": 3545, "alan": 3546, "matters": 3547, "capable": 3548, "lovely": 3549, "attempts": 3550, "hungry": 3551, "extremely": 3552, "í@@": 3553, "heading": 3554, "95": 3555, "launch": 3556, "incident": 3557, "arrest": 3558, "internal": 3559, "dollars": 3560, "changing": 3561, "rising": 3562, "ington": 3563, "religion": 3564, "passenger": 3565, "dates": 3566, "rachel": 3567, "soldier": 3568, "votes": 3569, "vi": 3570, "š@@": 3571, "confused": 3572, "priest": 3573, "dare": 3574, "vel@@": 3575, "dancing": 3576, "reference": 3577, "honest": 3578, "conflict": 3579, "`": 3580, "briefly": 3581, "ari": 3582, "burg": 3583, "bru@@": 3584, "johnny": 3585, "ire": 3586, "gen": 3587, "sey": 3588, "proved": 3589, "tank": 3590, "dirty": 3591, "labour": 3592, "philadelphia": 3593, "bones": 3594, "ä@@": 3595, "stein": 3596, "relax": 3597, "1950": 3598, "height": 3599, "graduate": 3600, "opinion": 3601, "educational": 3602, "borough": 3603, "olympics": 3604, "ston": 3605, "solid": 3606, "bass": 3607, "wooden": 3608, "ther@@": 3609, "object": 3610, "fied": 3611, "mirror": 3612, "poly@@": 3613, "landing": 3614, "lat@@": 3615, "finals": 3616, "wa": 3617, "banks": 3618, "1956": 3619, "promotion": 3620, "shake": 3621, "portion": 3622, "gently": 3623, "narrow": 3624, "premier": 3625, "walter": 3626, "breakfast": 3627, "kevin": 3628, "ming": 3629, "warning": 3630, "regions": 3631, "achieved": 3632, "dogs": 3633, "1947": 3634, "laughing": 3635, "closely": 3636, "pink": 3637, "vehicles": 3638, "alliance": 3639, "conservative": 3640, "obtained": 3641, "tor": 3642, "lift": 3643, "ality": 3644, "mp@@": 3645, "journey": 3646, "amy": 3647, "fallen": 3648, "eve": 3649, "tough": 3650, "ach": 3651, "interior": 3652, "hits": 3653, "1958": 3654, "battalion": 3655, "sale": 3656, "dick": 3657, "likes": 3658, "cricket": 3659, "dd@@": 3660, "temperature": 3661, "convention": 3662, "breathing": 3663, "1959": 3664, "gg@@": 3665, "lip": 3666, "versions": 3667, "express": 3668, "sudden": 3669, "device": 3670, "ó@@": 3671, "communist": 3672, "representative": 3673, "failure": 3674, "ously": 3675, "tail": 3676, "jail": 3677, "mid@@": 3678, "land@@": 3679, "piano": 3680, "ists": 3681, "display": 3682, "survive": 3683, "us@@": 3684, "approved": 3685, "shore": 3686, "funding": 3687, "performances": 3688, "inner": 3689, "davis": 3690, "cook": 3691, "champions": 3692, "toronto": 3693, "ln@@": 3694, "ira": 3695, "sisters": 3696, "gain": 3697, "painted": 3698, "gallery": 3699, "charged": 3700, "emma": 3701, "surrounded": 3702, "correct": 3703, "specifically": 3704, "forgot": 3705, "drawing": 3706, "progress": 3707, "entitled": 3708, "99": 3709, "grass": 3710, "dri@@": 3711, "heritage": 3712, "fc": 3713, "dun@@": 3714, "ridge": 3715, "gentlemen": 3716, "sought": 3717, "universe": 3718, "pope": 3719, "bastard": 3720, "register": 3721, "succeeded": 3722, "tin@@": 3723, "typical": 3724, "ola": 3725, "ators": 3726, "proper": 3727, "methods": 3728, "obvious": 3729, "environmental": 3730, "moments": 3731, "miller": 3732, "equal": 3733, "etc": 3734, "ultimately": 3735, "coll@@": 3736, "assumed": 3737, "sees": 3738, "ching": 3739, "ders": 3740, "wondering": 3741, "dragon": 3742, "representatives": 3743, "lap": 3744, "application": 3745, "mol@@": 3746, "sr": 3747, "homes": 3748, "1957": 3749, "roads": 3750, "ette": 3751, "bureau": 3752, "lewis": 3753, "pon@@": 3754, "forth": 3755, "victim": 3756, "receiving": 3757, "origin": 3758, "earl": 3759, "districts": 3760, "employed": 3761, "normally": 3762, "stephen": 3763, "ging": 3764, "sciences": 3765, "educated": 3766, "pakistan": 3767, "belt": 3768, "demand": 3769, "contained": 3770, "ep": 3771, "subsequent": 3772, "luke": 3773, "lor@@": 3774, "orchestra": 3775, "54": 3776, "tran@@": 3777, "forgive": 3778, "jumped": 3779, "shadow": 3780, "regarding": 3781, "ala": 3782, "inc": 3783, "korea": 3784, "spoken": 3785, "advice": 3786, "ges": 3787, "quit": 3788, "downtown": 3789, "add": 3790, "balls": 3791, "dur@@": 3792, "olympic": 3793, "au": 3794, "copy": 3795, "chemical": 3796, "increasing": 3797, "load": 3798, "commissioned": 3799, "attached": 3800, "zer": 3801, "images": 3802, "eg@@": 3803, "communication": 3804, "joke": 3805, "facing": 3806, "sector": 3807, "advance": 3808, "che@@": 3809, "hip": 3810, "nominated": 3811, "easier": 3812, "ontario": 3813, "cop": 3814, "lots": 3815, "web": 3816, "leads": 3817, "standards": 3818, "pregnant": 3819, "ear@@": 3820, "philosophy": 3821, "everywhere": 3822, "friendly": 3823, "im": 3824, "massive": 3825, "ghost": 3826, "supporting": 3827, "signs": 3828, "behavior": 3829, "northwest": 3830, "grandfather": 3831, "bands": 3832, "passes": 3833, "back@@": 3834, "1955": 3835, "shift": 3836, "copies": 3837, "fm": 3838, "crying": 3839, "movies": 3840, "85": 3841, "softly": 3842, "loves": 3843, "asleep": 3844, "broad": 3845, "offices": 3846, "joining": 3847, "rou@@": 3848, "jan": 3849, "insurance": 3850, "extensive": 3851, "kelly": 3852, "ky@@": 3853, "med": 3854, "rescue": 3855, "defence": 3856, "towns": 3857, "grounds": 3858, "jeff": 3859, "maximum": 3860, "sending": 3861, "poetry": 3862, "shaking": 3863, "bol@@": 3864, "programme": 3865, "6th": 3866, "dre@@": 3867, "worldwide": 3868, "1949": 3869, "53": 3870, "bio@@": 3871, "red@@": 3872, "goodbye": 3873, "tunnel": 3874, "ceremony": 3875, "injured": 3876, "vis@@": 3877, "opposed": 3878, "wounded": 3879, "hardly": 3880, "gall@@": 3881, "hoo@@": 3882, "eddie": 3883, "resistance": 3884, "dam@@": 3885, "peak": 3886, "smiling": 3887, "memories": 3888, "lev@@": 3889, "oxford": 3890, "proof": 3891, "pale": 3892, "excellent": 3893, "fighter": 3894, "gh": 3895, "sake": 3896, "faculty": 3897, "engineer": 3898, "loose": 3899, "teachers": 3900, "ble@@": 3901, "danny": 3902, "checked": 3903, "yn": 3904, "kate": 3905, "sand": 3906, "competed": 3907, "heaven": 3908, "part@@": 3909, "1950s": 3910, "sted": 3911, "innocent": 3912, "west@@": 3913, "dave": 3914, "meat": 3915, "tel@@": 3916, "dna": 3917, "qui@@": 3918, "fame": 3919, "bi": 3920, "bigger": 3921, "ann": 3922, "charges": 3923, "1952": 3924, "monster": 3925, "idiot": 3926, "contest": 3927, "cont@@": 3928, "tries": 3929, "ban": 3930, "ella": 3931, "committed": 3932, "experienced": 3933, "1954": 3934, "writers": 3935, "tip": 3936, "blame": 3937, "7th": 3938, "francis": 3939, "covering": 3940, "soccer": 3941, "demon": 3942, "dies": 3943, "66": 3944, "whit@@": 3945, "din@@": 3946, "ah@@": 3947, "inch": 3948, "gang": 3949, "cave": 3950, "aired": 3951, "fal@@": 3952, "howard": 3953, "water@@": 3954, "articles": 3955, "municipal": 3956, "dated": 3957, "parking": 3958, "canal": 3959, "ick": 3960, "hunt": 3961, "stri@@": 3962, "squ@@": 3963, "fore@@": 3964, "registered": 3965, "swedish": 3966, "1953": 3967, "sugar": 3968, "brick": 3969, "ck@@": 3970, "jews": 3971, "funds": 3972, "albert": 3973, "scheduled": 3974, "represent": 3975, "rough": 3976, "fifteen": 3977, "bond": 3978, "riding": 3979, "mp": 3980, "climate": 3981, "bla@@": 3982, "ku": 3983, "sub": 3984, "suicide": 3985, "wanting": 3986, "sions": 3987, "employees": 3988, "communications": 3989, "harder": 3990, "decades": 3991, "shaped": 3992, "fifty": 3993, "atic": 3994, "stream": 3995, "closing": 3996, "secure": 3997, "offering": 3998, "budget": 3999, "ere": 4000, "finishing": 4001, "comic": 4002, "hundreds": 4003, "arranged": 4004, "1918": 4005, "ped": 4006, "ni": 4007, "korean": 4008, "morgan": 4009, "affected": 4010, "flesh": 4011, "founding": 4012, "electronic": 4013, "friday": 4014, "motor": 4015, "literary": 4016, "developing": 4017, "blind": 4018, "ett": 4019, "lit": 4020, "forgotten": 4021, "ably": 4022, "rid": 4023, "ory": 4024, "slipped": 4025, "surgery": 4026, "domestic": 4027, "sto@@": 4028, "flew": 4029, "category": 4030, "bite": 4031, "fur@@": 4032, "odd": 4033, "crossing": 4034, "shower": 4035, "58": 4036, "perfectly": 4037, "treaty": 4038, "ot@@": 4039, "56": 4040, "landed": 4041, "underground": 4042, "senator": 4043, "lli@@": 4044, "survived": 4045, "scenes": 4046, "sho@@": 4047, "dal@@": 4048, "mexican": 4049, "villages": 4050, "stores": 4051, "victims": 4052, "southeast": 4053, "grave": 4054, "comfortable": 4055, "expansion": 4056, "dic@@": 4057, "57": 4058, "costs": 4059, "weekly": 4060, "naked": 4061, "flag": 4062, "62": 4063, "combination": 4064, "sia": 4065, "ov": 4066, "attend": 4067, "pas@@": 4068, "hat@@": 4069, "consisted": 4070, "breathe": 4071, "studying": 4072, "balance": 4073, "appreciate": 4074, "folk": 4075, "pur": 4076, "knock": 4077, "sid@@": 4078, "top@@": 4079, "°": 4080, "circuit": 4081, "approached": 4082, "tt": 4083, "waters": 4084, "moves": 4085, "1951": 4086, "59": 4087, "protected": 4088, "hon@@": 4089, "ā@@": 4090, "delivered": 4091, "influenced": 4092, "grin": 4093, "deck": 4094, "producing": 4095, "manage": 4096, "pure": 4097, "items": 4098, "cops": 4099, "zo@@": 4100, "guide": 4101, "stones": 4102, "brazil": 4103, "institutions": 4104, "formal": 4105, "multi": 4106, "regarded": 4107, "invasion": 4108, "enjoyed": 4109, "gene": 4110, "engines": 4111, "treated": 4112, "clark": 4113, "palm": 4114, "zero": 4115, "khan": 4116, "tim": 4117, "functions": 4118, "ole": 4119, "jobs": 4120, "pattern": 4121, "publication": 4122, "desert": 4123, "occur": 4124, "wins": 4125, "sin": 4126, "presidential": 4127, "crisis": 4128, "wo@@": 4129, "establishment": 4130, "alice": 4131, "architect": 4132, "cute": 4133, "alized": 4134, "seventh": 4135, "ise": 4136, "ong@@": 4137, "milk": 4138, "importance": 4139, "rice": 4140, "und@@": 4141, "degrees": 4142, "ram": 4143, "andy": 4144, "meanwhile": 4145, "exhibition": 4146, "netherlands": 4147, "ut@@": 4148, "visual": 4149, "investment": 4150, "wan@@": 4151, "ane": 4152, "lab": 4153, "cape": 4154, "ities": 4155, "session": 4156, "muslim": 4157, "plain": 4158, "successfully": 4159, "billboard": 4160, "poet": 4161, "user": 4162, "1938": 4163, "federation": 4164, "gru@@": 4165, "shifted": 4166, "crash": 4167, "agricultural": 4168, "py@@": 4169, "cemetery": 4170, "observed": 4171, "hunting": 4172, "journalist": 4173, "marks": 4174, "ites": 4175, "18th": 4176, "loan": 4177, "bert": 4178, "marie": 4179, "roy": 4180, "ann@@": 4181, "mama": 4182, "hated": 4183, "clay": 4184, "gran@@": 4185, "discuss": 4186, "properties": 4187, "converted": 4188, "cho@@": 4189, "talent": 4190, "ion": 4191, "solution": 4192, "jordan": 4193, "km²": 4194, "capture": 4195, "kil@@": 4196, "structures": 4197, "kor@@": 4198, "som@@": 4199, "plenty": 4200, "paying": 4201, "bronze": 4202, "cole": 4203, "northeast": 4204, "ef@@": 4205, "spell": 4206, "cher@@": 4207, "bother": 4208, "argued": 4209, "alism": 4210, "ruled": 4211, "documentary": 4212, "goods": 4213, "accused": 4214, "excited": 4215, "dam": 4216, "makeup": 4217, "gods": 4218, "script": 4219, "fishing": 4220, "eleven": 4221, "wound": 4222, "starring": 4223, "chapel": 4224, "72": 4225, "bachelor": 4226, "containing": 4227, "fle@@": 4228, "studios": 4229, "chan@@": 4230, "personnel": 4231, "nic@@": 4232, "beating": 4233, "sweden": 4234, "views": 4235, "mes": 4236, "salt": 4237, "gy@@": 4238, "incorporated": 4239, "tim@@": 4240, "devil": 4241, "paused": 4242, "rocks": 4243, "mac": 4244, "kings": 4245, "mmm": 4246, "residence": 4247, "aw@@": 4248, "hood": 4249, "1936": 4250, "establish": 4251, "victor": 4252, "sand@@": 4253, "1920": 4254, "institution": 4255, "recognition": 4256, "beth": 4257, "somewhat": 4258, "kra@@": 4259, "unusual": 4260, "examples": 4261, "separated": 4262, "reputation": 4263, "app@@": 4264, "sheriff": 4265, "67": 4266, "recognize": 4267, "hin@@": 4268, "objects": 4269, "8th": 4270, "61": 4271, "kicked": 4272, "shell": 4273, "forty": 4274, "collected": 4275, "crap": 4276, "sab@@": 4277, "fate": 4278, "begun": 4279, "jaw": 4280, "hay@@": 4281, "wrestling": 4282, "cru@@": 4283, "maintain": 4284, "photo": 4285, "io": 4286, "expensive": 4287, "jacket": 4288, "unfortunately": 4289, "cabinet": 4290, "maintained": 4291, "purchase": 4292, "witness": 4293, "constant": 4294, "threatened": 4295, "treat": 4296, "coal": 4297, "locations": 4298, "ened": 4299, "dou@@": 4300, "ball@@": 4301, "claire": 4302, "tests": 4303, "shopping": 4304, "hur@@": 4305, "suggest": 4306, "interests": 4307, "qualified": 4308, "iv": 4309, "joy": 4310, "chu@@": 4311, "ethan": 4312, "sergeant": 4313, "lyrics": 4314, "wars": 4315, "driven": 4316, "childhood": 4317, "snapped": 4318, "causes": 4319, "98": 4320, "bow": 4321, "artillery": 4322, "bran@@": 4323, "plot": 4324, "expressed": 4325, "option": 4326, "spending": 4327, "mounted": 4328, "programming": 4329, "stan@@": 4330, "appointment": 4331, "genus": 4332, "voted": 4333, "ph": 4334, "kansas": 4335, "improved": 4336, "1937": 4337, "acted": 4338, "tropical": 4339, "ce@@": 4340, "wor@@": 4341, "sem@@": 4342, "schedule": 4343, "murdered": 4344, "pushing": 4345, "cleared": 4346, "hollywood": 4347, "turkey": 4348, "retirement": 4349, "metropolitan": 4350, "churches": 4351, "improve": 4352, "operate": 4353, "arrival": 4354, "cri@@": 4355, "moscow": 4356, "manner": 4357, "ily": 4358, "pen": 4359, "smooth": 4360, "composer": 4361, "tape": 4362, "1919": 4363, "9th": 4364, "down@@": 4365, "cream": 4366, "1917": 4367, "paintings": 4368, "gon@@": 4369, "legislative": 4370, "def@@": 4371, "repeated": 4372, "boo@@": 4373, "horror": 4374, "nights": 4375, "knight": 4376, "derived": 4377, "fruit": 4378, "emily": 4379, "afterwards": 4380, "broadcasting": 4381, "pm": 4382, "measure": 4383, "boats": 4384, "steam": 4385, "replace": 4386, "carter": 4387, "cathedral": 4388, "fication": 4389, "sn@@": 4390, "ae": 4391, "96": 4392, "lied": 4393, "values": 4394, "sections": 4395, "jay": 4396, "waves": 4397, "86": 4398, "ast@@": 4399, "medium": 4400, "walker": 4401, "ross": 4402, "require": 4403, "fy": 4404, "button": 4405, "diego": 4406, "ey@@": 4407, "ved": 4408, "agents": 4409, "transportation": 4410, "bin": 4411, "selection": 4412, "lim@@": 4413, "anthony": 4414, "surely": 4415, "carl": 4416, "client": 4417, "metres": 4418, "nes": 4419, "upstairs": 4420, "cel@@": 4421, "romantic": 4422, "pel@@": 4423, "publishing": 4424, "71": 4425, "contributed": 4426, "88": 4427, "manchester": 4428, "contain": 4429, "len@@": 4430, "athletic": 4431, "inger": 4432, "sm": 4433, "permission": 4434, "cap": 4435, "forming": 4436, "convinced": 4437, "southwest": 4438, "waist": 4439, "int@@": 4440, "assistance": 4441, "flash": 4442, "possibility": 4443, "escaped": 4444, "1914": 4445, "gordon": 4446, "provincial": 4447, "dynasty": 4448, "1930": 4449, "owners": 4450, "damaged": 4451, "bobby": 4452, "keeps": 4453, "refers": 4454, "mood": 4455, "chicken": 4456, "guests": 4457, "colonial": 4458, "fra@@": 4459, "testing": 4460, "license": 4461, "ile": 4462, "vers": 4463, "demanded": 4464, "dust": 4465, "nie": 4466, "vietnam": 4467, "bush": 4468, "lincoln": 4469, "hun@@": 4470, "sean": 4471, "97": 4472, "aria": 4473, "users": 4474, "stronger": 4475, "mill@@": 4476, "ged": 4477, "vit@@": 4478, "trick": 4479, "courses": 4480, "introduction": 4481, "entering": 4482, "badly": 4483, "philip": 4484, "blo@@": 4485, "fred": 4486, "documents": 4487, "print": 4488, "gil@@": 4489, "om": 4490, "ner@@": 4491, "reform": 4492, "ours": 4493, "illegal": 4494, "profit": 4495, "kon@@": 4496, "decade": 4497, "flower": 4498, "69": 4499, "fro@@": 4500, "mining": 4501, "leather": 4502, "couch": 4503, "150": 4504, "returns": 4505, "minnesota": 4506, "applications": 4507, "anniversary": 4508, "cambridge": 4509, "mun@@": 4510, "prisoners": 4511, "ea": 4512, "pad@@": 4513, "considering": 4514, "dc": 4515, "wy@@": 4516, "blade": 4517, "lly": 4518, "representing": 4519, "cable": 4520, "golf": 4521, "1935": 4522, "paint": 4523, "melbourne": 4524, "factor": 4525, "nurse": 4526, "ational": 4527, "elle": 4528, "string": 4529, "racial": 4530, "aro@@": 4531, "plastic": 4532, "str@@": 4533, "installed": 4534, "shots": 4535, "indiana": 4536, "92": 4537, "suffering": 4538, "strip": 4539, "appeal": 4540, "tommy": 4541, "steal": 4542, "ö@@": 4543, "tennis": 4544, "gary": 4545, "settle": 4546, "73": 4547, "burst": 4548, "ren": 4549, "survey": 4550, "ades": 4551, "cycle": 4552, "egypt": 4553, "colorado": 4554, "strategy": 4555, "candidates": 4556, "of@@": 4557, "jerry": 4558, "partners": 4559, "vampires": 4560, "cutting": 4561, "1933": 4562, "concrete": 4563, "painter": 4564, "mix": 4565, "jam@@": 4566, "fire@@": 4567, "ure": 4568, "wood@@": 4569, "zu@@": 4570, "owe": 4571, "dia": 4572, "ils": 4573, "suspect": 4574, "footballer": 4575, "regularly": 4576, "tennessee": 4577, "63": 4578, "discovery": 4579, "steady": 4580, "visiting": 4581, "ants": 4582, "extension": 4583, "sat@@": 4584, "roughly": 4585, "severe": 4586, "partnership": 4587, "samuel": 4588, "promote": 4589, "assault": 4590, "blocks": 4591, "pan": 4592, "cake": 4593, "arena": 4594, "hydro@@": 4595, "knocked": 4596, "seek": 4597, "ology": 4598, "ric@@": 4599, "cried": 4600, "č@@": 4601, "mar": 4602, "cheeks": 4603, "gathered": 4604, "1929": 4605, "answers": 4606, "mum": 4607, "ov@@": 4608, "circumstances": 4609, "swimming": 4610, "twin": 4611, "organisation": 4612, "remove": 4613, "fel@@": 4614, "graphic": 4615, "uniform": 4616, "responded": 4617, "logical": 4618, "post@@": 4619, "throwing": 4620, "occurs": 4621, "77": 4622, "benefit": 4623, "green@@": 4624, "violent": 4625, "nfl": 4626, "fe": 4627, "mono@@": 4628, "existed": 4629, "68": 4630, "ich": 4631, "bent": 4632, "lo": 4633, "portuguese": 4634, "missouri": 4635, "fed": 4636, "anderson": 4637, "shy": 4638, "pleased": 4639, "aw": 4640, "stic": 4641, "protein": 4642, "dozen": 4643, "resigned": 4644, "tab@@": 4645, "creature": 4646, "belong": 4647, "techniques": 4648, "ised": 4649, "courts": 4650, "600": 4651, "passengers": 4652, "kes": 4653, "vs": 4654, "actors": 4655, "duties": 4656, "bil@@": 4657, "spo@@": 4658, "inn": 4659, "forehead": 4660, "stare": 4661, "consecutive": 4662, "storage": 4663, "struggle": 4664, "temporary": 4665, "deeply": 4666, "bunch": 4667, "stolen": 4668, "mart@@": 4669, "compete": 4670, "determine": 4671, "78": 4672, "whenever": 4673, "occasionally": 4674, "knee": 4675, "accompanied": 4676, "miami": 4677, "limit": 4678, "searching": 4679, "eggs": 4680, "supplies": 4681, "rivers": 4682, "76": 4683, "mad@@": 4684, "1934": 4685, "ona": 4686, "useful": 4687, "swiss": 4688, "ith": 4689, "panic": 4690, "concluded": 4691, "zz@@": 4692, "defensive": 4693, "20@@": 4694, "houston": 4695, "formula": 4696, "allen": 4697, "persons": 4698, "bles": 4699, "call@@": 4700, "tech": 4701, "arizona": 4702, "93": 4703, "offensive": 4704, "clothing": 4705, "prepare": 4706, "norway": 4707, "jamie": 4708, "soil": 4709, "visitors": 4710, "nan@@": 4711, "distinguished": 4712, "bay@@": 4713, "rejected": 4714, "rates": 4715, "off@@": 4716, "ticket": 4717, "colony": 4718, "nag@@": 4719, "sentence": 4720, "maryland": 4721, "lau@@": 4722, "bun@@": 4723, "glance": 4724, "customers": 4725, "historian": 4726, "holiday": 4727, "designs": 4728, "mode": 4729, "bag@@": 4730, "oregon": 4731, "branches": 4732, "ace": 4733, "nam@@": 4734, "cloud": 4735, "false": 4736, "funeral": 4737, "turkish": 4738, "vic@@": 4739, "charlotte": 4740, "yer": 4741, "kur@@": 4742, "reduce": 4743, "slept": 4744, "enemies": 4745, "arab": 4746, "adding": 4747, "acid": 4748, "rat": 4749, "consisting": 4750, "sequence": 4751, "che": 4752, "lets": 4753, "dvd": 4754, "scheme": 4755, "82": 4756, "grip": 4757, "apple": 4758, "creative": 4759, "describe": 4760, "linked": 4761, "nowhere": 4762, "exposed": 4763, "junction": 4764, "stating": 4765, "voices": 4766, "gol@@": 4767, "continuing": 4768, "businesses": 4769, "couples": 4770, "associate": 4771, "aya": 4772, "ridiculous": 4773, "mari@@": 4774, "wisconsin": 4775, "ap": 4776, "rio": 4777, "exact": 4778, "ize": 4779, "movements": 4780, "charity": 4781, "1928": 4782, "harm": 4783, "hamilton": 4784, "earliest": 4785, "aye": 4786, "musicians": 4787, "cher": 4788, "94": 4789, "ving": 4790, "87": 4791, "cia": 4792, "ensure": 4793, "she@@": 4794, "visible": 4795, "thrown": 4796, "matthew": 4797, "grinned": 4798, "relative": 4799, "ora": 4800, "universal": 4801, "wished": 4802, "distinct": 4803, "seth": 4804, "agriculture": 4805, "throne": 4806, "notably": 4807, "norwegian": 4808, "subjects": 4809, "bull@@": 4810, "universities": 4811, "pic@@": 4812, "douglas": 4813, "89": 4814, "margaret": 4815, "ela": 4816, "bruce": 4817, "hop": 4818, "amongst": 4819, "singapore": 4820, "ceiling": 4821, "ao": 4822, "ł@@": 4823, "rapidly": 4824, "switzerland": 4825, "antonio": 4826, "sau@@": 4827, "ening": 4828, "ization": 4829, "satellite": 4830, "81": 4831, "dawn": 4832, "susan": 4833, "mit@@": 4834, "scream": 4835, "instance": 4836, "logan": 4837, "philippines": 4838, "pit": 4839, "terminal": 4840, "jeans": 4841, "frowned": 4842, "74": 4843, "contrast": 4844, "84": 4845, "ries": 4846, "án": 4847, "maker": 4848, "doc": 4849, "exit": 4850, "crystal": 4851, "affair": 4852, "measures": 4853, "colors": 4854, "1932": 4855, "distributed": 4856, "describes": 4857, "concerns": 4858, "pride": 4859, "stan": 4860, "ease": 4861, "sang": 4862, "divisions": 4863, "bull": 4864, "inhabitants": 4865, "shouted": 4866, "bir@@": 4867, "switch": 4868, "enti@@": 4869, "sta": 4870, "sim@@": 4871, "fake": 4872, "long@@": 4873, "poem": 4874, "glo@@": 4875, "ments": 4876, "1922": 4877, "plan@@": 4878, "sel": 4879, "pole": 4880, "queensland": 4881, "robin": 4882, "91": 4883, "stole": 4884, "purposes": 4885, "kir@@": 4886, "musician": 4887, "ist@@": 4888, "josh": 4889, "sky@@": 4890, "meters": 4891, "bare": 4892, "awful": 4893, "nate": 4894, "sec@@": 4895, "sters": 4896, "finance": 4897, "bling": 4898, "rent": 4899, "dealing": 4900, "legend": 4901, "merely": 4902, "ius": 4903, "scent": 4904, "heart@@": 4905, "alcohol": 4906, "clu@@": 4907, "ther": 4908, "ium": 4909, "participate": 4910, "physics": 4911, "tons": 4912, "eling": 4913, "accounts": 4914, "desperate": 4915, "vocals": 4916, "alization": 4917, "masters": 4918, "depending": 4919, "las": 4920, "witch": 4921, "jet": 4922, "17th": 4923, "1924": 4924, "twisted": 4925, "vin": 4926, "expedition": 4927, "technique": 4928, "roots": 4929, "tier": 4930, "iran": 4931, "ethnic": 4932, "austria": 4933, "1927": 4934, "muttered": 4935, "iting": 4936, "emerged": 4937, "1930s": 4938, "silly": 4939, "iraq": 4940, "pap@@": 4941, "wr@@": 4942, "bath": 4943, "expecting": 4944, "equ@@": 4945, "beast": 4946, "raising": 4947, "helen": 4948, "traveled": 4949, "adjacent": 4950, "boots": 4951, "angle": 4952, "islamic": 4953, "00@@": 4954, "lily": 4955, "yep": 4956, "directors": 4957, "1931": 4958, "intense": 4959, "1921": 4960, "wise": 4961, "eva": 4962, "ently": 4963, "cou@@": 4964, "83": 4965, "jonathan": 4966, "rifle": 4967, "tribe": 4968, "productions": 4969, "backed": 4970, "fled": 4971, "debate": 4972, "amateur": 4973, "jury": 4974, "30@@": 4975, "phil": 4976, "tools": 4977, "wright": 4978, "worn": 4979, "nat@@": 4980, "zi": 4981, "lucas": 4982, "requires": 4983, "nov@@": 4984, "ourselves": 4985, "mon": 4986, "gates": 4987, "ths": 4988, "israeli": 4989, "zing": 4990, "1912": 4991, "whilst": 4992, "starred": 4993, "1910": 4994, "iling": 4995, "belonged": 4996, "whoever": 4997, "shield": 4998, "wel@@": 4999, "element": 5000, "monday": 5001, "files": 5002, "pot": 5003, "dirt": 5004, "brings": 5005, "wayne": 5006, "grandmother": 5007, "slave": 5008, "inc@@": 5009, "literally": 5010, "shadows": 5011, "med@@": 5012, "extreme": 5013, "bullet": 5014, "raw": 5015, "tag": 5016, "revenge": 5017, "79": 5018, "1916": 5019, "stroke": 5020, "eli@@": 5021, "op": 5022, "lover": 5023, "bet@@": 5024, "marshall": 5025, "bea@@": 5026, "io@@": 5027, "personally": 5028, "dallas": 5029, "1925": 5030, "yl@@": 5031, "mam@@": 5032, "fantasy": 5033, "bread": 5034, "devices": 5035, "pages": 5036, "dge": 5037, "passage": 5038, "commissioner": 5039, "protest": 5040, "tors": 5041, "julia": 5042, "1915": 5043, "superior": 5044, "therapy": 5045, "fbi": 5046, "cabin": 5047, "bid": 5048, "differences": 5049, "pete": 5050, "residential": 5051, "bars": 5052, "ordinary": 5053, "ncaa": 5054, "sum": 5055, "doctors": 5056, "ón": 5057, "speaker": 5058, "tha": 5059, "admiral": 5060, "attracted": 5061, "detroit": 5062, "stages": 5063, "800": 5064, "additionally": 5065, "kentucky": 5066, "flo@@": 5067, "gi": 5068, "outer": 5069, "saving": 5070, "sized": 5071, "1923": 5072, "shaw": 5073, "rating": 5074, "comics": 5075, "filed": 5076, "gn@@": 5077, "immediate": 5078, "shame": 5079, "rock@@": 5080, "ili@@": 5081, "juan": 5082, "sul@@": 5083, "glasses": 5084, "emotional": 5085, "destruction": 5086, "berry": 5087, "cc@@": 5088, "dly": 5089, "pin": 5090, "markets": 5091, "blake": 5092, "goddamn": 5093, "reign": 5094, "ters": 5095, "scholars": 5096, "wash": 5097, "meets": 5098, "stable": 5099, "bow@@": 5100, "lucy": 5101, "forcing": 5102, "bul@@": 5103, "ado": 5104, "louisiana": 5105, "merged": 5106, "harvard": 5107, "colour": 5108, "sc": 5109, "lle": 5110, "bike": 5111, "cm": 5112, "meal": 5113, "classified": 5114, "membership": 5115, "spin": 5116, "powered": 5117, "stro@@": 5118, "blues": 5119, "personality": 5120, "brilliant": 5121, "und": 5122, "gau@@": 5123, "sz@@": 5124, "gear": 5125, "hm": 5126, "stress": 5127, "arch@@": 5128, "vill@@": 5129, "pes": 5130, "bat": 5131, "missions": 5132, "achieve": 5133, "kie": 5134, "1926": 5135, "sexy": 5136, "cha": 5137, "cart@@": 5138, "friendship": 5139, "eth@@": 5140, "greece": 5141, "medieval": 5142, "defend": 5143, "250": 5144, "sri": 5145, "meetings": 5146, "confidence": 5147, "ture": 5148, "suggests": 5149, "backs": 5150, "stops": 5151, "assume": 5152, "iled": 5153, "ignored": 5154, "appearing": 5155, "frederick": 5156, "bach": 5157, "lia": 5158, "deserve": 5159, "aries": 5160, "hart": 5161, "1900": 5162, "profile": 5163, "alist": 5164, "credited": 5165, "daughters": 5166, "arrive": 5167, "instruments": 5168, "informed": 5169, "clan": 5170, "factors": 5171, "emotions": 5172, "oning": 5173, "decisions": 5174, "composition": 5175, "fortune": 5176, "rat@@": 5177, "jer@@": 5178, "loc@@": 5179, "á": 5180, "pace": 5181, "adults": 5182, "awesome": 5183, "ine@@": 5184, "argument": 5185, "harris": 5186, "coastal": 5187, "val": 5188, "expert": 5189, "flu@@": 5190, "seattle": 5191, "mystery": 5192, "horrible": 5193, "wat@@": 5194, "corporate": 5195, "larry": 5196, "diamond": 5197, "16th": 5198, "rapid": 5199, "ull@@": 5200, "eighth": 5201, "kent": 5202, "inches": 5203, "seeking": 5204, "aim": 5205, "occupation": 5206, "vessel": 5207, "solar": 5208, "depression": 5209, "kennedy": 5210, "honour": 5211, "russell": 5212, "afford": 5213, "strongly": 5214, "cab@@": 5215, "bible": 5216, "sting": 5217, "jacob": 5218, "jon": 5219, "ier": 5220, "ath@@": 5221, "dom@@": 5222, "moore": 5223, "pitch": 5224, "bullshit": 5225, "outstanding": 5226, "bags": 5227, "comp@@": 5228, "routes": 5229, "proposal": 5230, "cul@@": 5231, "rob": 5232, "lawrence": 5233, "bra": 5234, "signing": 5235, "od@@": 5236, "soci@@": 5237, "tin": 5238, "tan": 5239, "denied": 5240, "wire": 5241, "ye@@": 5242, "jar@@": 5243, "ements": 5244, "detail": 5245, "virgin": 5246, "battery": 5247, "involving": 5248, "rated": 5249, "equivalent": 5250, "lasted": 5251, "cooper": 5252, "ø@@": 5253, "represents": 5254, "deeper": 5255, "healthy": 5256, "parallel": 5257, "allied": 5258, "thi@@": 5259, "resolution": 5260, "manufacturing": 5261, "hitting": 5262, "trophy": 5263, "elementary": 5264, "stre@@": 5265, "handsome": 5266, "duc@@": 5267, "screaming": 5268, "lisa": 5269, "panel": 5270, "shar@@": 5271, "mississippi": 5272, "elder": 5273, "bled": 5274, "respond": 5275, "itt@@": 5276, "frequency": 5277, "fying": 5278, "counties": 5279, "norman": 5280, "vas@@": 5281, "marketing": 5282, "bou@@": 5283, "economics": 5284, "cavalry": 5285, "rounds": 5286, "depth": 5287, "telephone": 5288, "ie@@": 5289, "ú@@": 5290, "ented": 5291, "popularity": 5292, "mathematics": 5293, "hallway": 5294, "warrior": 5295, "leo": 5296, "carbon": 5297, "approval": 5298, "xi@@": 5299, "picking": 5300, "ek@@": 5301, "electricity": 5302, "sad@@": 5303, "sensitive": 5304, "muscles": 5305, "equipped": 5306, "majesty": 5307, "ceo": 5308, "mm@@": 5309, "gardens": 5310, "oliver": 5311, "dol@@": 5312, "bad@@": 5313, "trading": 5314, "considerable": 5315, "sigh": 5316, "complicated": 5317, "operates": 5318, "alabama": 5319, "baron": 5320, "bears": 5321, "impressed": 5322, "appropriate": 5323, "replacement": 5324, "barry": 5325, "praised": 5326, "charts": 5327, "hips": 5328, "mus": 5329, "ab": 5330, "honestly": 5331, "curious": 5332, "ners": 5333, "vo": 5334, "slip": 5335, "iowa": 5336, "chemistry": 5337, "lowered": 5338, "significantly": 5339, "increasingly": 5340, "shocked": 5341, "midnight": 5342, "restored": 5343, "julian": 5344, "tension": 5345, "designer": 5346, "possession": 5347, "patrol": 5348, "gulf": 5349, "beg": 5350, "adventure": 5351, "ances": 5352, "ria": 5353, "column": 5354, "garage": 5355, "parker": 5356, "din": 5357, "helps": 5358, "aspects": 5359, "climbed": 5360, "ink": 5361, "cent@@": 5362, "roman@@": 5363, "latest": 5364, "trap": 5365, "sharing": 5366, "ltd": 5367, "touching": 5368, "identify": 5369, "broadway": 5370, "franklin": 5371, "conduct": 5372, "mul@@": 5373, "ici@@": 5374, "trapped": 5375, "newspapers": 5376, "lined": 5377, "leg@@": 5378, "reporter": 5379, "band@@": 5380, "secrets": 5381, "gender": 5382, "sle@@": 5383, "tear": 5384, "get@@": 5385, "winners": 5386, "lem@@": 5387, "debt": 5388, "1911": 5389, "austin": 5390, "ans@@": 5391, "whereas": 5392, "ial": 5393, "graham": 5394, "trace": 5395, "injuries": 5396, "pounds": 5397, "ambassador": 5398, "definition": 5399, "belongs": 5400, "ids": 5401, "lean": 5402, "oklahoma": 5403, "warned": 5404, "laboratory": 5405, "muscle": 5406, "printed": 5407, "vincent": 5408, "rushed": 5409, "passion": 5410, "xi": 5411, "mask": 5412, "novels": 5413, "indians": 5414, "occasion": 5415, "commonwealth": 5416, "ich@@": 5417, "gabriel": 5418, "divorce": 5419, "ited": 5420, "spiritual": 5421, "fist": 5422, "electrical": 5423, "remote": 5424, "annie": 5425, "dropping": 5426, "1913": 5427, "relationships": 5428, "liquid": 5429, "tale": 5430, "stopping": 5431, "cla@@": 5432, "prisoner": 5433, "apply": 5434, "exception": 5435, "yan@@": 5436, "marcus": 5437, "gy": 5438, "ownership": 5439, "bel": 5440, "scientists": 5441, "wall@@": 5442, "gradually": 5443, "virus": 5444, "boards": 5445, "sco@@": 5446, "brush": 5447, "hil@@": 5448, "parliamentary": 5449, "indicated": 5450, "tokyo": 5451, "retained": 5452, "atlanta": 5453, "ought": 5454, "loaded": 5455, "shire": 5456, "spare": 5457, "sav@@": 5458, "industries": 5459, "bench": 5460, "fil@@": 5461, "nazi": 5462, "climb": 5463, "mason": 5464, "carlos": 5465, "inspector": 5466, "leaning": 5467, "artistic": 5468, "delivery": 5469, "gentle": 5470, "symbol": 5471, "jealous": 5472, "landscape": 5473, "01": 5474, "sheet": 5475, "fla@@": 5476, "screamed": 5477, "rarely": 5478, "lifetime": 5479, "sweat": 5480, "charter": 5481, "intention": 5482, "adi@@": 5483, "connor": 5484, "translated": 5485, "warriors": 5486, "ugly": 5487, "zation": 5488, "argue": 5489, "orthodox": 5490, "reminded": 5491, "alien": 5492, "revolutionary": 5493, "dock": 5494, "poverty": 5495, "tiger": 5496, "snake": 5497, "horn": 5498, "12th": 5499, "parent": 5500, "vast": 5501, "laura": 5502, "work@@": 5503, "warren": 5504, "suspected": 5505, "maintenance": 5506, "discussion": 5507, "run@@": 5508, "constituency": 5509, "limits": 5510, "absence": 5511, "policies": 5512, "pretend": 5513, "purple": 5514, "insane": 5515, "ski@@": 5516, "ico": 5517, "pierre": 5518, "practical": 5519, "statue": 5520, "introduce": 5521, "congratulations": 5522, "abbey": 5523, "ottoman": 5524, "mall": 5525, "abc": 5526, "bab@@": 5527, "believes": 5528, "cotton": 5529, "machines": 5530, "description": 5531, "aqu@@": 5532, "mia": 5533, "eman": 5534, "springs": 5535, "lled": 5536, "claiming": 5537, "kyle": 5538, "ami": 5539, "ix": 5540, "exists": 5541, "sweetheart": 5542, "any@@": 5543, "harbor": 5544, "alo@@": 5545, "recovered": 5546, "shes": 5547, "prefer": 5548, "losses": 5549, "apologize": 5550, "gur@@": 5551, "formally": 5552, "cau@@": 5553, "cow@@": 5554, "properly": 5555, "listened": 5556, "happiness": 5557, "germans": 5558, "ori@@": 5559, "gat@@": 5560, "practices": 5561, "document": 5562, "zane": 5563, "seed": 5564, "hook": 5565, "commanded": 5566, "legislation": 5567, "craft": 5568, "pho@@": 5569, "belly": 5570, "context": 5571, "guitarist": 5572, "lls": 5573, "sher": 5574, "recordings": 5575, "comfort": 5576, "christopher": 5577, "employment": 5578, "exercise": 5579, "drinks": 5580, "kha@@": 5581, "awake": 5582, "will@@": 5583, "experiences": 5584, "confusion": 5585, "translation": 5586, "pal": 5587, "bin@@": 5588, "collaboration": 5589, "disaster": 5590, "instantly": 5591, "ü@@": 5592, "aki": 5593, "ō": 5594, "cs": 5595, "act@@": 5596, "debuted": 5597, "peninsula": 5598, "dublin": 5599, "form@@": 5600, "hall@@": 5601, "moral": 5602, "alpha": 5603, "1908": 5604, "chocolate": 5605, "minimum": 5606, "connecticut": 5607, "kissing": 5608, "kel@@": 5609, "swallowed": 5610, "earn": 5611, "hem@@": 5612, "lec@@": 5613, "spy": 5614, "baker": 5615, "quebec": 5616, "triple": 5617, "cleveland": 5618, "cargo": 5619, "woke": 5620, "nelson": 5621, "requirements": 5622, "connect": 5623, "grateful": 5624, "talks": 5625, "kov": 5626, "nathan": 5627, "coalition": 5628, "sson": 5629, "walks": 5630, "danish": 5631, "mud": 5632, "13th": 5633, "stanley": 5634, "assist": 5635, "ranking": 5636, "dramatic": 5637, "interrupted": 5638, "logy": 5639, "options": 5640, "09": 5641, "sig@@": 5642, "oak": 5643, "explanation": 5644, "distant": 5645, "rage": 5646, "socialist": 5647, "mills": 5648, "rival": 5649, "strategic": 5650, "posted": 5651, "sli@@": 5652, "deliver": 5653, "jin": 5654, "maine": 5655, "publications": 5656, "audio": 5657, "sley": 5658, "gap": 5659, "nod": 5660, "08": 5661, "greatly": 5662, "cli@@": 5663, "inf@@": 5664, "franchise": 5665, "traveling": 5666, "ila": 5667, "convince": 5668, "puerto": 5669, "premiered": 5670, "mic@@": 5671, "punk": 5672, "yan": 5673, "conservation": 5674, "yelled": 5675, "attitude": 5676, "dru@@": 5677, "nuts": 5678, "crack": 5679, "mere": 5680, "fran@@": 5681, "sara": 5682, "sar": 5683, "cc": 5684, "noble": 5685, "dos": 5686, "vocal": 5687, "fairly": 5688, "gir@@": 5689, "criticism": 5690, "shh": 5691, "bit@@": 5692, "deaths": 5693, "zes": 5694, "puts": 5695, "silk": 5696, "components": 5697, "authors": 5698, "executed": 5699, "foster": 5700, "photos": 5701, "scope": 5702, "orleans": 5703, "cinema": 5704, "swe@@": 5705, "vegas": 5706, "nevertheless": 5707, "neil": 5708, "aimed": 5709, "adams": 5710, "networks": 5711, "folded": 5712, "ox@@": 5713, "crimes": 5714, "je": 5715, "fon@@": 5716, "ο@@": 5717, "har": 5718, "kar": 5719, "resident": 5720, "ric": 5721, "refer": 5722, "mechanical": 5723, "advertising": 5724, "random": 5725, "shares": 5726, "encouraged": 5727, "occasions": 5728, "swing": 5729, "lon@@": 5730, "boundary": 5731, "behalf": 5732, "merchant": 5733, "justin": 5734, "reaches": 5735, "instant": 5736, "eyed": 5737, "cheese": 5738, "aka": 5739, "hence": 5740, "incredible": 5741, "nicholas": 5742, "declined": 5743, "creatures": 5744, "insisted": 5745, "wrist": 5746, "naturally": 5747, "coverage": 5748, "hungarian": 5749, "influential": 5750, "nan": 5751, "montreal": 5752, "sacred": 5753, "domain": 5754, "breaks": 5755, "skull": 5756, "07": 5757, "eta": 5758, "our@@": 5759, "pun@@": 5760, "ranks": 5761, "min": 5762, "terry": 5763, "styles": 5764, "aviation": 5765, "ined": 5766, "parks": 5767, "aboard": 5768, "index": 5769, "fi": 5770, "19@@": 5771, "05": 5772, "baltimore": 5773, "tra": 5774, "cad@@": 5775, "runner": 5776, "1905": 5777, "regret": 5778, "tend": 5779, "slo@@": 5780, "thompson": 5781, "successor": 5782, "chuck": 5783, "impressive": 5784, "effectively": 5785, "kom@@": 5786, "drag": 5787, "15th": 5788, "discussed": 5789, "yn@@": 5790, "lion": 5791, "struggled": 5792, "loop": 5793, "initiative": 5794, "fan@@": 5795, "satisfied": 5796, "whisper": 5797, "processing": 5798, "ya@@": 5799, "youngest": 5800, "clients": 5801, "po": 5802, "rico": 5803, "multi@@": 5804, "metro": 5805, "modified": 5806, "pine": 5807, "farmers": 5808, "celebrated": 5809, "disc": 5810, "vessels": 5811, "cin@@": 5812, "40@@": 5813, "brook": 5814, "sebastian": 5815, "package": 5816, "vienna": 5817, "ip@@": 5818, "ess@@": 5819, "valuable": 5820, "todd": 5821, "bills": 5822, "centers": 5823, "contributions": 5824, "surviving": 5825, "tering": 5826, "kri@@": 5827, "longest": 5828, "screw": 5829, "denmark": 5830, "forests": 5831, "prix": 5832, "oned": 5833, "elevator": 5834, "flows": 5835, "belief": 5836, "drums": 5837, "laughter": 5838, "repair": 5839, "blew": 5840, "slaves": 5841, "freyja": 5842, "catherine": 5843, "singh": 5844, "belgium": 5845, "organ": 5846, "abilities": 5847, "abuse": 5848, "dollar": 5849, "involvement": 5850, "critic": 5851, "but@@": 5852, "1906": 5853, "stranger": 5854, "guardian": 5855, "boom": 5856, "bis@@": 5857, "greg": 5858, "pc": 5859, "pul@@": 5860, "noah": 5861, "cliff": 5862, "edinburgh": 5863, "stewart": 5864, "departure": 5865, "onic": 5866, "penalty": 5867, "indigenous": 5868, "nit@@": 5869, "liverpool": 5870, "derek": 5871, "tables": 5872, "stru@@": 5873, "mont@@": 5874, "holes": 5875, "monastery": 5876, "scholarship": 5877, "pointing": 5878, "buying": 5879, "fitted": 5880, "mel": 5881, "genetic": 5882, "checking": 5883, "hyper@@": 5884, "benefits": 5885, "instrument": 5886, "fantastic": 5887, "doorway": 5888, "suspended": 5889, "hosts": 5890, "idae": 5891, "cran@@": 5892, "concentration": 5893, "underneath": 5894, "practically": 5895, "ati": 5896, "depends": 5897, "hed@@": 5898, "beam": 5899, "processes": 5900, "cour@@": 5901, "bee": 5902, "port@@": 5903, "pressing": 5904, "replacing": 5905, "arrangement": 5906, "ree": 5907, "pil@@": 5908, "suitable": 5909, "murmured": 5910, "welsh": 5911, "firing": 5912, "scholar": 5913, "hug": 5914, "10th": 5915, "hispanic": 5916, "celebrate": 5917, "punch": 5918, "folks": 5919, "mont": 5920, "rings": 5921, "layer": 5922, "criticized": 5923, "ev": 5924, "transmission": 5925, "diocese": 5926, "elsewhere": 5927, "colored": 5928, "1907": 5929, "pissed": 5930, "rope": 5931, "aff@@": 5932, "civilian": 5933, "collect": 5934, "neuro@@": 5935, "lac@@": 5936, "ō@@": 5937, "argentina": 5938, "waved": 5939, "stretched": 5940, "spotted": 5941, "cage": 5942, "law@@": 5943, "14th": 5944, "principles": 5945, "sink": 5946, "butt": 5947, "dominated": 5948, "ads": 5949, "ack": 5950, "judges": 5951, "tyler": 5952, "loving": 5953, "gging": 5954, "ñ@@": 5955, "murray": 5956, "fair@@": 5957, "filmed": 5958, "rocky": 5959, "electoral": 5960, "basin": 5961, "extent": 5962, "egg": 5963, "tem@@": 5964, "slight": 5965, "ffs": 5966, "lessly": 5967, "campbell": 5968, "abroad": 5969, "ng": 5970, "dal": 5971, "are@@": 5972, "hull": 5973, "territories": 5974, "slide": 5975, "brave": 5976, "blu@@": 5977, "tube": 5978, "preferred": 5979, "descent": 5980, "decline": 5981, "fun@@": 5982, "gus": 5983, "apo@@": 5984, "kinds": 5985, "dae": 5986, "rie": 5987, "spider": 5988, "sessions": 5989, "completion": 5990, "curse": 5991, "brooklyn": 5992, "plat@@": 5993, "cooking": 5994, "hell@@": 5995, "plates": 5996, "eable": 5997, "net@@": 5998, "basement": 5999, "bb@@": 6000, "chen": 6001, "bucks": 6002, "thy": 6003, "disney": 6004, "lling": 6005, "tamil": 6006, "corridor": 6007, "thro@@": 6008, "arriving": 6009, "ukrainian": 6010, "ino@@": 6011, "1909": 6012, "fee": 6013, "swept": 6014, "volunteer": 6015, "llo": 6016, "tat@@": 6017, "sno@@": 6018, "placing": 6019, "furniture": 6020, "sponsored": 6021, "tered": 6022, "cock": 6023, "external": 6024, "jesse": 6025, "edited": 6026, "ises": 6027, "cuts": 6028, "julie": 6029, "worker": 6030, "tel": 6031, "experimental": 6032, "pat": 6033, "mitchell": 6034, "ians": 6035, "ez": 6036, "producers": 6037, "ignore": 6038, "mines": 6039, "messages": 6040, "frozen": 6041, "essential": 6042, "allies": 6043, "opportunities": 6044, "leaf": 6045, "ruined": 6046, "ninth": 6047, "boxes": 6048, "lists": 6049, "morris": 6050, "touchdown": 6051, "speci@@": 6052, "fail": 6053, "downstairs": 6054, "gab@@": 6055, "regard": 6056, "hl": 6057, "grove": 6058, "revival": 6059, "graduating": 6060, "alarm": 6061, "onal": 6062, "dig": 6063, "ax": 6064, "logic": 6065, "haw@@": 6066, "sburg": 6067, "ts@@": 6068, "hungary": 6069, "tickets": 6070, "sixteen": 6071, "beaten": 6072, "eagle": 6073, "guilt": 6074, "cattle": 6075, "bleeding": 6076, "wealth": 6077, "prayer": 6078, "secured": 6079, "citizen": 6080, "atmosphere": 6081, "sooner": 6082, "reveal": 6083, "defeating": 6084, "nah": 6085, "repeat": 6086, "olivia": 6087, "rs": 6088, "ement": 6089, "benjamin": 6090, "attending": 6091, "gold@@": 6092, "quarters": 6093, "illness": 6094, "row@@": 6095, "surrender": 6096, "alfred": 6097, "siege": 6098, "nbc": 6099, "pot@@": 6100, "planted": 6101, "counter@@": 6102, "integrated": 6103, "shan": 6104, "adapted": 6105, "earning": 6106, "owen": 6107, "02": 6108, "decides": 6109, "nba": 6110, "pittsburgh": 6111, "hal": 6112, "channels": 6113, "ros": 6114, "1920s": 6115, "fu": 6116, "ultimate": 6117, "donald": 6118, "controversial": 6119, "recommended": 6120, "hard@@": 6121, "comment": 6122, "commerce": 6123, "fer": 6124, "punishment": 6125, "tool": 6126, "ukraine": 6127, "operational": 6128, "hurricane": 6129, "pulse": 6130, "rod": 6131, "wang": 6132, "root": 6133, "robinson": 6134, "gue": 6135, "radar": 6136, "dragged": 6137, "cell@@": 6138, "submarine": 6139, "lightning": 6140, "discover": 6141, "phones": 6142, "partly": 6143, "experiment": 6144, "seal": 6145, "lately": 6146, "smo@@": 6147, "controversy": 6148, "fs": 6149, "lonely": 6150, "dismissed": 6151, "frequent": 6152, "tea@@": 6153, "wells": 6154, "karl": 6155, "explosion": 6156, "06": 6157, "sla@@": 6158, "gathering": 6159, "goo@@": 6160, "apparent": 6161, "copper": 6162, "indicate": 6163, "1904": 6164, "voting": 6165, "switched": 6166, "cham@@": 6167, "output": 6168, "funded": 6169, "tun@@": 6170, "gin@@": 6171, "stretch": 6172, "winds": 6173, "relieved": 6174, "poems": 6175, "tossed": 6176, "ci": 6177, "flames": 6178, "pp": 6179, "sample": 6180, "pha@@": 6181, "colleges": 6182, "bang": 6183, "unk@@": 6184, "brazilian": 6185, "bro": 6186, "writes": 6187, "zo": 6188, "substantial": 6189, "snow@@": 6190, "how@@": 6191, "transition": 6192, "principle": 6193, "pie": 6194, "competing": 6195, "wit@@": 6196, "legislature": 6197, "owns": 6198, "thumb": 6199, "50@@": 6200, "phil@@": 6201, "barbara": 6202, "requested": 6203, "supporters": 6204, "tus": 6205, "grandma": 6206, "heroes": 6207, "burns": 6208, "jenny": 6209, "eau": 6210, "cats": 6211, "south@@": 6212, "aj@@": 6213, "thin@@": 6214, "bha@@": 6215, "automatic": 6216, "1000": 6217, "fab@@": 6218, "spencer": 6219, "thirteen": 6220, "genre": 6221, "plu@@": 6222, "facts": 6223, "dian": 6224, "ero": 6225, "hea@@": 6226, "ack@@": 6227, "angels": 6228, "versus": 6229, "similarly": 6230, "scientist": 6231, "lan": 6232, "cbs": 6233, "favour": 6234, "tribes": 6235, "wan": 6236, "1902": 6237, "tz": 6238, "kun@@": 6239, "blinked": 6240, "kas@@": 6241, "opponent": 6242, "generated": 6243, "lords": 6244, "wealthy": 6245, "ros@@": 6246, "infrastructure": 6247, "suffer": 6248, "2018": 6249, "inter": 6250, "engineers": 6251, "explains": 6252, "bac@@": 6253, "ick@@": 6254, "venture": 6255, "120": 6256, "í": 6257, "monument": 6258, "lakes": 6259, "obtain": 6260, "loo@@": 6261, "austrian": 6262, "borders": 6263, "collections": 6264, "managing": 6265, "competitive": 6266, "wer@@": 6267, "zar@@": 6268, "hr": 6269, "mark@@": 6270, "hearts": 6271, "constitutional": 6272, "dumb": 6273, "emotion": 6274, "phoenix": 6275, "auto@@": 6276, "mini": 6277, "representation": 6278, "1901": 6279, "conclusion": 6280, "shoved": 6281, "pearl": 6282, "yl": 6283, "cast@@": 6284, "sometime": 6285, "å@@": 6286, "eaten": 6287, "breast": 6288, "ralph": 6289, "rum@@": 6290, "hen": 6291, "syn@@": 6292, "lap@@": 6293, "partially": 6294, "maggie": 6295, "summit": 6296, "pick@@": 6297, "portugal": 6298, "songwriter": 6299, "1903": 6300, "04": 6301, "progressive": 6302, "imagined": 6303, "reply": 6304, "fighters": 6305, "detailed": 6306, "mercy": 6307, "riley": 6308, "kit": 6309, "cameras": 6310, "tanks": 6311, "god@@": 6312, "colin": 6313, "rang": 6314, "birmingham": 6315, "11th": 6316, "videos": 6317, "pig": 6318, "bride": 6319, "fir@@": 6320, "izing": 6321, "revenue": 6322, "biological": 6323, "enters": 6324, "enterprise": 6325, "pers": 6326, "sole": 6327, "agu@@": 6328, "computers": 6329, "carrier": 6330, "continental": 6331, "rocket": 6332, "attractive": 6333, "las@@": 6334, "drivers": 6335, "demons": 6336, "electro@@": 6337, "tightly": 6338, "pit@@": 6339, "attempting": 6340, "resort": 6341, "reed": 6342, "yam@@": 6343, "patterns": 6344, "ue": 6345, "annually": 6346, "karen": 6347, "asshole": 6348, "yang": 6349, "soundtrack": 6350, "harrison": 6351, "blast": 6352, "businessman": 6353, "demands": 6354, "cheap": 6355, "ee@@": 6356, "connections": 6357, "holl@@": 6358, "liberty": 6359, "peaked": 6360, "porch": 6361, "aah": 6362, "aaron": 6363, "700": 6364, "mir@@": 6365, "viewed": 6366, "agencies": 6367, "governments": 6368, "shelter": 6369, "ska": 6370, "ruling": 6371, "spl@@": 6372, "courage": 6373, "ruin": 6374, "ever@@": 6375, "nova": 6376, "opens": 6377, "elite": 6378, "evolution": 6379, "intersection": 6380, "qualifying": 6381, "medi@@": 6382, "servant": 6383, "wheels": 6384, "phrase": 6385, "nas@@": 6386, "affect": 6387, "aging": 6388, "eliminated": 6389, "transit": 6390, "cab": 6391, "thereafter": 6392, "slammed": 6393, "manhattan": 6394, "low@@": 6395, "alleged": 6396, "ards": 6397, "saints": 6398, "millions": 6399, "spots": 6400, "ew": 6401, "babe": 6402, "amanda": 6403, "links": 6404, "sp": 6405, "soap": 6406, "drum": 6407, "perry": 6408, "competitions": 6409, "payment": 6410, "gentleman": 6411, "rubbed": 6412, "oxygen": 6413, "arm@@": 6414, "operator": 6415, "architectural": 6416, "reception": 6417, "graphy": 6418, "touring": 6419, "play@@": 6420, "oli@@": 6421, "sing@@": 6422, "washed": 6423, "residing": 6424, "domin@@": 6425, "pursue": 6426, "dylan": 6427, "restoration": 6428, "nephew": 6429, "tu": 6430, "cooperation": 6431, "kim@@": 6432, "concerts": 6433, "smoking": 6434, "fires": 6435, "procedure": 6436, "tested": 6437, "preserved": 6438, "kills": 6439, "manor": 6440, "gather": 6441, "pardon": 6442, "participation": 6443, "overseas": 6444, "eu": 6445, "periods": 6446, "madam": 6447, "magazines": 6448, "flood": 6449, "bu": 6450, "traditionally": 6451, "trunk": 6452, "shops": 6453, "pipe": 6454, "anda": 6455, "hugh": 6456, "sian": 6457, "dee": 6458, "ax@@": 6459, "nia": 6460, "mansion": 6461, "organic": 6462, "steven": 6463, "purse": 6464, "cleaning": 6465, "hammer": 6466, "protecting": 6467, "remainder": 6468, "boy@@": 6469, "terror": 6470, "czech": 6471, "abby": 6472, "recovery": 6473, "jeremy": 6474, "spun": 6475, "thrust": 6476, "cited": 6477, "clinical": 6478, "bearing": 6479, "•": 6480, "arian": 6481, "identical": 6482, "sacrifice": 6483, "hitler": 6484, "rhythm": 6485, "ratio": 6486, "aa": 6487, "animated": 6488, "gos": 6489, "03": 6490, "closest": 6491, "sher@@": 6492, "sailed": 6493, "chester": 6494, "egyptian": 6495, "bau@@": 6496, "hudson": 6497, "assets": 6498, "photographs": 6499, "bie": 6500, "remind": 6501, "mommy": 6502, "villa": 6503, "dennis": 6504, "unc@@": 6505, "fold": 6506, "absolute": 6507, "texts": 6508, "ising": 6509, "classification": 6510, "compound": 6511, "sou@@": 6512, "bing": 6513, "skill": 6514, "trials": 6515, "blood@@": 6516, "not@@": 6517, "precious": 6518, "yed": 6519, "isa": 6520, "turner": 6521, "widespread": 6522, "ache": 6523, "sufficient": 6524, "commented": 6525, "torn": 6526, "log@@": 6527, "arkansas": 6528, "nope": 6529, "verse": 6530, "gas@@": 6531, "sie": 6532, "ater": 6533, "wick": 6534, "grades": 6535, "buffalo": 6536, "organised": 6537, "day@@": 6538, "nonsense": 6539, "ven": 6540, "evans": 6541, "portland": 6542, "regime": 6543, "scout": 6544, "ment@@": 6545, "evan": 6546, "ero@@": 6547, "hopes": 6548, "counts": 6549, "licensed": 6550, "packed": 6551, "dining": 6552, "rangers": 6553, "customer": 6554, "vic": 6555, "connecting": 6556, "hurts": 6557, "pile": 6558, "dom": 6559, "ivy": 6560, "provinces": 6561, "hill@@": 6562, "regulations": 6563, "enting": 6564, "fourteen": 6565, "sty@@": 6566, "participants": 6567, "dil@@": 6568, "bes": 6569, "keith": 6570, "ferry": 6571, "lifting": 6572, "lic@@": 6573, "int": 6574, "pay@@": 6575, "nap@@": 6576, "sandy": 6577, "boring": 6578, "instructions": 6579, "cameron": 6580, "warner": 6581, "hau@@": 6582, "portrayed": 6583, "stake": 6584, "tter": 6585, "clouds": 6586, "madison": 6587, "uncomfortable": 6588, "afghanistan": 6589, "sits": 6590, "bli@@": 6591, "nearest": 6592, "dow@@": 6593, "sag@@": 6594, "symphony": 6595, "dish": 6596, "josé": 6597, "hank": 6598, "etta": 6599, "malaysia": 6600, "researchers": 6601, "dar": 6602, "craig": 6603, "jerusalem": 6604, "bart@@": 6605, "lighting": 6606, "chan": 6607, "fictional": 6608, "pped": 6609, "attacking": 6610, "publisher": 6611, "psychology": 6612, "kins": 6613, "retreat": 6614, "hart@@": 6615, "percentage": 6616, "wards": 6617, "mars": 6618, "ssi@@": 6619, "gie": 6620, "swung": 6621, "dum@@": 6622, "engagement": 6623, "credits": 6624, "than@@": 6625, "une": 6626, "honorary": 6627, "beck": 6628, "ication": 6629, "utah": 6630, "disappointed": 6631, "neu@@": 6632, "fancy": 6633, "constantly": 6634, "delhi": 6635, "poison": 6636, "squeezed": 6637, "murphy": 6638, "volunteers": 6639, "pet": 6640, "athletics": 6641, "sophie": 6642, "suck": 6643, "ret@@": 6644, "presents": 6645, "brushed": 6646, "~": 6647, "collins": 6648, "candy": 6649, "chances": 6650, "impression": 6651, "cle@@": 6652, "span": 6653, "accurate": 6654, "pper": 6655, "cared": 6656, "battles": 6657, "shoe": 6658, "liam": 6659, "portrait": 6660, "duo": 6661, "gli@@": 6662, "viewers": 6663, "filming": 6664, "sung": 6665, "cloth": 6666, "sal": 6667, "treasure": 6668, "survival": 6669, "solve": 6670, "taxes": 6671, "heels": 6672, "rep@@": 6673, "pulls": 6674, "component": 6675, "dj": 6676, "historically": 6677, "goddess": 6678, "regardless": 6679, "defending": 6680, "filling": 6681, "ency": 6682, "reporting": 6683, "pleasant": 6684, "wiped": 6685, "householder": 6686, "chef": 6687, "drake": 6688, "excitement": 6689, "worship": 6690, "cure": 6691, "stor@@": 6692, "supports": 6693, "con": 6694, "1898": 6695, "collapsed": 6696, "helicopter": 6697, "oring": 6698, "lab@@": 6699, "tense": 6700, "drummer": 6701, "serial": 6702, "threatening": 6703, "closet": 6704, "torture": 6705, "gorgeous": 6706, "woo@@": 6707, "@": 6708, "instrumental": 6709, "exciting": 6710, "pping": 6711, "publicly": 6712, "gut": 6713, "ida": 6714, "harold": 6715, "ored": 6716, "themes": 6717, "nomination": 6718, "exclusive": 6719, "displayed": 6720, "enforcement": 6721, "gel@@": 6722, "lloyd": 6723, "chin@@": 6724, "perspective": 6725, "ket@@": 6726, "ase": 6727, "trusted": 6728, "devoted": 6729, "populations": 6730, "martial": 6731, "diameter": 6732, "lodge": 6733, "autumn": 6734, "farmer": 6735, "duncan": 6736, "biology": 6737, "technologies": 6738, "romance": 6739, "characteristics": 6740, "mysterious": 6741, "genius": 6742, "delta": 6743, "og@@": 6744, "rel@@": 6745, "fac@@": 6746, "venue": 6747, "signature": 6748, "awareness": 6749, "wider": 6750, "rally": 6751, "feeding": 6752, "alert": 6753, "enjoying": 6754, "è@@": 6755, "alia": 6756, "dle": 6757, "yar@@": 6758, "latino": 6759, "struggling": 6760, "ller": 6761, "deployed": 6762, "indonesia": 6763, "hawaii": 6764, "richmond": 6765, "dist@@": 6766, "withdrew": 6767, "keeper": 6768, "east@@": 6769, "graduation": 6770, "maj@@": 6771, "involves": 6772, "recalled": 6773, "pizza": 6774, "stuart": 6775, "hannah": 6776, "ition": 6777, "twins": 6778, "destination": 6779, "democracy": 6780, "oral": 6781, "ç@@": 6782, "ato@@": 6783, "hu": 6784, "lou@@": 6785, "gal": 6786, "chairs": 6787, "continuous": 6788, "linear": 6789, "rape": 6790, "tho@@": 6791, "mini@@": 6792, "pi": 6793, "settlers": 6794, "sue": 6795, "prices": 6796, "sank": 6797, "swim": 6798, "celebration": 6799, "medals": 6800, "donated": 6801, "faint": 6802, "was@@": 6803, "pupils": 6804, "basically": 6805, "escort": 6806, "recall": 6807, "releases": 6808, "lesson": 6809, "fence": 6810, "concerning": 6811, "raf": 6812, "missile": 6813, "toured": 6814, "spaces": 6815, "zy": 6816, "lers": 6817, "wishes": 6818, "contribution": 6819, "loyal": 6820, "ceased": 6821, "1890": 6822, "retail": 6823, "isolated": 6824, "furthermore": 6825, "circles": 6826, "enormous": 6827, "joey": 6828, "decorated": 6829, "relation": 6830, "invitation": 6831, "mea@@": 6832, "fur": 6833, "pau@@": 6834, "rob@@": 6835, "harvey": 6836, "assisted": 6837, "rebellion": 6838, "gross": 6839, "ele": 6840, "preparing": 6841, "lessons": 6842, "archbishop": 6843, "thor@@": 6844, "smiles": 6845, "innings": 6846, "log": 6847, "cy": 6848, "traded": 6849, "gent": 6850, "mau@@": 6851, "wounds": 6852, "knights": 6853, "curve": 6854, "arabic": 6855, "directions": 6856, "sculpture": 6857, "tales": 6858, "drops": 6859, "restricted": 6860, "rely": 6861, "lun@@": 6862, "controls": 6863, "mouse": 6864, "kl@@": 6865, "papa": 6866, "acres": 6867, "witnesses": 6868, "buck@@": 6869, "pray": 6870, "bernard": 6871, "affiliated": 6872, "show@@": 6873, "photography": 6874, "jessica": 6875, "mediterranean": 6876, "shipping": 6877, "spar@@": 6878, "disappear": 6879, "finland": 6880, "north@@": 6881, "duck": 6882, "dominant": 6883, "owed": 6884, "physically": 6885, "sally": 6886, "tol@@": 6887, "logist": 6888, "sucked": 6889, "raid": 6890, "kno@@": 6891, "mechanism": 6892, "raj@@": 6893, "gang@@": 6894, "sheep": 6895, "miracle": 6896, "booth": 6897, "decent": 6898, "produces": 6899, "1899": 6900, "halfway": 6901, "segment": 6902, "minority": 6903, "referring": 6904, "hou@@": 6905, "exposure": 6906, "peoples": 6907, "poll@@": 6908, "boundaries": 6909, "king@@": 6910, "chloe": 6911, "pom@@": 6912, "chy": 6913, "eligible": 6914, "reverse": 6915, "elevation": 6916, "reveals": 6917, "refuse": 6918, "gill@@": 6919, "avi@@": 6920, "error": 6921, "freak": 6922, "employee": 6923, "chat@@": 6924, "grows": 6925, "difficulty": 6926, "divine": 6927, "monk": 6928, "voters": 6929, "elli": 6930, "symptoms": 6931, "taiwan": 6932, "islam": 6933, "carriage": 6934, "lyn@@": 6935, "relaxed": 6936, "hn": 6937, "chess": 6938, "edges": 6939, "bridges": 6940, "babies": 6941, "ou": 6942, "heim": 6943, "attributed": 6944, "scar@@": 6945, "rows": 6946, "lar": 6947, "oscar": 6948, "ideal": 6949, "tourism": 6950, "achievement": 6951, "consciousness": 6952, "brad": 6953, "chip": 6954, "violet": 6955, "hop@@": 6956, "approaching": 6957, "school@@": 6958, "monthly": 6959, "pres@@": 6960, "ranch": 6961, "isaac": 6962, "painful": 6963, "monitor": 6964, "glasgow": 6965, "hanna": 6966, "eless": 6967, "minds": 6968, "sheets": 6969, "hampshire": 6970, "eff@@": 6971, "gasped": 6972, "lightly": 6973, "grandson": 6974, "jennifer": 6975, "collapse": 6976, "firmly": 6977, "alley": 6978, "statistics": 6979, "eldest": 6980, "devon": 6981, "initiated": 6982, "glory": 6983, "butler": 6984, "erected": 6985, "mister": 6986, "clinton": 6987, "oni": 6988, "categories": 6989, "dual": 6990, "vulnerable": 6991, "una": 6992, "immigrants": 6993, "radiation": 6994, "rode": 6995, "essentially": 6996, "vet@@": 6997, "ple": 6998, "spec@@": 6999, "efficient": 7000, "disc@@": 7001, "muslims": 7002, "key@@": 7003, "cigarette": 7004, "arch": 7005, "ancy": 7006, "za@@": 7007, "clue": 7008, "humor": 7009, "eighteen": 7010, "scores": 7011, "brow": 7012, "simultaneously": 7013, "ato": 7014, "mes@@": 7015, "wildlife": 7016, "targets": 7017, "rey": 7018, "giants": 7019, "kan": 7020, "harsh": 7021, "yi": 7022, "meter": 7023, "antly": 7024, "investigate": 7025, "buck": 7026, "eter": 7027, "prey": 7028, "premiere": 7029, "backing": 7030, "persian": 7031, "ul": 7032, "exhausted": 7033, "abo@@": 7034, "rebuilt": 7035, "traditions": 7036, "ballet": 7037, "establishing": 7038, "counting": 7039, "tissue": 7040, "chancellor": 7041, "illa": 7042, "stealing": 7043, "damned": 7044, "cen@@": 7045, "radical": 7046, "victorian": 7047, "railways": 7048, "ssa": 7049, "visits": 7050, "1896": 7051, "wolves": 7052, "mah@@": 7053, "trigger": 7054, "resting": 7055, "intent": 7056, "yorkshire": 7057, "eal": 7058, "ome": 7059, "1895": 7060, "barn": 7061, "narrowed": 7062, "parade": 7063, "deny": 7064, "vacation": 7065, "3d": 7066, "blanket": 7067, "graph": 7068, "penny": 7069, "fortress": 7070, "wis@@": 7071, "reportedly": 7072, "christ@@": 7073, "sliding": 7074, "towers": 7075, "choir": 7076, "spirits": 7077, "hid": 7078, "jun@@": 7079, "invented": 7080, "jumping": 7081, "gee": 7082, "warmth": 7083, "kisses": 7084, "liber@@": 7085, "flights": 7086, "lag@@": 7087, "zen@@": 7088, "caroline": 7089, "liz": 7090, "ano@@": 7091, "departed": 7092, "das": 7093, "chaos": 7094, "pac@@": 7095, "conventional": 7096, "vancouver": 7097, "phi@@": 7098, "speakers": 7099, "locally": 7100, "acc@@": 7101, "cares": 7102, "bly": 7103, "bristol": 7104, "coins": 7105, "tting": 7106, "coo@@": 7107, "speaks": 7108, "rad@@": 7109, "experiments": 7110, "jerk": 7111, "worthy": 7112, "lowest": 7113, "collective": 7114, "stern": 7115, "cardinal": 7116, "dug": 7117, "shan@@": 7118, "boarding": 7119, "atory": 7120, "companion": 7121, "origins": 7122, "examination": 7123, "humanity": 7124, "pound": 7125, "reflected": 7126, "eli": 7127, "indi@@": 7128, "yu": 7129, "believing": 7130, "suite": 7131, "volumes": 7132, "execution": 7133, "psycho@@": 7134, "tly": 7135, "vary": 7136, "tenure": 7137, "nerve": 7138, "joan": 7139, "stakes": 7140, "hit@@": 7141, "sentenced": 7142, "sville": 7143, "dd": 7144, "scare": 7145, "climbing": 7146, "nancy": 7147, "blocked": 7148, "widow": 7149, "dispute": 7150, "dynamic": 7151, "rushing": 7152, "heights": 7153, "milan": 7154, "ripped": 7155, "carries": 7156, "negotiations": 7157, "travelled": 7158, "armor": 7159, "catching": 7160, "ori": 7161, "judgment": 7162, "buses": 7163, "awkward": 7164, "dé@@": 7165, "eled": 7166, "book@@": 7167, "thailand": 7168, "lions": 7169, "spor@@": 7170, "curled": 7171, "increases": 7172, "inspiration": 7173, "floating": 7174, "trent": 7175, "objective": 7176, "high@@": 7177, "faded": 7178, "gaining": 7179, "useless": 7180, "jared": 7181, "dra": 7182, "pity": 7183, "opponents": 7184, "equally": 7185, "raced": 7186, "tigers": 7187, "arrives": 7188, "vall@@": 7189, "scattered": 7190, "shane": 7191, "och@@": 7192, "oriented": 7193, "fies": 7194, "rit@@": 7195, "hr@@": 7196, "searched": 7197, "maps": 7198, "lungs": 7199, "handling": 7200, "routine": 7201, "footage": 7202, "carved": 7203, "math": 7204, "characterized": 7205, "dancer": 7206, "trinity": 7207, "fever": 7208, "wind@@": 7209, "fucked": 7210, "ž@@": 7211, "fat@@": 7212, "1897": 7213, "bend": 7214, "consequences": 7215, "hei@@": 7216, "luis": 7217, "expand": 7218, "custom": 7219, "thursday": 7220, "crashed": 7221, "alists": 7222, "inv@@": 7223, "ately": 7224, "measured": 7225, "select": 7226, "shorter": 7227, "suspicious": 7228, "kai": 7229, "delay": 7230, "vor@@": 7231, "kit@@": 7232, "rev@@": 7233, "failing": 7234, "pause": 7235, "radi@@": 7236, "maid": 7237, "wu": 7238, "physician": 7239, "ruth": 7240, "compilation": 7241, "forum": 7242, "linda": 7243, "interviews": 7244, "ib@@": 7245, "eyebrows": 7246, "pec@@": 7247, "adri@@": 7248, "adaptation": 7249, "jack@@": 7250, "kol@@": 7251, "oma": 7252, "boxing": 7253, "planes": 7254, "signals": 7255, "caribbean": 7256, "encounter": 7257, "tourist": 7258, "jurisdiction": 7259, "drafted": 7260, "embarrassed": 7261, "assignment": 7262, "â@@": 7263, "nhl": 7264, "fairy": 7265, "bore": 7266, "scu@@": 7267, "posts": 7268, "parked": 7269, "hindu": 7270, "cassie": 7271, "custody": 7272, "stem": 7273, "flowing": 7274, "ais": 7275, "habitat": 7276, "globe": 7277, "inst@@": 7278, "fury": 7279, "preparation": 7280, "jerked": 7281, "grandpa": 7282, "timber": 7283, "ranging": 7284, "derby": 7285, "delicious": 7286, "bases": 7287, "evolved": 7288, "roy@@": 7289, "gram": 7290, "ences": 7291, "holly": 7292, "boot": 7293, "engage": 7294, "completing": 7295, "glow": 7296, "elena": 7297, "sweetie": 7298, "diverse": 7299, "partial": 7300, "hot@@": 7301, "gar": 7302, "thunder@@": 7303, "bitter": 7304, "bored": 7305, "madrid": 7306, "cult": 7307, "ast": 7308, "scary": 7309, "offense": 7310, "ée": 7311, "restaurants": 7312, "marble": 7313, "sec": 7314, "demolished": 7315, "nik": 7316, "mates": 7317, "camps": 7318, "ongoing": 7319, "roberts": 7320, "monkey": 7321, "zer@@": 7322, "tar": 7323, "temperatures": 7324, "tent": 7325, "floors": 7326, "wherever": 7327, "amendment": 7328, "sporting": 7329, "challenged": 7330, "ani@@": 7331, "uss": 7332, "certified": 7333, "oms": 7334, "sni@@": 7335, "carol": 7336, "exclusively": 7337, "comments": 7338, "ales": 7339, "nightmare": 7340, "molly": 7341, "blank": 7342, "solutions": 7343, "ech@@": 7344, "seated": 7345, "alaska": 7346, "diet": 7347, "confident": 7348, "plac@@": 7349, "ruler": 7350, "clerk": 7351, "handled": 7352, "relocated": 7353, "sac@@": 7354, "ques": 7355, "demonstrated": 7356, "ania": 7357, "blond": 7358, "1889": 7359, "harbour": 7360, "toes": 7361, "housed": 7362, "magical": 7363, "vertical": 7364, "ste": 7365, "extend": 7366, "ison": 7367, "bits": 7368, "dependent": 7369, "crosses": 7370, "ral": 7371, "breeding": 7372, "1893": 7373, "accessible": 7374, "arrangements": 7375, "mull@@": 7376, "nickname": 7377, "hire": 7378, "emp@@": 7379, "gym": 7380, "toy": 7381, "madame": 7382, "dome": 7383, "af": 7384, "taxi": 7385, "1885": 7386, "resist": 7387, "slu@@": 7388, "dent": 7389, "belgian": 7390, "consumer": 7391, "reduction": 7392, "travels": 7393, "1892": 7394, "juice": 7395, "topic": 7396, "acy": 7397, "gregory": 7398, "necessarily": 7399, "ut": 7400, "inherited": 7401, "blonde": 7402, "jungle": 7403, "improvement": 7404, "interstate": 7405, "fen@@": 7406, "platforms": 7407, "halt": 7408, "manufactured": 7409, "erie": 7410, "à": 7411, "clearing": 7412, "warn": 7413, "suburb": 7414, "deer": 7415, "nec@@": 7416, "cuba": 7417, "sman": 7418, "convicted": 7419, "poured": 7420, "cop@@": 7421, "ups": 7422, "1861": 7423, "aling": 7424, "21st": 7425, "camp@@": 7426, "flashed": 7427, "ula": 7428, "barrel": 7429, "logists": 7430, "jefferson": 7431, "nest": 7432, "tory": 7433, "ag": 7434, "liar": 7435, "prof@@": 7436, "intensity": 7437, "spine": 7438, "mist": 7439, "colleagues": 7440, "submitted": 7441, "counted": 7442, "gel": 7443, "quinn": 7444, "pioneer": 7445, "pairs": 7446, "implemented": 7447, "ces": 7448, "sphere": 7449, "patch": 7450, "jac@@": 7451, "theories": 7452, "ivan": 7453, "frightened": 7454, "outdoor": 7455, "master@@": 7456, "amber": 7457, "spr@@": 7458, "toilet": 7459, "alize": 7460, "fabric": 7461, "hesitated": 7462, "pret@@": 7463, "favourite": 7464, "terminus": 7465, "guided": 7466, "rin": 7467, "ind": 7468, "clever": 7469, "tribute": 7470, "situations": 7471, "1894": 7472, "tis": 7473, "rebels": 7474, "recognised": 7475, "flame": 7476, "bonus": 7477, "1864": 7478, "invisible": 7479, "defended": 7480, "nell": 7481, "feared": 7482, "mit": 7483, "pitched": 7484, "interpretation": 7485, "athletes": 7486, "hum@@": 7487, "tters": 7488, "seized": 7489, "respective": 7490, "focusing": 7491, "romania": 7492, "sullivan": 7493, "ava": 7494, "originated": 7495, "shade": 7496, "banned": 7497, "doug": 7498, "tightened": 7499, "calendar": 7500, "corruption": 7501, "coin": 7502, "possessed": 7503, "urge": 7504, "comparison": 7505, "esh": 7506, "immigration": 7507, "questioned": 7508, "adrian": 7509, "robot": 7510, "tours": 7511, "conversion": 7512, "diplomatic": 7513, "wrap": 7514, "praise": 7515, "permitted": 7516, "sultan": 7517, "regi@@": 7518, "rested": 7519, "1940s": 7520, "denver": 7521, "sas@@": 7522, "pag@@": 7523, "mainstream": 7524, "gauge": 7525, "kr@@": 7526, "lew@@": 7527, "relevant": 7528, "commitment": 7529, "tune": 7530, "virtual": 7531, "magnetic": 7532, "alternate": 7533, "clinic": 7534, "bour@@": 7535, "ellen": 7536, "muhammad": 7537, "esp@@": 7538, "vy": 7539, "recover": 7540, "mutual": 7541, "servants": 7542, "ugh": 7543, "subsidiary": 7544, "hans": 7545, "shaft": 7546, "kinda": 7547, "activated": 7548, "thief": 7549, "rell": 7550, "ander": 7551, "mixture": 7552, "jon@@": 7553, "1862": 7554, "welfare": 7555, "assured": 7556, "substitute": 7557, "stepping": 7558, "heir": 7559, "porter": 7560, "ggy": 7561, "sail": 7562, "1865": 7563, "des@@": 7564, "makers": 7565, "kane": 7566, "locks": 7567, "fluid": 7568, "quest": 7569, "clenched": 7570, "ć": 7571, "raymond": 7572, "stam@@": 7573, "preserve": 7574, "grand@@": 7575, "blan@@": 7576, "ó": 7577, "divorced": 7578, "wednesday": 7579, "soup": 7580, "intellectual": 7581, "unsuccessful": 7582, "contested": 7583, "columns": 7584, "diesel": 7585, "arguing": 7586, "tta": 7587, "ré@@": 7588, "tenth": 7589, "screwed": 7590, "congregation": 7591, "tracking": 7592, "comm@@": 7593, "gw@@": 7594, "challenges": 7595, "temporarily": 7596, "motor@@": 7597, "printing": 7598, "beijing": 7599, "realm": 7600, "invite": 7601, "tuesday": 7602, "kat": 7603, "mas@@": 7604, "lad@@": 7605, "ort": 7606, "generations": 7607, "mal": 7608, "fights": 7609, "chill": 7610, "1891": 7611, "1888": 7612, "internationally": 7613, "cancelled": 7614, "lov@@": 7615, "loading": 7616, "arrow": 7617, "sup@@": 7618, "tap@@": 7619, "functional": 7620, "observation": 7621, "farther": 7622, "festivals": 7623, "honors": 7624, "beard": 7625, "nad@@": 7626, "distinction": 7627, "commanding": 7628, "wallace": 7629, "settlements": 7630, "destiny": 7631, "artificial": 7632, "belonging": 7633, "specialized": 7634, "romanian": 7635, "belle": 7636, "ministers": 7637, "1863": 7638, "surveillance": 7639, "qualify": 7640, "spite": 7641, "goodness": 7642, "suits": 7643, "emphasis": 7644, "ological": 7645, "rogers": 7646, "lit@@": 7647, "zy@@": 7648, "serbian": 7649, "katie": 7650, "gged": 7651, "tide": 7652, "manufacturer": 7653, "manual": 7654, "nau@@": 7655, "monsters": 7656, "suggesting": 7657, "cal": 7658, "samples": 7659, "silently": 7660, "leonard": 7661, "grid": 7662, "holder": 7663, "mistress": 7664, "1880": 7665, "merger": 7666, "corn": 7667, "patent": 7668, "cent": 7669, "murderer": 7670, "growled": 7671, "1870": 7672, "arc": 7673, "sit@@": 7674, "stown": 7675, "references": 7676, "historians": 7677, "tender": 7678, "breathed": 7679, "corners": 7680, "concentrated": 7681, "difficulties": 7682, "concentrate": 7683, "align": 7684, "louise": 7685, "loyalty": 7686, "aspect": 7687, "delayed": 7688, "focuses": 7689, "asi@@": 7690, "otto": 7691, "hawk": 7692, "imagination": 7693, "sailing": 7694, "ante": 7695, "farming": 7696, "comprehensive": 7697, "describing": 7698, "assessment": 7699, "hardware": 7700, "indoor": 7701, "christians": 7702, "jay@@": 7703, "occasional": 7704, "syria": 7705, "amounts": 7706, "automatically": 7707, "pilots": 7708, "coaches": 7709, "adventures": 7710, "hunger": 7711, "patience": 7712, "lawyers": 7713, "gem@@": 7714, "supplied": 7715, "bec@@": 7716, "sively": 7717, "resumed": 7718, "lum@@": 7719, "addressed": 7720, "departments": 7721, "sixty": 7722, "scru@@": 7723, "locomotives": 7724, "reasonable": 7725, "cow": 7726, "auto": 7727, "relatives": 7728, "contracts": 7729, "promoting": 7730, "pent@@": 7731, "ris": 7732, "dding": 7733, "ssing": 7734, "releasing": 7735, "gothic": 7736, "souls": 7737, "gifts": 7738, "monica": 7739, "drives": 7740, "stran@@": 7741, "backup": 7742, "nasty": 7743, "protests": 7744, "gues": 7745, "extraordinary": 7746, "ides": 7747, "cos": 7748, "trio": 7749, "tit@@": 7750, "bron@@": 7751, "feld": 7752, "playoffs": 7753, "intelligent": 7754, "bia": 7755, "ples": 7756, "pistol": 7757, "consistent": 7758, "photographer": 7759, "anglo": 7760, "tore": 7761, "beats": 7762, "customs": 7763, "hospitals": 7764, "geo@@": 7765, "bill@@": 7766, "prints": 7767, "florence": 7768, "hang@@": 7769, "coaching": 7770, "onia": 7771, "town@@": 7772, "mé@@": 7773, "tina": 7774, "hara": 7775, "bullets": 7776, "cruel": 7777, "nina": 7778, "ock": 7779, "ambulance": 7780, "gravity": 7781, "digging": 7782, "kicking": 7783, "aids": 7784, "æ@@": 7785, "inj@@": 7786, "binding": 7787, "collar": 7788, "sensation": 7789, "sequ@@": 7790, "rude": 7791, "nom@@": 7792, "doll": 7793, "outbreak": 7794, "terrorist": 7795, "commons": 7796, "whoo": 7797, "kay@@": 7798, "embassy": 7799, "reader": 7800, "tec@@": 7801, "lou": 7802, "ech": 7803, "microsoft": 7804, "instruction": 7805, "betty": 7806, "vis": 7807, "hebrew": 7808, "wagon": 7809, "jam": 7810, "repeatedly": 7811, "smen": 7812, "diseases": 7813, "deemed": 7814, "shallow": 7815, "rubber": 7816, "rebel": 7817, "breed": 7818, "airlines": 7819, "marshal": 7820, "infection": 7821, "kg": 7822, "blown": 7823, "bolt": 7824, "cali@@": 7825, "flor@@": 7826, "ju": 7827, "senses": 7828, "vel": 7829, "worlds": 7830, "mom@@": 7831, "finnish": 7832, "hint": 7833, "tomb": 7834, "crush": 7835, "anc@@": 7836, "snap": 7837, "fried": 7838, "sch": 7839, "les@@": 7840, "survivors": 7841, "gg": 7842, "shin@@": 7843, "1887": 7844, "ec": 7845, "wol@@": 7846, "que@@": 7847, "implementation": 7848, "resignation": 7849, "baptist": 7850, "amp@@": 7851, "regulation": 7852, "mentally": 7853, "indicates": 7854, "acquisition": 7855, "finn": 7856, "murders": 7857, "way@@": 7858, "database": 7859, "threats": 7860, "announcement": 7861, "costume": 7862, "hurting": 7863, "activist": 7864, "aj": 7865, "obama": 7866, "rin@@": 7867, "distinctive": 7868, "swi@@": 7869, "confederate": 7870, "psychological": 7871, "iso@@": 7872, "cock@@": 7873, "bold": 7874, "efficiency": 7875, "earthquake": 7876, "colon@@": 7877, "pirates": 7878, "rip": 7879, "privacy": 7880, "veteran": 7881, "eager": 7882, "isation": 7883, "campaigns": 7884, "characteristic": 7885, "striking": 7886, "plains": 7887, "remarkable": 7888, "uefa": 7889, "attendance": 7890, "stored": 7891, "gesture": 7892, "strings": 7893, "charming": 7894, "riders": 7895, "oul@@": 7896, "rounded": 7897, "zoo": 7898, "bangladesh": 7899, "margin": 7900, "athens": 7901, "cracked": 7902, "iness": 7903, "chuckled": 7904, "graphics": 7905, "encountered": 7906, "trevor": 7907, "nevada": 7908, "mainland": 7909, "ingham": 7910, "trash": 7911, "dor": 7912, "surgeon": 7913, "eland": 7914, "impl@@": 7915, "approaches": 7916, "bble": 7917, "sus": 7918, "ritual": 7919, "certificate": 7920, "mistakes": 7921, "euro@@": 7922, "rays": 7923, "bombing": 7924, "flies": 7925, "animation": 7926, "protocol": 7927, "casualties": 7928, "eno@@": 7929, "plo@@": 7930, "reli@@": 7931, "ille": 7932, "reward": 7933, "rabbi": 7934, "owing": 7935, "peaceful": 7936, "significance": 7937, "unexpected": 7938, "rolls": 7939, "pad": 7940, "11@@": 7941, "rh@@": 7942, "attraction": 7943, "grammar": 7944, "eted": 7945, "more@@": 7946, "drank": 7947, "pt": 7948, "jor@@": 7949, "warrant": 7950, "colonies": 7951, "chile": 7952, "tag@@": 7953, "vest@@": 7954, "roland": 7955, "influences": 7956, "bal": 7957, "kenny": 7958, "elbow": 7959, "dial": 7960, "kab@@": 7961, "revealing": 7962, "settling": 7963, "specialist": 7964, "grief": 7965, "thunder": 7966, "ns@@": 7967, "succeed": 7968, "1886": 7969, "jackie": 7970, "item": 7971, "ling@@": 7972, "liga": 7973, "dot": 7974, "tted": 7975, "sounding": 7976, "aggressive": 7977, "contents": 7978, "casey": 7979, "kad@@": 7980, "sto": 7981, "dragons": 7982, "adelaide": 7983, "you@@": 7984, "kylie": 7985, "protective": 7986, "fundamental": 7987, "accomplished": 7988, "gia": 7989, "priests": 7990, "ingen": 7991, "christianity": 7992, "ide@@": 7993, "lighter": 7994, "enrolled": 7995, "skirt": 7996, "tou@@": 7997, "crops": 7998, "ful@@": 7999, "input": 8000, "sion@@": 8001, "presentation": 8002, "deadly": 8003, "safely": 8004, "num@@": 8005, "archaeological": 8006, "enne": 8007, "dness": 8008, "vital": 8009, "declaration": 8010, "stea@@": 8011, "ied": 8012, "rats": 8013, "warehouse": 8014, "shorts": 8015, "extensively": 8016, "militia": 8017, "zen": 8018, "fam@@": 8019, "healing": 8020, "inaugural": 8021, "strikes": 8022, "reflect": 8023, "tia": 8024, "reg@@": 8025, "framework": 8026, "unconscious": 8027, "ashamed": 8028, "bug": 8029, "arnold": 8030, "odds": 8031, "renowned": 8032, "holland": 8033, "accent": 8034, "shah": 8035, "martha": 8036, "terrified": 8037, "beings": 8038, "choices": 8039, "rebecca": 8040, "ide": 8041, "topics": 8042, "quarterback": 8043, "shakespeare": 8044, "cross@@": 8045, "seeds": 8046, "gilbert": 8047, "ook": 8048, "casting": 8049, "malcolm": 8050, "examined": 8051, "ignoring": 8052, "brisbane": 8053, "1881": 8054, "phy@@": 8055, "brandon": 8056, "ports": 8057, "rider": 8058, "cannon": 8059, "pond": 8060, "lang@@": 8061, "widened": 8062, "ray@@": 8063, "chat": 8064, "mall@@": 8065, "smelled": 8066, "alberta": 8067, "mers": 8068, "ă@@": 8069, "answering": 8070, "yale": 8071, "leeds": 8072, "experts": 8073, "jag@@": 8074, "coup": 8075, "manuel": 8076, "editions": 8077, "о@@": 8078, "chorus": 8079, "participating": 8080, "bers": 8081, "logo": 8082, "guidance": 8083, "statements": 8084, "buddhist": 8085, "moo@@": 8086, "set@@": 8087, "habit": 8088, "edwards": 8089, "short@@": 8090, "wives": 8091, "itis": 8092, "armies": 8093, "deals": 8094, "recruited": 8095, "vir@@": 8096, "inge": 8097, "rev": 8098, "chambers": 8099, "matrix": 8100, "watson": 8101, "casino": 8102, "ring@@": 8103, "vent@@": 8104, "pierce": 8105, "priority": 8106, "dakota": 8107, "honored": 8108, "generate": 8109, "satisfaction": 8110, "mou@@": 8111, "fewer": 8112, "queens": 8113, "outta": 8114, "dong": 8115, "tram@@": 8116, "ruins": 8117, "gin": 8118, "venice": 8119, "eri": 8120, "towel": 8121, "breeze": 8122, "xed": 8123, "shin": 8124, "jen@@": 8125, "pos@@": 8126, "groaned": 8127, "pedro": 8128, "judicial": 8129, "iranian": 8130, "democrats": 8131, "cherry": 8132, "anchor": 8133, "photo@@": 8134, "neighbors": 8135, "rabbit": 8136, "cincinnati": 8137, "thighs": 8138, "axis": 8139, "diana": 8140, "democrat": 8141, "harper": 8142, "explore": 8143, "circular": 8144, "guinea": 8145, "statistical": 8146, "costa": 8147, "guarantee": 8148, "spi@@": 8149, "ente": 8150, "fifa": 8151, "temples": 8152, "assuming": 8153, "commit": 8154, "aching": 8155, "1884": 8156, "ashley": 8157, "discipline": 8158, "champagne": 8159, "politicians": 8160, "tara": 8161, "backward": 8162, "tate": 8163, "aero@@": 8164, "pillow": 8165, "spinning": 8166, "kilometers": 8167, "iv@@": 8168, "а@@": 8169, "fet@@": 8170, "encourage": 8171, "herbert": 8172, "bourne": 8173, "michelle": 8174, "kre@@": 8175, "py": 8176, "hypo@@": 8177, "norfolk": 8178, "currency": 8179, "tex@@": 8180, "sealed": 8181, "readers": 8182, "exile": 8183, "human@@": 8184, "istic": 8185, "sierra": 8186, "altered": 8187, "ware": 8188, "cho": 8189, "lu": 8190, "dest": 8191, "chim@@": 8192, "equation": 8193, "transformed": 8194, "bout": 8195, "journalism": 8196, "pockets": 8197, "exhibit": 8198, "abraham": 8199, "trailer": 8200, "ud": 8201, "banking": 8202, "corresponding": 8203, "barrier": 8204, "permanently": 8205, "unity": 8206, "resource": 8207, "hollow": 8208, "fierce": 8209, "followers": 8210, "shim@@": 8211, "indicating": 8212, "outfit": 8213, "involve": 8214, "echo": 8215, "ik@@": 8216, "sustained": 8217, "powder": 8218, "warfare": 8219, "tucked": 8220, "×": 8221, "imprisoned": 8222, "sack": 8223, "server": 8224, "succession": 8225, "chains": 8226, "traced": 8227, "broad@@": 8228, "accidentally": 8229, "ore@@": 8230, "cruise": 8231, "proteins": 8232, "spreading": 8233, "nails": 8234, "permit": 8235, "neutral": 8236, "airline": 8237, "munich": 8238, "tend@@": 8239, "née": 8240, "feder@@": 8241, "garrison": 8242, "handful": 8243, "altitude": 8244, "heal": 8245, "cultures": 8246, "chasing": 8247, "narrative": 8248, "kidnapped": 8249, "strict": 8250, "territorial": 8251, "leagues": 8252, "phon@@": 8253, "reducing": 8254, "beta": 8255, "writings": 8256, "advocate": 8257, "lanka": 8258, "bennett": 8259, "legacy": 8260, "lobby": 8261, "lock@@": 8262, "sanctuary": 8263, "tile": 8264, "fusion": 8265, "mach@@": 8266, "bombs": 8267, "uc@@": 8268, "delicate": 8269, "receiver": 8270, "renaissance": 8271, "flipped": 8272, "frustration": 8273, "trucks": 8274, "thur@@": 8275, "mph": 8276, "jacques": 8277, "canyon": 8278, "mas": 8279, "dealt": 8280, "lesser": 8281, "rever@@": 8282, "♫": 8283, "ential": 8284, "variable": 8285, "heated": 8286, "maurice": 8287, "documented": 8288, "continent": 8289, "ams": 8290, "liberation": 8291, "dered": 8292, "receives": 8293, "scan": 8294, "removal": 8295, "cz@@": 8296, "amsterdam": 8297, "nab@@": 8298, "clin@@": 8299, "blowing": 8300, "tion@@": 8301, "technically": 8302, "tz@@": 8303, "cylinder": 8304, "ship@@": 8305, "protestant": 8306, "rain@@": 8307, "twist": 8308, "roo@@": 8309, "ibn": 8310, "maya": 8311, "1882": 8312, "actively": 8313, "dialogue": 8314, "fastest": 8315, "professionals": 8316, "ei": 8317, "shining": 8318, "philippine": 8319, "thered": 8320, "iner": 8321, "hopefully": 8322, "disorder": 8323, "pus": 8324, "elevated": 8325, "aires": 8326, "sip": 8327, "proceed": 8328, "ua": 8329, "peer": 8330, "oy": 8331, "mcc@@": 8332, "dimensional": 8333, "eda": 8334, "bed@@": 8335, "commenced": 8336, "promises": 8337, "vanished": 8338, "cand@@": 8339, "armenian": 8340, "joking": 8341, "grain": 8342, "stered": 8343, "jose": 8344, "smells": 8345, "heh": 8346, "desperately": 8347, "melody": 8348, "prevented": 8349, "say@@": 8350, "sunlight": 8351, "structural": 8352, "1860": 8353, "yle": 8354, "doubles": 8355, "plaza": 8356, "dag@@": 8357, "bby": 8358, "abu": 8359, "preston": 8360, "lance": 8361, "timing": 8362, "advisory": 8363, "phd": 8364, "pla@@": 8365, "bella": 8366, "trips": 8367, "orbit": 8368, "contributing": 8369, "array": 8370, "thed": 8371, "mother@@": 8372, "wild@@": 8373, "bud@@": 8374, "usage": 8375, "fork": 8376, "kap@@": 8377, "gon": 8378, "alu@@": 8379, "extending": 8380, "illustrated": 8381, "farms": 8382, "dressing": 8383, "dic": 8384, "vocalist": 8385, "respected": 8386, "stationed": 8387, "nerves": 8388, "sandwich": 8389, "cheers": 8390, "travelling": 8391, "lecture": 8392, "theology": 8393, "numbered": 8394, "precisely": 8395, "rookie": 8396, "tas@@": 8397, "maintaining": 8398, "serbia": 8399, "sent@@": 8400, "with@@": 8401, "genes": 8402, "ssy": 8403, "roosevelt": 8404, "gener@@": 8405, "ght": 8406, "ratings": 8407, "circus": 8408, "runners": 8409, "stark": 8410, "virtually": 8411, "moth": 8412, "thai": 8413, "slavery": 8414, "reservoir": 8415, "static": 8416, "eagles": 8417, "fraud": 8418, "conscious": 8419, "motorcycle": 8420, "northwestern": 8421, "hl@@": 8422, "thy@@": 8423, "civilians": 8424, "tourists": 8425, "photograph": 8426, "weed": 8427, "email": 8428, "gad@@": 8429, "poll": 8430, "furious": 8431, "leigh": 8432, "celebrity": 8433, "corn@@": 8434, "locomotive": 8435, "ician": 8436, "overhead": 8437, "hunters": 8438, "laying": 8439, "hms": 8440, "interaction": 8441, "freight": 8442, "toe": 8443, "shor@@": 8444, "manuscript": 8445, "closure": 8446, "scor@@": 8447, "seventeen": 8448, "sses": 8449, "heather": 8450, "assembled": 8451, "nebraska": 8452, "infected": 8453, "dried": 8454, "mend@@": 8455, "depicted": 8456, "sticks": 8457, "slam": 8458, "dame": 8459, "shout": 8460, "undergraduate": 8461, "pitcher": 8462, "alised": 8463, "perceived": 8464, "scar": 8465, "exc@@": 8466, "barcelona": 8467, "designation": 8468, "fog": 8469, "xes": 8470, "mans": 8471, "improvements": 8472, "wet@@": 8473, "mond": 8474, "miranda": 8475, "fin": 8476, "freeze": 8477, "pills": 8478, "cart": 8479, "eri@@": 8480, "rid@@": 8481, "suspension": 8482, "tap": 8483, "acknowledged": 8484, "laser": 8485, "ender": 8486, "desp@@": 8487, "nail": 8488, "beds": 8489, "playoff": 8490, "101": 8491, "dio": 8492, "stand@@": 8493, "collecting": 8494, "dishes": 8495, "pronounced": 8496, "scandal": 8497, "severely": 8498, "1876": 8499, "freaking": 8500, "realizing": 8501, "gospel": 8502, "matched": 8503, "1883": 8504, "someday": 8505, "overcome": 8506, "refugees": 8507, "stays": 8508, "road@@": 8509, "basket": 8510, "eer": 8511, "hughes": 8512, "aga": 8513, "bailey": 8514, "lamp": 8515, "aches": 8516, "ensemble": 8517, "conver@@": 8518, "fts": 8519, "rap": 8520, "mighty": 8521, "foot@@": 8522, "ae@@": 8523, "montana": 8524, "emerging": 8525, "colt": 8526, "everyday": 8527, "chal@@": 8528, "kara": 8529, "reflection": 8530, "caleb": 8531, "dissolved": 8532, "1871": 8533, "bowling": 8534, "hair@@": 8535, "ination": 8536, "tasks": 8537, "marvel": 8538, "veterans": 8539, "eton": 8540, "nigeria": 8541, "til@@": 8542, "ère": 8543, "iri@@": 8544, "hurried": 8545, "consumption": 8546, "identification": 8547, "practiced": 8548, "stal@@": 8549, "iro": 8550, "lish": 8551, "sev@@": 8552, "counsel": 8553, "separation": 8554, "arians": 8555, "destroying": 8556, "behaviour": 8557, "gaz@@": 8558, "iles": 8559, "imp@@": 8560, "oy@@": 8561, "salary": 8562, "gle": 8563, "mic": 8564, "author@@": 8565, "pled": 8566, "tribal": 8567, "keen": 8568, "deserved": 8569, "1878": 8570, "intermediate": 8571, "reserved": 8572, "glared": 8573, "namely": 8574, "bon": 8575, "mortal": 8576, "exploded": 8577, "connects": 8578, "ops": 8579, "react": 8580, "borg": 8581, "youtube": 8582, "betrayed": 8583, "fron@@": 8584, "embrace": 8585, "abruptly": 8586, "accommodate": 8587, "petersburg": 8588, "ums": 8589, "grabbing": 8590, "icon": 8591, "pounding": 8592, "sworth": 8593, "eries": 8594, "sends": 8595, "anim@@": 8596, "mature": 8597, "beau@@": 8598, "jin@@": 8599, "workshop": 8600, "kaz@@": 8601, "neighboring": 8602, "carpet": 8603, "ppers": 8604, "ranges": 8605, "ellis": 8606, "sew@@": 8607, "municipalities": 8608, "pursuit": 8609, "beliefs": 8610, "ellie": 8611, "maritime": 8612, "tures": 8613, "sby": 8614, "boulevard": 8615, "pall@@": 8616, "layers": 8617, "tobacco": 8618, "tac@@": 8619, "dig@@": 8620, "pol": 8621, "legendary": 8622, "cam": 8623, "athlete": 8624, "proceeded": 8625, "pretending": 8626, "spe@@": 8627, "witnessed": 8628, "melissa": 8629, "mario": 8630, "elec@@": 8631, "angela": 8632, "gavin": 8633, "itation": 8634, "define": 8635, "esses": 8636, "hh": 8637, "contra@@": 8638, "leon": 8639, "dante": 8640, "cursed": 8641, "demanding": 8642, "luxury": 8643, "oo": 8644, "aded": 8645, "hs": 8646, "predecessor": 8647, "squeeze": 8648, "restore": 8649, "shine": 8650, "claude": 8651, "amer@@": 8652, "ef": 8653, "streak": 8654, "conspiracy": 8655, "molecular": 8656, "nursing": 8657, "qualification": 8658, "desired": 8659, "paradise": 8660, "kid@@": 8661, "neighbor": 8662, "footsteps": 8663, "congressional": 8664, "daisy": 8665, "stained": 8666, "cks": 8667, "dealer": 8668, "vale": 8669, "thereby": 8670, "advised": 8671, "exhibited": 8672, "hai": 8673, "inhabited": 8674, "donna": 8675, "intervention": 8676, "notion": 8677, "construct": 8678, "fare": 8679, "syndrome": 8680, "katherine": 8681, "teddy": 8682, "societies": 8683, "profession": 8684, "quantum": 8685, "kirk": 8686, "sound@@": 8687, "shanghai": 8688, "1867": 8689, "administered": 8690, "tum@@": 8691, "night@@": 8692, "swallow": 8693, "sunshine": 8694, "dop@@": 8695, "stack": 8696, "google": 8697, "whore": 8698, "alec": 8699, "mick": 8700, "ghosts": 8701, "centered": 8702, "startled": 8703, "lp": 8704, "tips": 8705, "troy": 8706, "fisher": 8707, "eyebrow": 8708, "sequel": 8709, "brooks": 8710, "architects": 8711, "proven": 8712, "cox": 8713, "newcastle": 8714, "contrary": 8715, "creator": 8716, "montgomery": 8717, "aer@@": 8718, "blessed": 8719, "advisor": 8720, "sharply": 8721, "reviewed": 8722, "epic": 8723, "civic": 8724, "sty": 8725, "aga@@": 8726, "concepts": 8727, "outs": 8728, "electronics": 8729, "singers": 8730, "stiff": 8731, "knocking": 8732, "brass": 8733, "bells": 8734, "cleaned": 8735, "lawn": 8736, "brains": 8737, "depot": 8738, "fears": 8739, "holmes": 8740, "newton": 8741, "bengal": 8742, "conductor": 8743, "ame": 8744, "marc": 8745, "palms": 8746, "veins": 8747, "rams": 8748, "pump": 8749, "tation": 8750, "clean@@": 8751, "transformation": 8752, "cottage": 8753, "teenage": 8754, "900": 8755, "preservation": 8756, "agrees": 8757, "interface": 8758, "clar@@": 8759, "creates": 8760, "stanford": 8761, "della": 8762, "descendants": 8763, "step@@": 8764, "cdp": 8765, "md": 8766, "stumbled": 8767, "free@@": 8768, "absorbed": 8769, "ür@@": 8770, "avoiding": 8771, "popped": 8772, "froze": 8773, "fists": 8774, "charm": 8775, "wicked": 8776, "compu@@": 8777, "1872": 8778, "facebook": 8779, "spike": 8780, "spin@@": 8781, "tele@@": 8782, "begging": 8783, "crowded": 8784, "itions": 8785, "phillips": 8786, "1875": 8787, "burial": 8788, "€": 8789, "arched": 8790, "associates": 8791, "codes": 8792, "galaxy": 8793, "reserves": 8794, "privately": 8795, "voiced": 8796, "power@@": 8797, "palmer": 8798, "piss": 8799, "1879": 8800, "dim": 8801, "merry": 8802, "reads": 8803, "ester": 8804, "gly@@": 8805, "vac@@": 8806, "rises": 8807, "stefan": 8808, "suggestion": 8809, "garbage": 8810, "dense": 8811, "installation": 8812, "finest": 8813, "horizon": 8814, "leton": 8815, "presidency": 8816, "eb@@": 8817, "tics": 8818, "shifting": 8819, "revised": 8820, "noon": 8821, "eased": 8822, "dell": 8823, "descended": 8824, "happily": 8825, "rex": 8826, "randy": 8827, "sur": 8828, "amo@@": 8829, "tall@@": 8830, "tops": 8831, "wi": 8832, "ammunition": 8833, "rot@@": 8834, "dreaming": 8835, "qua@@": 8836, "chil@@": 8837, "hotels": 8838, "stunned": 8839, "journalists": 8840, "dozens": 8841, "bothered": 8842, "chers": 8843, "eo@@": 8844, "procedures": 8845, "bic@@": 8846, "itive": 8847, "cruz": 8848, "mu": 8849, "reforms": 8850, "integration": 8851, "zam@@": 8852, "estates": 8853, "tournaments": 8854, "lasting": 8855, "portions": 8856, "berkeley": 8857, "marco": 8858, "rivals": 8859, "mie": 8860, "uri": 8861, "consequently": 8862, "lation": 8863, "bud": 8864, "dis": 8865, "spectrum": 8866, "tactical": 8867, "altar": 8868, "ş@@": 8869, "tang@@": 8870, "mothers": 8871, "abandon": 8872, "moderate": 8873, "irs": 8874, "consist": 8875, "1868": 8876, "ô@@": 8877, "programmes": 8878, "lovers": 8879, "prompted": 8880, "brooke": 8881, "incumbent": 8882, "rum": 8883, "glen": 8884, "seminary": 8885, "confirm": 8886, "authorized": 8887, "intend": 8888, "batman": 8889, "toast": 8890, "clau@@": 8891, "unions": 8892, "manages": 8893, "neo": 8894, "avoided": 8895, "variation": 8896, "chiefs": 8897, "talented": 8898, "yor@@": 8899, "itz": 8900, "ees": 8901, "thesis": 8902, "pub": 8903, "removing": 8904, "delaware": 8905, "bonds": 8906, "chelsea": 8907, "crushed": 8908, "pastor": 8909, "missionary": 8910, "griffin": 8911, "casual": 8912, "elaborate": 8913, "thr@@": 8914, "determination": 8915, "1874": 8916, "manufacturers": 8917, "и@@": 8918, "foods": 8919, "exterior": 8920, "incredibly": 8921, "unlikely": 8922, "flip": 8923, "achi@@": 8924, "ens@@": 8925, "expanding": 8926, "felix": 8927, "beloved": 8928, "butter": 8929, "sten": 8930, "chem@@": 8931, "particles": 8932, "exam": 8933, "aims": 8934, "cane": 8935, "deliberately": 8936, "variations": 8937, "napoleon": 8938, "ssed": 8939, "mosque": 8940, "mathematical": 8941, "marines": 8942, "cut@@": 8943, "apollo": 8944, "registration": 8945, "conquest": 8946, "loudly": 8947, "eps": 8948, "1866": 8949, "sofia": 8950, "110": 8951, "kho@@": 8952, "governing": 8953, "voyage": 8954, "nicole": 8955, "enberg": 8956, "ruby": 8957, "garrett": 8958, "byzantine": 8959, "joel": 8960, "consent": 8961, "logically": 8962, "commune": 8963, "founders": 8964, "nick@@": 8965, "idi@@": 8966, "wea@@": 8967, "gated": 8968, "strictly": 8969, "arrange": 8970, "rumors": 8971, "ign@@": 8972, "ottawa": 8973, "secretly": 8974, "ddy": 8975, "platinum": 8976, "ref": 8977, "bottles": 8978, "mtv": 8979, "convoy": 8980, "curved": 8981, "controlling": 8982, "burden": 8983, "zhou": 8984, "ribs": 8985, "lam": 8986, "helmet": 8987, "legion": 8988, "1873": 8989, "pradesh": 8990, "questioning": 8991, "ig": 8992, "cit@@": 8993, "colours": 8994, "dg@@": 8995, "cork": 8996, "conducting": 8997, "valentine": 8998, "emo@@": 8999, "southeastern": 9000, "oi": 9001, "laughs": 9002, "swift": 9003, "dull": 9004, "lebanon": 9005, "contacts": 9006, "nationalist": 9007, "batting": 9008, "leslie": 9009, "travis": 9010, "grants": 9011, "gripped": 9012, "developments": 9013, "explaining": 9014, "pregnancy": 9015, "tricks": 9016, "cr": 9017, "collaborated": 9018, "ures": 9019, "door@@": 9020, "wisdom": 9021, "contribute": 9022, "tattoo": 9023, "lic": 9024, "mec@@": 9025, "dh@@": 9026, "walt": 9027, "genuine": 9028, "slowed": 9029, "lé@@": 9030, "marsh": 9031, "wri@@": 9032, "anxious": 9033, "shirts": 9034, "sophia": 9035, "resolved": 9036, "wag@@": 9037, "deci@@": 9038, "liu": 9039, "monitoring": 9040, "rubbing": 9041, "seemingly": 9042, "landmark": 9043, "toys": 9044, "ious": 9045, "vermont": 9046, "isle": 9047, "oli": 9048, "siblings": 9049, "prestigious": 9050, "curriculum": 9051, "arc@@": 9052, "pier": 9053, "ricky": 9054, "tional": 9055, "dt": 9056, "generous": 9057, "mumbai": 9058, "erin": 9059, "az": 9060, "substance": 9061, "¡": 9062, "ffy": 9063, "exp@@": 9064, "eo": 9065, "outcome": 9066, "portal": 9067, "adi": 9068, "jess": 9069, "acoustic": 9070, "1877": 9071, "tang": 9072, "unt": 9073, "bishops": 9074, "oni@@": 9075, "scratch": 9076, "1848": 9077, "lauren": 9078, "inde@@": 9079, "solved": 9080, "frustrated": 9081, "mc": 9082, "savage": 9083, "tapped": 9084, "atomic": 9085, "cups": 9086, "pee": 9087, "forbidden": 9088, "wipe": 9089, "dine": 9090, "prototype": 9091, "shouting": 9092, "celtic": 9093, "harmon@@": 9094, "weakness": 9095, "essi@@": 9096, "predic@@": 9097, "refuses": 9098, "affiliate": 9099, "break@@": 9100, "louder": 9101, "raj": 9102, "variant": 9103, "amusement": 9104, "enders": 9105, "repri@@": 9106, "backwards": 9107, "sic": 9108, "ı@@": 9109, "rap@@": 9110, "chips": 9111, "ght@@": 9112, "cer": 9113, "amp": 9114, "potentially": 9115, "curiosity": 9116, "steering": 9117, "diary": 9118, "glowing": 9119, "chang@@": 9120, "relegated": 9121, "spit": 9122, "nowiki": 9123, "jur@@": 9124, "saudi": 9125, "wizard": 9126, "anxiety": 9127, "assists": 9128, "consultant": 9129, "home@@": 9130, "gown": 9131, "discovers": 9132, "consideration": 9133, "ished": 9134, "enable": 9135, "organisations": 9136, "targeted": 9137, "mercury": 9138, "miguel": 9139, "burton": 9140, "lifestyle": 9141, "nashville": 9142, "refuge": 9143, "disgusting": 9144, "differently": 9145, "aire": 9146, "pour": 9147, "investors": 9148, "carson": 9149, "janet": 9150, "clem@@": 9151, "matching": 9152, "terrain": 9153, "riot": 9154, "archives": 9155, "ego": 9156, "boro": 9157, "fathers": 9158, "symbols": 9159, "ining": 9160, "comprises": 9161, "poo@@": 9162, "ston@@": 9163, "entity": 9164, "alike": 9165, "homo@@": 9166, "130": 9167, "colombia": 9168, "massacre": 9169, "tow@@": 9170, "ober@@": 9171, "urgent": 9172, "imposed": 9173, "andrea": 9174, "sheffield": 9175, "reid": 9176, "toby": 9177, "preliminary": 9178, "zoe": 9179, "snu@@": 9180, "aps": 9181, "holders": 9182, "fl": 9183, "victories": 9184, "joshua": 9185, "robbery": 9186, "lon": 9187, "navigation": 9188, "burnt": 9189, "moreover": 9190, "jokes": 9191, "1850": 9192, "dump": 9193, "wellington": 9194, "tucker": 9195, "thigh": 9196, "renewed": 9197, "theatrical": 9198, "displays": 9199, "holden": 9200, "pursued": 9201, "tooth": 9202, "communicate": 9203, "enabled": 9204, "thra@@": 9205, "innovation": 9206, "lust": 9207, "hates": 9208, "distracted": 9209, "cum@@": 9210, "autonomous": 9211, "jill": 9212, "parted": 9213, "legally": 9214, "marty": 9215, "teen": 9216, "broadcasts": 9217, "upcoming": 9218, "fellowship": 9219, "circulation": 9220, "dat@@": 9221, "pis@@": 9222, "investigating": 9223, "attract": 9224, "provisions": 9225, "poin@@": 9226, "frontier": 9227, "shark": 9228, "reconstruction": 9229, "topped": 9230, "clarke": 9231, "nut": 9232, "ayan": 9233, "fitting": 9234, "tai": 9235, "sofa": 9236, "robe": 9237, "tray": 9238, "badge": 9239, "mps": 9240, "nel": 9241, "extends": 9242, "icing": 9243, "promising": 9244, "liver": 9245, "stock@@": 9246, "ladder": 9247, "ello": 9248, "editorial": 9249, "diving": 9250, "flooding": 9251, "noting": 9252, "kay": 9253, "recipient": 9254, "apology": 9255, "discussing": 9256, "gosh": 9257, "specified": 9258, "trump": 9259, "hybrid": 9260, "meantime": 9261, "tristan": 9262, "let@@": 9263, "nods": 9264, "tragedy": 9265, "afterward": 9266, "borrow": 9267, "phenomenon": 9268, "aber@@": 9269, "croatian": 9270, "rian": 9271, "abad": 9272, "curtis": 9273, "nonetheless": 9274, "toll": 9275, "dubbed": 9276, "tens": 9277, "fountain": 9278, "reverend": 9279, "corpse": 9280, "hon": 9281, "marking": 9282, "1869": 9283, "ichi": 9284, "ade@@": 9285, "dive": 9286, "ean": 9287, "insects": 9288, "pir@@": 9289, "rotten": 9290, "remembering": 9291, "kenya": 9292, "coached": 9293, "sor": 9294, "intimate": 9295, "yelling": 9296, "feast": 9297, "precise": 9298, "bless": 9299, "trembling": 9300, "river@@": 9301, "retain": 9302, "nam": 9303, "stom@@": 9304, "vii": 9305, "sony": 9306, "gla@@": 9307, "ux": 9308, "independently": 9309, "dering": 9310, "yuan": 9311, "rescued": 9312, "centres": 9313, "russians": 9314, "slope": 9315, "chick": 9316, "traces": 9317, "fau@@": 9318, "streams": 9319, "miserable": 9320, "fr": 9321, "gger": 9322, "ached": 9323, "admission": 9324, "bradley": 9325, "stat@@": 9326, "tee": 9327, "vietnamese": 9328, "updated": 9329, "ín": 9330, "graves": 9331, "oro@@": 9332, "brow@@": 9333, "obli@@": 9334, "plantation": 9335, "ankle": 9336, "nt": 9337, "drifted": 9338, "tau@@": 9339, "width": 9340, "rem@@": 9341, "cruci@@": 9342, "nationwide": 9343, "vu@@": 9344, "predominantly": 9345, "tham": 9346, "ink@@": 9347, "hay": 9348, "tured": 9349, "tet@@": 9350, "bre": 9351, "chad": 9352, "anton@@": 9353, "ez@@": 9354, "angel@@": 9355, "edo": 9356, "mack": 9357, "sorts": 9358, "unhappy": 9359, "sep@@": 9360, "gage": 9361, "well@@": 9362, "doctrine": 9363, "vector": 9364, "iraqi": 9365, "eden": 9366, "sings": 9367, "dp": 9368, "peru": 9369, "mt": 9370, "lynn": 9371, "ik": 9372, "iser": 9373, "gloves": 9374, "olive": 9375, "nasa": 9376, "draws": 9377, "rich@@": 9378, "steep": 9379, "argues": 9380, "suburbs": 9381, "improving": 9382, "frost": 9383, "wishing": 9384, "marched": 9385, "wreck": 9386, "citing": 9387, "jace": 9388, "gers": 9389, "vince": 9390, "stability": 9391, "tilted": 9392, "hir@@": 9393, "dul@@": 9394, "180": 9395, "appeals": 9396, "recreation": 9397, "life@@": 9398, "berger": 9399, "dana": 9400, "rein@@": 9401, "strain": 9402, "gum": 9403, "lease": 9404, "ū@@": 9405, "classroom": 9406, "natalie": 9407, "eco@@": 9408, "kis@@": 9409, "relating": 9410, "disappointment": 9411, "exploration": 9412, "arri@@": 9413, "consequence": 9414, "reformed": 9415, "guessed": 9416, "palestine": 9417, "stevens": 9418, "2000s": 9419, "rah": 9420, "diamonds": 9421, "selfish": 9422, "assure": 9423, "syrian": 9424, "compiled": 9425, "stuffed": 9426, "tracy": 9427, "magne@@": 9428, "soo@@": 9429, "bryan": 9430, "marathon": 9431, "varied": 9432, "tactics": 9433, "paths": 9434, "loads": 9435, "arsenal": 9436, "beef": 9437, "urged": 9438, "ras": 9439, "disbanded": 9440, "compensation": 9441, "diversity": 9442, "rosa": 9443, "intact": 9444, "merit": 9445, "adoption": 9446, "petro@@": 9447, "pend@@": 9448, "restrictions": 9449, "suburban": 9450, "shakes": 9451, "warsaw": 9452, "hugged": 9453, "testimony": 9454, "jab@@": 9455, "bulk": 9456, "fees": 9457, "discrimination": 9458, "requirement": 9459, "instructor": 9460, "valid": 9461, "requiring": 9462, "hostile": 9463, "ony": 9464, "allegedly": 9465, "enlisted": 9466, "mani@@": 9467, "shelf": 9468, "guild": 9469, "drawings": 9470, "ous@@": 9471, "willie": 9472, "teenager": 9473, "lli": 9474, "chand@@": 9475, "mg": 9476, "crop": 9477, "claws": 9478, "lectures": 9479, "ft@@": 9480, "framed": 9481, "roses": 9482, "transported": 9483, "simpson": 9484, "cio": 9485, "uring": 9486, "stripped": 9487, "monroe": 9488, "possess": 9489, "luther": 9490, "lining": 9491, "runway": 9492, "zoo@@": 9493, "ough": 9494, "defender": 9495, "hub": 9496, "franco": 9497, "aly@@": 9498, "batt@@": 9499, "bust": 9500, "criminals": 9501, "ía": 9502, "good@@": 9503, "moon@@": 9504, "sci@@": 9505, "croatia": 9506, "foolish": 9507, "lawsuit": 9508, "panels": 9509, "essex": 9510, "testament": 9511, "bulgarian": 9512, "reactions": 9513, "interpreted": 9514, "biting": 9515, "squir@@": 9516, "columbus": 9517, "arguments": 9518, "grasp": 9519, "chapters": 9520, "ith@@": 9521, "locker": 9522, "elderly": 9523, "hometown": 9524, "sage": 9525, "flee": 9526, "embarrassing": 9527, "rant": 9528, "genesis": 9529, "pathetic": 9530, "confession": 9531, "exhibitions": 9532, "disk": 9533, "shuttle": 9534, "eus": 9535, "ernest": 9536, "sinking": 9537, "vil@@": 9538, "mitch": 9539, "kh": 9540, "cartoon": 9541, "abe": 9542, "itch": 9543, "mob": 9544, "nem@@": 9545, "visitor": 9546, "hamlet": 9547, "adol@@": 9548, "thu@@": 9549, "rack": 9550, "hoo": 9551, "metre": 9552, "envelope": 9553, "flam@@": 9554, "interchange": 9555, "scra@@": 9556, "rus": 9557, "surprising": 9558, "eur": 9559, "poker": 9560, "dumped": 9561, "altogether": 9562, "meredith": 9563, "een": 9564, "rup@@": 9565, "suspicion": 9566, "350": 9567, "migration": 9568, "varies": 9569, "dark@@": 9570, "libraries": 9571, "oz": 9572, "stabil@@": 9573, "halls": 9574, "glancing": 9575, "sworn": 9576, "butterfly": 9577, "temper": 9578, "conceived": 9579, "rifles": 9580, "bler": 9581, "awa": 9582, "disturbed": 9583, "palestinian": 9584, "instructed": 9585, "violin": 9586, "ws": 9587, "shri@@": 9588, "ashes": 9589, "joins": 9590, "tv@@": 9591, "methodist": 9592, "quoted": 9593, "lf": 9594, "echoed": 9595, "brady": 9596, "roster": 9597, "inform": 9598, "solely": 9599, "gambling": 9600, "uncertain": 9601, "triangle": 9602, "audiences": 9603, "findings": 9604, "artwork": 9605, "bounded": 9606, "jar": 9607, "mut@@": 9608, "pose": 9609, "associations": 9610, "lone": 9611, "sd": 9612, "responsibilities": 9613, "pow@@": 9614, "oath": 9615, "hatred": 9616, "crucial": 9617, "itu@@": 9618, "winston": 9619, "thermal": 9620, "expelled": 9621, "washing": 9622, "motherfucker": 9623, "clara": 9624, "bart": 9625, "wasted": 9626, "_": 9627, "sox": 9628, "ading": 9629, "ete": 9630, "raven": 9631, "dimension": 9632, "brid@@": 9633, "manila": 9634, "grammy": 9635, "hydrogen": 9636, "dew@@": 9637, "excellence": 9638, "appl@@": 9639, "compact": 9640, "patron": 9641, "aro": 9642, "sham": 9643, "venues": 9644, "sensed": 9645, "mickey": 9646, "commentary": 9647, "ests": 9648, "considerably": 9649, "brit@@": 9650, "rav@@": 9651, "literacy": 9652, "gil": 9653, "dagger": 9654, "danced": 9655, "holdings": 9656, "dded": 9657, "eness": 9658, "operators": 9659, "nas": 9660, "ental": 9661, "skilled": 9662, "pru@@": 9663, "choosing": 9664, "smart@@": 9665, "touchdowns": 9666, "wester@@": 9667, "ancestors": 9668, "és": 9669, "damp": 9670, "nineteenth": 9671, "hawks": 9672, "nis": 9673, "just@@": 9674, "administrator": 9675, "polite": 9676, "lad": 9677, "schu@@": 9678, "são": 9679, "twentieth": 9680, "hooked": 9681, "tic@@": 9682, "kau@@": 9683, "reliable": 9684, "faithful": 9685, "strongest": 9686, "citizenship": 9687, "dit@@": 9688, "poles": 9689, "populated": 9690, "tunnels": 9691, "unding": 9692, "surprisingly": 9693, "deaf": 9694, "banner": 9695, "monks": 9696, "segments": 9697, "tric@@": 9698, "headquartered": 9699, "ordained": 9700, "hamburg": 9701, "withdraw": 9702, "homeless": 9703, "ark": 9704, "1857": 9705, "maz@@": 9706, "export": 9707, "woo": 9708, "stag@@": 9709, "guer@@": 9710, "wu@@": 9711, "criteria": 9712, "stering": 9713, "sustainable": 9714, "sucks": 9715, "eugene": 9716, "henri": 9717, "rot": 9718, "organize": 9719, "ohh": 9720, "intentions": 9721, "sleeve": 9722, "poorly": 9723, "ured": 9724, "detected": 9725, "luc@@": 9726, "freely": 9727, "rim": 9728, "limbs": 9729, "eh@@": 9730, "scales": 9731, "anonymous": 9732, "harmony": 9733, "whip": 9734, "buttons": 9735, "argentine": 9736, "assassination": 9737, "pr": 9738, "heavyweight": 9739, "armstrong": 9740, "lana": 9741, "prospect": 9742, "collegiate": 9743, "е@@": 9744, "inland": 9745, "nur@@": 9746, "quo@@": 9747, "slapped": 9748, "ices": 9749, "consumed": 9750, "eventual": 9751, "haired": 9752, "fic@@": 9753, "superintendent": 9754, "swords": 9755, "treating": 9756, "adds": 9757, "doctorate": 9758, "1859": 9759, "santiago": 9760, "estimate": 9761, "enhanced": 9762, "learns": 9763, "batteries": 9764, "bulgaria": 9765, "strangers": 9766, "overnight": 9767, "accounting": 9768, "needing": 9769, "flooded": 9770, "darker": 9771, "vand@@": 9772, "penn": 9773, "mus@@": 9774, "ration": 9775, "tick@@": 9776, "evaluation": 9777, "gha@@": 9778, "shir@@": 9779, "acquire": 9780, "try@@": 9781, "musi@@": 9782, "risks": 9783, "yugoslavia": 9784, "courtyard": 9785, "staged": 9786, "modest": 9787, "aver@@": 9788, "coincidence": 9789, "northeastern": 9790, "gram@@": 9791, "copyright": 9792, "bot@@": 9793, "rita": 9794, "curtain": 9795, "swa@@": 9796, "blocking": 9797, "frankie": 9798, "jessie": 9799, "jewelry": 9800, "petition": 9801, "shells": 9802, "moses": 9803, "ested": 9804, "yell": 9805, "ão": 9806, "cord": 9807, "chang": 9808, "silver@@": 9809, "ê@@": 9810, "sap@@": 9811, "hugo": 9812, "freshman": 9813, "gu": 9814, "maintains": 9815, "bomber": 9816, "acceptance": 9817, "compl@@": 9818, "zh@@": 9819, "allan": 9820, "packing": 9821, "kö@@": 9822, "damon": 9823, "uma": 9824, "predicted": 9825, "upright": 9826, "hiv": 9827, "cardinals": 9828, "patri@@": 9829, "varying": 9830, "wallet": 9831, "col": 9832, "sco": 9833, "accepting": 9834, "blog": 9835, "flag@@": 9836, "dynamics": 9837, "ethics": 9838, "eck": 9839, "authored": 9840, "enzyme": 9841, "necklace": 9842, "chic@@": 9843, "shattered": 9844, "uri@@": 9845, "colleague": 9846, "hardy": 9847, "disabled": 9848, "rew@@": 9849, "kurt": 9850, "arabia": 9851, "openly": 9852, "epi@@": 9853, "jim@@": 9854, "faction": 9855, "burke": 9856, "duration": 9857, "barn@@": 9858, "examine": 9859, "publish": 9860, "dead@@": 9861, "console": 9862, "indies": 9863, "solomon": 9864, "andrews": 9865, "polar": 9866, "anytime": 9867, "alistic": 9868, "bark": 9869, "alter@@": 9870, "lens": 9871, "glenn": 9872, "inquiry": 9873, "chron@@": 9874, "rna": 9875, "elephant": 9876, "glu@@": 9877, "eternal": 9878, "kov@@": 9879, "adjusted": 9880, "lung": 9881, "terrorism": 9882, "leon@@": 9883, "panama": 9884, "н@@": 9885, "sonic": 9886, "foo@@": 9887, "jets": 9888, "onian": 9889, "theoretical": 9890, "challenging": 9891, "resolve": 9892, "cuban": 9893, "sauce": 9894, "frog": 9895, "orn": 9896, "if@@": 9897, "cluster": 9898, "trend": 9899, "aggregate": 9900, "beans": 9901, "shrine": 9902, "endless": 9903, "hend@@": 9904, "sunset": 9905, "hp": 9906, "fatal": 9907, "anime": 9908, "earth@@": 9909, "allison": 9910, "directing": 9911, "hd": 9912, "relay": 9913, "mild": 9914, "ggs": 9915, "volleyball": 9916, "angelo": 9917, "absent": 9918, "conferences": 9919, "heath": 9920, "realised": 9921, "borrowed": 9922, "bacon": 9923, "nora": 9924, "conflicts": 9925, "too@@": 9926, "marrying": 9927, "motors": 9928, "quad@@": 9929, "ows": 9930, "brah@@": 9931, "sweep": 9932, "reconnaissance": 9933, "retire": 9934, "caring": 9935, "blades": 9936, "underwent": 9937, "retiring": 9938, "abolished": 9939, "flat@@": 9940, "overwhelming": 9941, "ug@@": 9942, "kel": 9943, "plum@@": 9944, "buzz": 9945, "prague": 9946, "auction": 9947, "app": 9948, "complaints": 9949, "ema": 9950, "investigations": 9951, "mum@@": 9952, "heating": 9953, "probability": 9954, "vari@@": 9955, "committees": 9956, "patho@@": 9957, "episcopal": 9958, "immune": 9959, "oly@@": 9960, "kerala": 9961, "nationals": 9962, "gul@@": 9963, "samantha": 9964, "nationally": 9965, "stabbed": 9966, "biography": 9967, "stop@@": 9968, "dialect": 9969, "doc@@": 9970, "maiden": 9971, "freed": 9972, "hut": 9973, "unbelievable": 9974, "somerset": 9975, "tc": 9976, "wheat": 9977, "oakland": 9978, "panties": 9979, "extinct": 9980, "tti": 9981, "aa@@": 9982, "gwen": 9983, "mineral": 9984, "lei@@": 9985, "sneak": 9986, "quin@@": 9987, "vul@@": 9988, "stead": 9989, "bb": 9990, "bicycle": 9991, "vicinity": 9992, "trac@@": 9993, "bowed": 9994, "sided": 9995, "graduates": 9996, "automobile": 9997, "theological": 9998, "download": 9999, "troubled": 10000, "ronald": 10001, "myth": 10002, "orientation": 10003, "powell": 10004, "freezing": 10005, "playstation": 10006, "sak@@": 10007, "wears": 10008, "nun@@": 10009, "southwestern": 10010, "punched": 10011, "needle": 10012, "subtle": 10013, "pling": 10014, "dimensions": 10015, "repairs": 10016, "locking": 10017, "lyn": 10018, "loser": 10019, "sharon": 10020, "trauma": 10021, "honours": 10022, "etti": 10023, "picks": 10024, "supposedly": 10025, "joy@@": 10026, "underwear": 10027, "thi": 10028, "reservation": 10029, "ape": 10030, "jamaica": 10031, "aliens": 10032, "driveway": 10033, "scouts": 10034, "interactive": 10035, "jules": 10036, "spray": 10037, "slipping": 10038, "chor@@": 10039, "urs": 10040, "milwaukee": 10041, "iter@@": 10042, "wade": 10043, "acre": 10044, "cooked": 10045, "tails": 10046, "circum@@": 10047, "storyline": 10048, "calculated": 10049, "verses": 10050, "atop": 10051, "provision": 10052, "stockholm": 10053, "anth@@": 10054, "excess": 10055, "reynolds": 10056, "1854": 10057, "goat": 10058, "journals": 10059, "legends": 10060, "brands": 10061, "auckland": 10062, "borne": 10063, "tipped": 10064, "check@@": 10065, "archer": 10066, "angles": 10067, "complaint": 10068, "summ@@": 10069, "skip": 10070, "apartments": 10071, "sse": 10072, "optical": 10073, "storms": 10074, "−": 10075, "liner": 10076, "exchanged": 10077, "helpful": 10078, "mistaken": 10079, "suited": 10080, "escal@@": 10081, "kenneth": 10082, "anton": 10083, "granite": 10084, "lecturer": 10085, "zones": 10086, "demonstration": 10087, "cowboy": 10088, "chlor@@": 10089, "torpedo": 10090, "strained": 10091, "complained": 10092, "deceased": 10093, "interviewed": 10094, "arose": 10095, "flora": 10096, "var": 10097, "wei": 10098, "convenient": 10099, "sanc@@": 10100, "cker": 10101, "revolt": 10102, "payments": 10103, "pianist": 10104, "shoots": 10105, "viii": 10106, "franz": 10107, "whitney": 10108, "straightened": 10109, "surname": 10110, "crews": 10111, "drill": 10112, "eliminate": 10113, "tugged": 10114, "vali@@": 10115, "ares": 10116, "condemned": 10117, "sl": 10118, "yas@@": 10119, "chen@@": 10120, "firms": 10121, "dorothy": 10122, "see@@": 10123, "blamed": 10124, "kumar": 10125, "aerial": 10126, "shop@@": 10127, "caesar": 10128, "amen": 10129, "sick@@": 10130, "innovative": 10131, "đ@@": 10132, "mat": 10133, "ś@@": 10134, "performers": 10135, "ña": 10136, "zhang": 10137, "1855": 10138, "expense": 10139, "proximity": 10140, "neighbouring": 10141, "wasting": 10142, "allegations": 10143, "fest": 10144, "anga": 10145, "ensis": 10146, "pirate": 10147, "screams": 10148, "daylight": 10149, "yourselves": 10150, "withdrawn": 10151, "has@@": 10152, "observations": 10153, "deciding": 10154, "icks": 10155, "estimates": 10156, "fitz@@": 10157, "atta": 10158, "premises": 10159, "dragging": 10160, "subway": 10161, "idol": 10162, "hosting": 10163, "pepper": 10164, "mmed": 10165, "edgar": 10166, "lom@@": 10167, "rier": 10168, "pes@@": 10169, "crum@@": 10170, "iris": 10171, "chro@@": 10172, "locals": 10173, "fo": 10174, "alli@@": 10175, "foul": 10176, "haunted": 10177, "capabilities": 10178, "daw@@": 10179, "kle@@": 10180, "contacted": 10181, "trails": 10182, "best@@": 10183, "ousness": 10184, "pand@@": 10185, "burger": 10186, "crane": 10187, "suspects": 10188, "blair": 10189, "capitol": 10190, "magnificent": 10191, "tai@@": 10192, "kn@@": 10193, "thal": 10194, "destroyer": 10195, "swore": 10196, "civilization": 10197, "finale": 10198, "isabella": 10199, "heel": 10200, "ito": 10201, "click": 10202, "mack@@": 10203, "zon": 10204, "newport": 10205, "tubes": 10206, "bugs": 10207, "anglican": 10208, "menu": 10209, "yöu": 10210, "hurst": 10211, "laptop": 10212, "www": 10213, "opposing": 10214, "1858": 10215, "superman": 10216, "bacteria": 10217, "breasts": 10218, "smallest": 10219, "buenos": 10220, "cafe": 10221, "licked": 10222, "utility": 10223, "compositions": 10224, "trans": 10225, "vault": 10226, "icker": 10227, "manufacture": 10228, "nal": 10229, "whispers": 10230, "plague": 10231, "xton": 10232, "uk@@": 10233, "sticking": 10234, "solving": 10235, "oval": 10236, "hatch": 10237, "brunswick": 10238, "ols": 10239, "nurses": 10240, "hostage": 10241, "worries": 10242, "roll@@": 10243, "seri@@": 10244, "anus": 10245, "magnus": 10246, "collector": 10247, "oh@@": 10248, "canton": 10249, "treasury": 10250, "rho@@": 10251, "inscription": 10252, "lineup": 10253, "slap": 10254, "revi@@": 10255, "expectations": 10256, "scha@@": 10257, "canon": 10258, "conscience": 10259, "princeton": 10260, "stubborn": 10261, "homeland": 10262, "loses": 10263, "р@@": 10264, "locate": 10265, "geographic": 10266, "peered": 10267, "governmental": 10268, "invaded": 10269, "serv@@": 10270, "mentor": 10271, "niece": 10272, "madness": 10273, "meg": 10274, "plateau": 10275, "correctly": 10276, "mechanics": 10277, "bility": 10278, "kos": 10279, "mentions": 10280, "aba": 10281, "crack@@": 10282, "slot": 10283, "upgraded": 10284, "opinions": 10285, "ör@@": 10286, "hyde": 10287, "eleanor": 10288, "airfield": 10289, "frown": 10290, "conjunction": 10291, "punished": 10292, "tos": 10293, "perth": 10294, "elegant": 10295, "proclaimed": 10296, "nation@@": 10297, "measuring": 10298, "carlo": 10299, "westminster": 10300, "rotation": 10301, "dancers": 10302, "rainfall": 10303, "ringing": 10304, "politically": 10305, "phillip": 10306, "memphis": 10307, "shapes": 10308, "synthesis": 10309, "ranger": 10310, "stall": 10311, "edmund": 10312, "catches": 10313, "essay": 10314, "minimal": 10315, "gibson": 10316, "incidents": 10317, "developers": 10318, "helena": 10319, "seventy": 10320, "luci@@": 10321, "neal": 10322, "conviction": 10323, "merchants": 10324, "update": 10325, "evident": 10326, "checks": 10327, "uniforms": 10328, "empress": 10329, "liquor": 10330, "layout": 10331, "suff@@": 10332, "sex@@": 10333, "zers": 10334, "nicknamed": 10335, "yanked": 10336, "1856": 10337, "zombie": 10338, "venezuela": 10339, "nepal": 10340, "abu@@": 10341, "reminds": 10342, "behave": 10343, "glare": 10344, "mara": 10345, "gloria": 10346, "competitors": 10347, "algorithm": 10348, "discontinued": 10349, "bail": 10350, "bassist": 10351, "configuration": 10352, "cheer": 10353, "inducted": 10354, "positioned": 10355, "rip@@": 10356, "brad@@": 10357, "keyboard": 10358, "cheating": 10359, "eting": 10360, "occurring": 10361, "nin@@": 10362, "sunk": 10363, "ected": 10364, "sore": 10365, "side@@": 10366, "eks": 10367, "reas@@": 10368, "enterprises": 10369, "onally": 10370, "flown": 10371, "ima": 10372, "capita": 10373, "likewise": 10374, "drawer": 10375, "saxon": 10376, "psychic": 10377, "yi@@": 10378, "iron@@": 10379, "missiles": 10380, "henderson": 10381, "thou": 10382, "trim": 10383, "tal": 10384, "decree": 10385, "durham": 10386, "sai": 10387, "div@@": 10388, "deposits": 10389, "annoyed": 10390, "ris@@": 10391, "rainbow": 10392, "crow": 10393, "introducing": 10394, "1851": 10395, "ppy": 10396, "explored": 10397, "fraser": 10398, "oid": 10399, "dreamed": 10400, "fis@@": 10401, "icated": 10402, "mmer": 10403, "decrease": 10404, "rica": 10405, "spir@@": 10406, "stretching": 10407, "geneva": 10408, "horizontal": 10409, "hissed": 10410, "balcony": 10411, "cone": 10412, "boxer": 10413, "cler@@": 10414, "milton": 10415, "inspection": 10416, "tracked": 10417, "vacant": 10418, "homer": 10419, "sympathy": 10420, "watches": 10421, "stin": 10422, "asa": 10423, "uprising": 10424, "realistic": 10425, "sign@@": 10426, "codice_@@": 10427, "astro@@": 10428, "terribly": 10429, "listing": 10430, "limestone": 10431, "aman": 10432, "ein@@": 10433, "bats": 10434, "veness": 10435, "tones": 10436, "fits": 10437, "thee": 10438, "brun@@": 10439, "grande": 10440, "360": 10441, "blue@@": 10442, "nicol@@": 10443, "tire": 10444, "calvin": 10445, "herald": 10446, "barracks": 10447, "ead": 10448, "passport": 10449, "philosophical": 10450, "thor": 10451, "highness": 10452, "megan": 10453, "afl": 10454, "160": 10455, "accu@@": 10456, "developer": 10457, "encing": 10458, "shepherd": 10459, "johann": 10460, "caves": 10461, "comprising": 10462, "wilderness": 10463, "toxic": 10464, "governed": 10465, "cope": 10466, "philosopher": 10467, "pod": 10468, "marina": 10469, "refusing": 10470, "fond": 10471, "cir@@": 10472, "convert": 10473, "125": 10474, "steadily": 10475, "coward": 10476, "goose": 10477, "adopt": 10478, "surfaces": 10479, "dash": 10480, "apping": 10481, "coke": 10482, "kru@@": 10483, "rendered": 10484, "warming": 10485, "troubles": 10486, "stance": 10487, "referendum": 10488, "tackle": 10489, "voltage": 10490, "kell@@": 10491, "bian": 10492, "doyle": 10493, "curves": 10494, "sizes": 10495, "onwards": 10496, "hindi": 10497, "idaho": 10498, "velocity": 10499, "poets": 10500, "crest": 10501, "kilometres": 10502, "kitty": 10503, "realizes": 10504, "staircase": 10505, "davies": 10506, "gren@@": 10507, "countryside": 10508, "hampton": 10509, "encies": 10510, "pinned": 10511, "sol": 10512, "drained": 10513, "shima": 10514, "laundry": 10515, "propaganda": 10516, "elliot": 10517, "hab@@": 10518, "mock": 10519, "rite": 10520, "diane": 10521, "savings": 10522, "interference": 10523, "elimination": 10524, "ais@@": 10525, "mae": 10526, "bam@@": 10527, "profits": 10528, "integral": 10529, "wad@@": 10530, "bubble": 10531, "chol@@": 10532, "georgian": 10533, "observer": 10534, "sheer": 10535, "vent": 10536, "indonesian": 10537, "separately": 10538, "portraits": 10539, "vegetables": 10540, "aur@@": 10541, "qualities": 10542, "expenses": 10543, "pays": 10544, "airing": 10545, "prefecture": 10546, "wool@@": 10547, "gabe": 10548, "turn@@": 10549, "holidays": 10550, "manga": 10551, "ms@@": 10552, "det@@": 10553, "wilhelm": 10554, "eous": 10555, "bbing": 10556, "activists": 10557, "emen": 10558, "lak@@": 10559, "upward": 10560, "tortured": 10561, "sely": 10562, "senators": 10563, "proceedings": 10564, "unk": 10565, "eni@@": 10566, "romans": 10567, "planets": 10568, "pu": 10569, "bbed": 10570, "beat@@": 10571, "jonas": 10572, "bald": 10573, "plea@@": 10574, "observe": 10575, "ind@@": 10576, "demonstrate": 10577, "spa": 10578, "discussions": 10579, "nets": 10580, "caps": 10581, "fletcher": 10582, "seating": 10583, "tsu@@": 10584, "java": 10585, "embarked": 10586, "indianapolis": 10587, "vey": 10588, "evangel@@": 10589, "carrie": 10590, "compromise": 10591, "amazon": 10592, "bonnie": 10593, "oper@@": 10594, "messed": 10595, "sunny": 10596, "valve": 10597, "lighthouse": 10598, "ass@@": 10599, "easter": 10600, "cing": 10601, "hector": 10602, "compatible": 10603, "waking": 10604, "coordinates": 10605, "1840": 10606, "gerald": 10607, "barnes": 10608, "know@@": 10609, "ety": 10610, "mess@@": 10611, "nato": 10612, "cav@@": 10613, "favorable": 10614, "rhode": 10615, "invested": 10616, "tian": 10617, "hec@@": 10618, "ler@@": 10619, "workshops": 10620, "balanced": 10621, "rivalry": 10622, "ologist": 10623, "tari@@": 10624, "bern@@": 10625, "endemic": 10626, "legitimate": 10627, "eville": 10628, "throws": 10629, "withdrawal": 10630, "vladimir": 10631, "wireless": 10632, "ddle": 10633, "par": 10634, "interim": 10635, "worrying": 10636, "invention": 10637, "maxim@@": 10638, "eur@@": 10639, "thers": 10640, "tak@@": 10641, "zar": 10642, "sell@@": 10643, "bros": 10644, "infant": 10645, "essence": 10646, "petty": 10647, "gom@@": 10648, "specimens": 10649, "sponsor": 10650, "marching": 10651, "theft": 10652, "roller": 10653, "repl@@": 10654, "gazed": 10655, "vegetation": 10656, "whiskey": 10657, "brutal": 10658, "gö@@": 10659, "hack@@": 10660, "machinery": 10661, "xavier": 10662, "monte": 10663, "pam": 10664, "approve": 10665, "vinyl": 10666, "gaming": 10667, "rest@@": 10668, "agenda": 10669, "publicity": 10670, "starter": 10671, "eth": 10672, "telegraph": 10673, "1852": 10674, "oner": 10675, "scotia": 10676, "itated": 10677, "zach": 10678, "richards": 10679, "sadness": 10680, "trustees": 10681, "140": 10682, "screenplay": 10683, "atively": 10684, "lengths": 10685, "triumph": 10686, "jung": 10687, "chronicle": 10688, "chop@@": 10689, "skating": 10690, "annoying": 10691, "fru@@": 10692, "friedrich": 10693, "instinct": 10694, "brien": 10695, "proc@@": 10696, "enrollment": 10697, "mixing": 10698, "frames": 10699, "rub": 10700, "obe@@": 10701, "safer": 10702, "anders": 10703, "grou@@": 10704, "giovanni": 10705, "troop": 10706, "brussels": 10707, "icul@@": 10708, "surrendered": 10709, "prosecution": 10710, "neo@@": 10711, "amo": 10712, "mercedes": 10713, "proposals": 10714, "trailed": 10715, "divi@@": 10716, "naming": 10717, "alumni": 10718, "leap": 10719, "convent": 10720, "sussex": 10721, "waving": 10722, "mim@@": 10723, "alt@@": 10724, "begged": 10725, "bastards": 10726, "organizing": 10727, "zan@@": 10728, "lancashire": 10729, "equality": 10730, "blacks": 10731, "ain@@": 10732, "theorem": 10733, "som": 10734, "105": 10735, "cardi@@": 10736, "françois": 10737, "с@@": 10738, "pac": 10739, "ghton": 10740, "max@@": 10741, "compounds": 10742, "fragments": 10743, "mak@@": 10744, "supporter": 10745, "bucket": 10746, "presumably": 10747, "swinging": 10748, "arctic": 10749, "investigated": 10750, "copenhagen": 10751, "cus": 10752, "conquered": 10753, "bis": 10754, "snorted": 10755, "anticipation": 10756, "twi@@": 10757, "performer": 10758, "publishers": 10759, "greeted": 10760, "primitive": 10761, "teasing": 10762, "icate": 10763, "grim": 10764, "nominations": 10765, "diner": 10766, "diver@@": 10767, "acclaimed": 10768, "sper@@": 10769, "scal@@": 10770, "perception": 10771, "posed": 10772, "particle": 10773, "sucking": 10774, "caution": 10775, "cigarettes": 10776, "feathers": 10777, "rington": 10778, "drain": 10779, "transmitter": 10780, "character@@": 10781, "light@@": 10782, "bean": 10783, "ortho@@": 10784, "abstract": 10785, "fashioned": 10786, "artifacts": 10787, "vag@@": 10788, "emi": 10789, "ple@@": 10790, "practicing": 10791, "sof@@": 10792, "lesbian": 10793, "stoc@@": 10794, "stew@@": 10795, "clas@@": 10796, "punjab": 10797, "shawn": 10798, "affection": 10799, "§": 10800, "commands": 10801, "turing": 10802, "blows": 10803, "lacked": 10804, "lid": 10805, "abs": 10806, "liv@@": 10807, "shiny": 10808, "coun@@": 10809, "blink": 10810, "matt@@": 10811, "cruiser": 10812, "requests": 10813, "millennium": 10814, "abortion": 10815, "nash": 10816, "watch@@": 10817, "varieties": 10818, "proj@@": 10819, "sv@@": 10820, "viewing": 10821, "sophisticated": 10822, "whe@@": 10823, "explosive": 10824, "guts": 10825, "tended": 10826, "sant@@": 10827, "emmy": 10828, "unclear": 10829, "clyde": 10830, "worm": 10831, "mcdonald": 10832, "composers": 10833, "1853": 10834, "welcomed": 10835, "savannah": 10836, "airborne": 10837, "shooter": 10838, "sid": 10839, "ferdinand": 10840, "diploma": 10841, "stella": 10842, "delegates": 10843, "managers": 10844, "imprisonment": 10845, "courthouse": 10846, "plug": 10847, "erik": 10848, "tasted": 10849, "brows": 10850, "republicans": 10851, "reluctantly": 10852, "tch": 10853, "ika": 10854, "delu@@": 10855, "dove": 10856, "supernatural": 10857, "minded": 10858, "anticipated": 10859, "α@@": 10860, "prosecutor": 10861, "freeway": 10862, "wickets": 10863, "motive": 10864, "hus@@": 10865, "hayes": 10866, "grinning": 10867, "consulting": 10868, "itt": 10869, "organs": 10870, "ully": 10871, "vera": 10872, "rented": 10873, "chu": 10874, "helpless": 10875, "crowned": 10876, "swell": 10877, "mint": 10878, "meals": 10879, "chev@@": 10880, "fem@@": 10881, "whipped": 10882, "environments": 10883, "clim@@": 10884, "shields": 10885, "slender": 10886, "euro": 10887, "rod@@": 10888, "jal@@": 10889, "tampa": 10890, "deposit": 10891, "strategies": 10892, "alter": 10893, "potter": 10894, "ronnie": 10895, "doubled": 10896, "yen": 10897, "sketch": 10898, "divide": 10899, "observatory": 10900, "folding": 10901, "1849": 10902, "headache": 10903, "dice": 10904, "laps": 10905, "sé@@": 10906, "marion": 10907, "reporters": 10908, "spark": 10909, "deserves": 10910, "opti@@": 10911, "achi": 10912, "ophy@@": 10913, "biblical": 10914, "aca": 10915, "refu@@": 10916, "sequences": 10917, "spelled": 10918, "nintendo": 10919, "underlying": 10920, "ë@@": 10921, "shu": 10922, "yield": 10923, "benny": 10924, "assassin": 10925, "cement": 10926, "knot": 10927, "meyer": 10928, "possibilities": 10929, "accuracy": 10930, "nev@@": 10931, "judy": 10932, "puzzle": 10933, "bombers": 10934, "ough@@": 10935, "white@@": 10936, "materi@@": 10937, "twitter": 10938, "tram": 10939, "computing": 10940, "gies": 10941, "christine": 10942, "insist": 10943, "stadt": 10944, "wen": 10945, "av": 10946, "resc@@": 10947, "bry@@": 10948, "unaware": 10949, "reds": 10950, "bees": 10951, "investments": 10952, "saw@@": 10953, "span@@": 10954, "pupil": 10955, "manife@@": 10956, "conversations": 10957, "piper": 10958, "ays": 10959, "exclaimed": 10960, "amused": 10961, "aceae": 10962, "healthcare": 10963, "remarked": 10964, "slim": 10965, "fangs": 10966, "cain": 10967, "ru": 10968, "voc@@": 10969, "scars": 10970, "ews": 10971, "fernando": 10972, "amelia": 10973, "museums": 10974, "lings": 10975, "endangered": 10976, "toss": 10977, "distinguish": 10978, "seller": 10979, "rea": 10980, "constitu@@": 10981, "rend@@": 10982, "lateral": 10983, "brighton": 10984, "geographical": 10985, "wai@@": 10986, "morrison": 10987, "kingston": 10988, "thir@@": 10989, "dictionary": 10990, "serie": 10991, "downs": 10992, "molecules": 10993, "detect": 10994, "sly": 10995, "ng@@": 10996, "ibm": 10997, "cans": 10998, "transform": 10999, "achievements": 11000, "bé@@": 11001, "iss": 11002, "battalions": 11003, "cohen": 11004, "strand": 11005, "oblast": 11006, "awa@@": 11007, "slopes": 11008, "kes@@": 11009, "michel": 11010, "http": 11011, "guill@@": 11012, "cancel": 11013, "jenna": 11014, "magnitude": 11015, "trainer": 11016, "harvest": 11017, "snakes": 11018, "armored": 11019, "considers": 11020, "aftermath": 11021, "depend": 11022, "aton": 11023, "bankruptcy": 11024, "ador@@": 11025, "alco@@": 11026, "dim@@": 11027, "doctoral": 11028, "kira": 11029, "lacking": 11030, "supervision": 11031, "appreciated": 11032, "factories": 11033, "rar@@": 11034, "shannon": 11035, "eye@@": 11036, "modeling": 11037, "pension": 11038, "blessing": 11039, "stamp": 11040, "asset": 11041, "loans": 11042, "contracted": 11043, "intel": 11044, "mumbled": 11045, "violation": 11046, "equity": 11047, "moss": 11048, "doo@@": 11049, "fry": 11050, "acks": 11051, "fish@@": 11052, "thread": 11053, "pussy": 11054, "gio": 11055, "richardson": 11056, "flagship": 11057, "velvet": 11058, "dawson": 11059, "gideon": 11060, "dion": 11061, "exercises": 11062, "raped": 11063, "agh": 11064, "disputed": 11065, "drift": 11066, "neighbourhood": 11067, "wrists": 11068, "catholics": 11069, "foundations": 11070, "prayers": 11071, "alis": 11072, "comedian": 11073, "rics": 11074, "consensus": 11075, "vet": 11076, "doubts": 11077, "revived": 11078, "imported": 11079, "cloak": 11080, "judging": 11081, "bloom@@": 11082, "editing": 11083, "celebrating": 11084, "ert": 11085, "pipes": 11086, "thorn": 11087, "wash@@": 11088, "qing": 11089, "entary": 11090, "1847": 11091, "chased": 11092, "infl@@": 11093, "speeds": 11094, "charging": 11095, "drowned": 11096, "integrity": 11097, "bradford": 11098, "socks": 11099, "ii@@": 11100, "stur@@": 11101, "talents": 11102, "momentum": 11103, "proportion": 11104, "heck": 11105, "jen": 11106, "regiments": 11107, "dick@@": 11108, "sali@@": 11109, "wick@@": 11110, "ip": 11111, "ana@@": 11112, "won@@": 11113, "surroundings": 11114, "sailors": 11115, "killers": 11116, "benef@@": 11117, "moder@@": 11118, "immortal": 11119, "employer": 11120, "stressed": 11121, "vacuum": 11122, "prevention": 11123, "starving": 11124, "consistently": 11125, "advancing": 11126, "spells": 11127, "oman": 11128, "reunion": 11129, "debris": 11130, "ario": 11131, "ints": 11132, "dream@@": 11133, "sherman": 11134, "ish@@": 11135, "bic": 11136, "raja": 11137, "unified": 11138, "tery": 11139, "infinite": 11140, "avery": 11141, "pouring": 11142, "hale": 11143, "labels": 11144, "gina": 11145, "convincing": 11146, "ced": 11147, "tural": 11148, "clam@@": 11149, "induced": 11150, "kia": 11151, "ond": 11152, "messenger": 11153, "mali@@": 11154, "paulo": 11155, "presbyterian": 11156, "edly": 11157, "slaughter": 11158, "deployment": 11159, "witches": 11160, "insult": 11161, "kok@@": 11162, "sidewalk": 11163, "lazy": 11164, "protested": 11165, "bothering": 11166, "depressed": 11167, "poses": 11168, "traitor": 11169, "highways": 11170, "valued": 11171, "rovers": 11172, "tub": 11173, "hem": 11174, "ahh": 11175, "diagnosed": 11176, "scanned": 11177, "duchess": 11178, "yak@@": 11179, "yah": 11180, "anya": 11181, "salem": 11182, "asylum": 11183, "specul@@": 11184, "interactions": 11185, "lex@@": 11186, "taller": 11187, "fridge": 11188, "summoned": 11189, "albanian": 11190, "preventing": 11191, "monsieur": 11192, "implement": 11193, "swan": 11194, "heartbeat": 11195, "reagan": 11196, "att": 11197, "1846": 11198, "archive": 11199, "ley@@": 11200, "lea": 11201, "dances": 11202, "consumers": 11203, "ditch": 11204, "scenario": 11205, "hypothesis": 11206, "entally": 11207, "": 11208, "lounge": 11209, "advantages": 11210, "continuously": 11211, "promotional": 11212, "crawl": 11213, "α": 11214, "reluctant": 11215, "villagers": 11216, "zia": 11217, "wrong@@": 11218, "dwarf": 11219, "nu": 11220, "bey": 11221, "rick@@": 11222, "decreased": 11223, "hua": 11224, "xy": 11225, "motel": 11226, "gains": 11227, "itor": 11228, "elliott": 11229, "amaz@@": 11230, "ira@@": 11231, "natur@@": 11232, "tain@@": 11233, "confess": 11234, "interrupt": 11235, "lay@@": 11236, "conf@@": 11237, "wrapping": 11238, "aboriginal": 11239, "organisms": 11240, "cries": 11241, "ij@@": 11242, "cl": 11243, "summers": 11244, "gossip": 11245, "rational": 11246, "wandering": 11247, "alexandria": 11248, "raiders": 11249, "midfielder": 11250, "villain": 11251, "orlando": 11252, "vol": 11253, "differ": 11254, "shifts": 11255, "spelling": 11256, "gestured": 11257, "electron": 11258, "enclosed": 11259, "ories": 11260, "acclaim": 11261, "hail": 11262, "ballot": 11263, "mass@@": 11264, "pass@@": 11265, "coma": 11266, "illusion": 11267, "choked": 11268, "bered": 11269, "bah@@": 11270, "medic@@": 11271, "aisle": 11272, "springfield": 11273, "1812": 11274, "bravo": 11275, "tornado": 11276, "naples": 11277, "pigs": 11278, "sym@@": 11279, "acceptable": 11280, "classi@@": 11281, "scho@@": 11282, "reflecting": 11283, "lil@@": 11284, "surge": 11285, "guessing": 11286, "mandatory": 11287, "dev": 11288, "miners": 11289, "expertise": 11290, "sins": 11291, "wee": 11292, "windsor": 11293, "logi@@": 11294, "conrad": 11295, "iri": 11296, "lang": 11297, "vers@@": 11298, "ign": 11299, "container": 11300, "secular": 11301, "reinforced": 11302, "eng": 11303, "presenting": 11304, "enthusiasm": 11305, "julius": 11306, "wendy": 11307, "swamp": 11308, "burn@@": 11309, "torch": 11310, "encouraging": 11311, "whistle": 11312, "tighter": 11313, "contestants": 11314, "gravel": 11315, "wax": 11316, "sprint": 11317, "rogue": 11318, "lava": 11319, "canvas": 11320, "sexually": 11321, "comman@@": 11322, "plymouth": 11323, "depths": 11324, "albany": 11325, "tapes": 11326, "sorted": 11327, "coffin": 11328, "marl@@": 11329, "sne@@": 11330, "purely": 11331, "rist": 11332, "yankees": 11333, "itch@@": 11334, "mos": 11335, "persuaded": 11336, "delegation": 11337, "gens": 11338, "mina": 11339, "diagnosis": 11340, "demo": 11341, "homework": 11342, "turtle": 11343, "lamb": 11344, "kop@@": 11345, "roar": 11346, "amar@@": 11347, "cardiff": 11348, "eternity": 11349, "salad": 11350, "pill@@": 11351, "accordance": 11352, "jud@@": 11353, "fruits": 11354, "raids": 11355, "compare": 11356, "occupy": 11357, "shotgun": 11358, "agreements": 11359, "scri@@": 11360, "soda": 11361, "stroked": 11362, "fli@@": 11363, "garion": 11364, "gm": 11365, "crimson": 11366, "cousins": 11367, "seeks": 11368, "medication": 11369, "prohibited": 11370, "1800": 11371, "alleg@@": 11372, "zack": 11373, "bio": 11374, "geography": 11375, "pakistani": 11376, "terrace": 11377, "undertaken": 11378, "gasp": 11379, "scorer": 11380, "scoo@@": 11381, "surrey": 11382, "iler": 11383, "deton@@": 11384, "void": 11385, "applying": 11386, "underwater": 11387, "capability": 11388, "licence": 11389, "ryder": 11390, "anu@@": 11391, "sweater": 11392, "bak@@": 11393, "ps@@": 11394, "hears": 11395, "sailor": 11396, "cognitive": 11397, "lick": 11398, "filter": 11399, "audition": 11400, "sop@@": 11401, "nixon": 11402, "warden": 11403, "oka": 11404, "feminist": 11405, "brigadier": 11406, "manners": 11407, "cp": 11408, "jun": 11409, "battlefield": 11410, "accompany": 11411, "linking": 11412, "ave": 11413, "prussian": 11414, "regards": 11415, "nis@@": 11416, "achieving": 11417, "aci@@": 11418, "visions": 11419, "vić": 11420, "quartet": 11421, "glimpse": 11422, "utterly": 11423, "wn": 11424, "modu@@": 11425, "nowadays": 11426, "creepy": 11427, "rulers": 11428, "issa": 11429, "naomi": 11430, "careers": 11431, "placement": 11432, "eighty": 11433, "mare": 11434, "acet@@": 11435, "nodding": 11436, "carpenter": 11437, "chemicals": 11438, "breach": 11439, "bott@@": 11440, "recurring": 11441, "entries": 11442, "judged": 11443, "sati@@": 11444, "tackles": 11445, "mice": 11446, "melted": 11447, "deserted": 11448, "gt": 11449, "mobil@@": 11450, "fitness": 11451, "adel@@": 11452, "chau@@": 11453, "functioning": 11454, "jeffrey": 11455, "thoroughly": 11456, "bruno": 11457, "oph@@": 11458, "tas": 11459, "threshold": 11460, "allu@@": 11461, "cyprus": 11462, "gill": 11463, "lanes": 11464, "exploring": 11465, "filipino": 11466, "jade": 11467, "variants": 11468, "facade": 11469, "proceeds": 11470, "rati@@": 11471, "102": 11472, "guarded": 11473, "atives": 11474, "assumption": 11475, "oria": 11476, "dorf": 11477, "submit": 11478, "picnic": 11479, "dus": 11480, "generals": 11481, "flank": 11482, "ern@@": 11483, "fails": 11484, "dresses": 11485, "supper": 11486, "criticised": 11487, "eph@@": 11488, "bom@@": 11489, "shirley": 11490, "krishna": 11491, "wre@@": 11492, "discre@@": 11493, "rowing": 11494, "genic": 11495, "streaming": 11496, "auxiliary": 11497, "errors": 11498, "hee": 11499, "negotiate": 11500, "ct": 11501, "operative": 11502, "1830": 11503, "touches": 11504, "moonlight": 11505, "volcanic": 11506, "facial": 11507, "trick@@": 11508, "perimeter": 11509, "zel@@": 11510, "adap@@": 11511, "garcia": 11512, "werewolf": 11513, "mona": 11514, "rectangular": 11515, "oney": 11516, "ouch": 11517, "lyon": 11518, "1845": 11519, "ony@@": 11520, "knives": 11521, "canterbury": 11522, "obey": 11523, "accompanying": 11524, "spear": 11525, "terrific": 11526, "viol@@": 11527, "edwin": 11528, "read@@": 11529, "lex": 11530, "lois": 11531, "comb": 11532, "ale@@": 11533, "crawford": 11534, "spur": 11535, "saddle": 11536, "newer": 11537, "novelist": 11538, "tract": 11539, "sberg": 11540, "laurel": 11541, "neill": 11542, "icus": 11543, "dignity": 11544, "polo": 11545, "lancaster": 11546, "revol@@": 11547, "brain@@": 11548, "sers": 11549, "goalkeeper": 11550, "analy@@": 11551, "sr@@": 11552, "iced": 11553, "surgical": 11554, "sity": 11555, "crawled": 11556, "bhu@@": 11557, "churchill": 11558, "shove": 11559, "fiona": 11560, "whoo@@": 11561, "had@@": 11562, "fit@@": 11563, "candles": 11564, "dental": 11565, "cb@@": 11566, "rusty": 11567, "buddha": 11568, "spectacular": 11569, "skies": 11570, "dominic": 11571, "productive": 11572, "technological": 11573, "consul@@": 11574, "gag@@": 11575, "strode": 11576, "indie": 11577, "bosnia": 11578, "distress": 11579, "shipped": 11580, "sterling": 11581, "crow@@": 11582, "crashing": 11583, "pursuing": 11584, "poli@@": 11585, "morocco": 11586, "dest@@": 11587, "recreational": 11588, "ury": 11589, "advances": 11590, "gm@@": 11591, "stein@@": 11592, "mechanisms": 11593, "watts": 11594, "cob@@": 11595, "spac@@": 11596, "param@@": 11597, "beck@@": 11598, "rides": 11599, "conserv@@": 11600, "unincorporated": 11601, "lucien": 11602, "lethal": 11603, "retreated": 11604, "patted": 11605, "performs": 11606, "doo": 11607, "delight": 11608, "unfortunate": 11609, "salmon": 11610, "topo@@": 11611, "armoured": 11612, "combine": 11613, "audrey": 11614, "ceremonies": 11615, "tively": 11616, "lingu@@": 11617, "theodore": 11618, "fortunately": 11619, "750": 11620, "elo@@": 11621, "tearing": 11622, "salon": 11623, "weakened": 11624, "guaranteed": 11625, "handing": 11626, "fingertips": 11627, "tributary": 11628, "ambitious": 11629, "cyclone": 11630, "dea@@": 11631, "oslo": 11632, "moaned": 11633, "ingo": 11634, "maternal": 11635, "bard": 11636, "kidnapping": 11637, "peri@@": 11638, "ribbon": 11639, "alpine": 11640, "filthy": 11641, "wool": 11642, "verbal": 11643, "straw": 11644, "rhine": 11645, "teammate": 11646, "ting@@": 11647, "masses": 11648, "dover": 11649, "vain": 11650, "maxwell": 11651, "manuscripts": 11652, "plasma": 11653, "thanksgiving": 11654, "inclusion": 11655, "fragile": 11656, "roth": 11657, "explorer": 11658, "candle": 11659, "acute": 11660, "halloween": 11661, "spilled": 11662, "charleston": 11663, "innocence": 11664, "naz@@": 11665, "frei@@": 11666, "ordering": 11667, "defendant": 11668, "malta": 11669, "pier@@": 11670, "ów": 11671, "sculptor": 11672, "lemon": 11673, "isabel": 11674, "lik@@": 11675, "tanner": 11676, "pollution": 11677, "heavier": 11678, "ecting": 11679, "cooperative": 11680, "aided": 11681, "bred": 11682, "saskatchewan": 11683, "dwar@@": 11684, "embedded": 11685, "poster": 11686, "honda": 11687, "ves@@": 11688, "gregor": 11689, "wyatt": 11690, "waitress": 11691, "settings": 11692, "definite": 11693, "flan@@": 11694, "essays": 11695, "membrane": 11696, "consolidated": 11697, "other@@": 11698, "anita": 11699, "availability": 11700, "atics": 11701, "qi@@": 11702, "nineteen": 11703, "pari@@": 11704, "tragic": 11705, "carnival": 11706, "spoon": 11707, "farewell": 11708, "bce": 11709, "belfast": 11710, "sharks": 11711, "allocated": 11712, "nik@@": 11713, "pg": 11714, "hopkins": 11715, "cyber@@": 11716, "referee": 11717, "cycling": 11718, "real@@": 11719, "kas": 11720, "dominican": 11721, "skinny": 11722, "0s": 11723, "monuments": 11724, "weighed": 11725, "1500": 11726, "carriers": 11727, "discharge": 11728, "specialty": 11729, "fea@@": 11730, "protagonist": 11731, "speedway": 11732, "chet": 11733, "retro@@": 11734, "kal": 11735, "kang": 11736, "jax": 11737, "mattress": 11738, "axe": 11739, "sandra": 11740, "cookies": 11741, "potatoes": 11742, "slower": 11743, "anism": 11744, "breaths": 11745, "df": 11746, "kul@@": 11747, "clause": 11748, "backpack": 11749, "premi@@": 11750, "haz@@": 11751, "dau@@": 11752, "fossil": 11753, "inning": 11754, "snor@@": 11755, "beg@@": 11756, "ml": 11757, "obsessed": 11758, "atro@@": 11759, "entrepreneur": 11760, "pest": 11761, "statues": 11762, "ables": 11763, "alizing": 11764, "indo": 11765, "inqu@@": 11766, "wyoming": 11767, "notre": 11768, "swiftly": 11769, "τ@@": 11770, "lithuania": 11771, "agnes": 11772, "policeman": 11773, "aidan": 11774, "wagner": 11775, "sovereign": 11776, "addresses": 11777, "kirk@@": 11778, "morton": 11779, "0th": 11780, "reflects": 11781, "raz@@": 11782, "willow": 11783, "iga": 11784, "memor@@": 11785, "tes@@": 11786, "buster": 11787, "dodge": 11788, "robertson": 11789, "ș@@": 11790, "critically": 11791, "successive": 11792, "responses": 11793, "yacht": 11794, "iceland": 11795, "disgust": 11796, "complain": 11797, "detention": 11798, "romeo": 11799, "congo": 11800, "cricketer": 11801, "stephanie": 11802, "variables": 11803, "expressions": 11804, "defl@@": 11805, "agony": 11806, "sire": 11807, "len": 11808, "eb": 11809, "rt@@": 11810, "exhibits": 11811, "specially": 11812, "interfere": 11813, "scripts": 11814, "coloured": 11815, "clip": 11816, "seoul": 11817, "freestyle": 11818, "encounters": 11819, "designers": 11820, "cornwall": 11821, "polit@@": 11822, "coff@@": 11823, "shel@@": 11824, "paperwork": 11825, "retrieve": 11826, "pavilion": 11827, "meh@@": 11828, "pron@@": 11829, "spill": 11830, "remnants": 11831, "flush": 11832, "horns": 11833, "raw@@": 11834, "wage": 11835, "web@@": 11836, "cooling": 11837, "explode": 11838, "emia": 11839, "countess": 11840, "ić": 11841, "104": 11842, "mary@@": 11843, "regained": 11844, "vanessa": 11845, "crater": 11846, "witz": 11847, "punish": 11848, "vable": 11849, "sentences": 11850, "spring@@": 11851, "flushed": 11852, "fol@@": 11853, "genres": 11854, "aly": 11855, "carmen": 11856, "phs": 11857, "renovation": 11858, "exotic": 11859, "duchy": 11860, "lace": 11861, "delighted": 11862, "wyn": 11863, "provider": 11864, "subsi@@": 11865, "coral": 11866, "branded": 11867, "minu@@": 11868, "conce@@": 11869, "resign": 11870, "tiv@@": 11871, "list@@": 11872, "halifax": 11873, "1837": 11874, "ancestry": 11875, "percy": 11876, "hero@@": 11877, "refer@@": 11878, "seas": 11879, "emigrated": 11880, "kill@@": 11881, "excessive": 11882, "chur@@": 11883, "treasurer": 11884, "pyramid": 11885, "ghts": 11886, "cowboys": 11887, "bahn": 11888, "elu@@": 11889, "screening": 11890, "amed": 11891, "cologne": 11892, "damien": 11893, "fellows": 11894, "researcher": 11895, "commercially": 11896, "elvis": 11897, "sectors": 11898, "radio@@": 11899, "sideways": 11900, "bates": 11901, "constituted": 11902, "frankfurt": 11903, "calmly": 11904, "confessed": 11905, "impe@@": 11906, "tte": 11907, "speculation": 11908, "sme@@": 11909, "rer@@": 11910, "frankly": 11911, "switching": 11912, "frank@@": 11913, "exceptions": 11914, "regain": 11915, "sible": 11916, "pep@@": 11917, "boo": 11918, "sour@@": 11919, "zzy": 11920, "robbie": 11921, "sever@@": 11922, "beverly": 11923, "dixon": 11924, "fetch": 11925, "voluntary": 11926, "beatles": 11927, "rigid": 11928, "corrected": 11929, "after@@": 11930, "devi@@": 11931, "lutheran": 11932, "take@@": 11933, "sadly": 11934, "madonna": 11935, "canceled": 11936, "flashing": 11937, "generating": 11938, "eline": 11939, "facilitate": 11940, "mythology": 11941, "prussia": 11942, "sutton": 11943, "inging": 11944, "sonny": 11945, "eman@@": 11946, "dose": 11947, "trafficking": 11948, "praying": 11949, "convenience": 11950, "rom@@": 11951, "tires": 11952, "veronica": 11953, "algebra": 11954, "rochester": 11955, "corporations": 11956, "alexandra": 11957, "nobility": 11958, "yup": 11959, "arcade": 11960, "screens": 11961, "companions": 11962, "ld": 11963, "equi@@": 11964, "dges": 11965, "skir@@": 11966, "manitoba": 11967, "detection": 11968, "sculptures": 11969, "thru@@": 11970, "postal": 11971, "renovated": 11972, "commanders": 11973, "zzo": 11974, "dj@@": 11975, "cease": 11976, "andre": 11977, "ural": 11978, "soaked": 11979, "potato": 11980, "unda": 11981, "nobel": 11982, "abdul": 11983, "berg@@": 11984, "clown": 11985, "teenagers": 11986, "fulness": 11987, "juli@@": 11988, "tam": 11989, "tastes": 11990, "nap": 11991, "walsh": 11992, "revelation": 11993, "alison": 11994, "shrug": 11995, "holt": 11996, "pork": 11997, "elders": 11998, "teased": 11999, "waiter": 12000, "jet@@": 12001, "dium": 12002, "suitcase": 12003, "charitable": 12004, "smashed": 12005, "umbrella": 12006, "virtue": 12007, "sudan": 12008, "berries": 12009, "reunited": 12010, "tations": 12011, "sidney": 12012, "archi@@": 12013, "edi@@": 12014, "nim@@": 12015, "coupled": 12016, "sammy": 12017, "specimen": 12018, "pottery": 12019, "governors": 12020, "objectives": 12021, "cody": 12022, "contr@@": 12023, "councils": 12024, "reversed": 12025, "thom@@": 12026, "dane": 12027, "baldwin": 12028, "omed": 12029, "expan@@": 12030, "rela@@": 12031, "alex@@": 12032, "riots": 12033, "oz@@": 12034, "belgrade": 12035, "disturbing": 12036, "wei@@": 12037, "coul@@": 12038, "longtime": 12039, "oped": 12040, "sil": 12041, "orph@@": 12042, "donations": 12043, "disorders": 12044, "dusty": 12045, "omar": 12046, "upside": 12047, "nh": 12048, "clare": 12049, "ghana": 12050, "rapper": 12051, "laurence": 12052, "monarch": 12053, "smoo@@": 12054, "brook@@": 12055, "augu@@": 12056, "amine": 12057, "immigrant": 12058, "ppe": 12059, "ply": 12060, "inevitable": 12061, "calgary": 12062, "inda": 12063, "carbon@@": 12064, "cum": 12065, "kindergarten": 12066, "grocery": 12067, "feminine": 12068, "relegation": 12069, "infiltr@@": 12070, "finite": 12071, "tical": 12072, "capturing": 12073, "fascinating": 12074, "neighborhoods": 12075, "doubted": 12076, "dod@@": 12077, "alt": 12078, "wesley": 12079, "costumes": 12080, "tendency": 12081, "blend": 12082, "1841": 12083, "provisional": 12084, "thriller": 12085, "delivering": 12086, "livestock": 12087, "vy@@": 12088, "correspondence": 12089, "brushing": 12090, "propose": 12091, "commu@@": 12092, "misery": 12093, "ret": 12094, "regent": 12095, "escaping": 12096, "ood": 12097, "cf": 12098, "gig": 12099, "icity": 12100, "squadrons": 12101, "unsure": 12102, "admired": 12103, "busted": 12104, "matic": 12105, "overtime": 12106, "passionate": 12107, "kry@@": 12108, "1844": 12109, "pounded": 12110, "cci": 12111, "survivor": 12112, "zier": 12113, "buff@@": 12114, "icians": 12115, "newman": 12116, "becky": 12117, "ussr": 12118, "bypass": 12119, "impro@@": 12120, "jenkins": 12121, "cay@@": 12122, "má@@": 12123, "radius": 12124, "103": 12125, "fade": 12126, "preceding": 12127, "hauled": 12128, "editors": 12129, "mour@@": 12130, "jana": 12131, "rand": 12132, "sympathetic": 12133, "wes@@": 12134, "portfolio": 12135, "ahmed": 12136, "boyd": 12137, "ami@@": 12138, "curling": 12139, "grams": 12140, "jude": 12141, "depicting": 12142, "dramatically": 12143, "juvenile": 12144, "asser@@": 12145, "î@@": 12146, "certification": 12147, "classics": 12148, "homicide": 12149, "projected": 12150, "presidents": 12151, "hear@@": 12152, "gameplay": 12153, "aggre@@": 12154, "eing": 12155, "rory": 12156, "industri@@": 12157, "tedly": 12158, "wingspan": 12159, "regulatory": 12160, "yoga": 12161, "whispering": 12162, "hum": 12163, "whale": 12164, "wes": 12165, "mem@@": 12166, "erable": 12167, "greene": 12168, "olds": 12169, "unfair": 12170, "grac@@": 12171, "graphs": 12172, "dex": 12173, "tying": 12174, "phantom": 12175, "frances": 12176, "25th": 12177, "tribune": 12178, "ont@@": 12179, "alma": 12180, "tening": 12181, "synthetic": 12182, "kingdoms": 12183, "airplane": 12184, "thieves": 12185, "ultra": 12186, "mandate": 12187, "timothy": 12188, "yne": 12189, "azerbaijan": 12190, "overwhelmed": 12191, "sies": 12192, "deep@@": 12193, "adequate": 12194, "gmina": 12195, "paved": 12196, "woodland": 12197, "breakdown": 12198, "maple": 12199, "jes@@": 12200, "launching": 12201, "slice": 12202, "arrows": 12203, "exceptional": 12204, "woody": 12205, "twisting": 12206, "aco": 12207, "dden": 12208, "broo@@": 12209, "thames": 12210, "sweeping": 12211, "baroque": 12212, "folds": 12213, "ord": 12214, "rao": 12215, "balloon": 12216, "ander@@": 12217, "presenter": 12218, "tessa": 12219, "aloud": 12220, "rhodes": 12221, "mell@@": 12222, "whites": 12223, "remix": 12224, "manned": 12225, "ordin@@": 12226, "geometry": 12227, "obtaining": 12228, "ved@@": 12229, "mackenzie": 12230, "nc": 12231, "ethical": 12232, "securities": 12233, "heavens": 12234, "gation": 12235, "ago@@": 12236, "boris": 12237, "instruc@@": 12238, "leans": 12239, "zip": 12240, "etic": 12241, "crowds": 12242, "fiber": 12243, "intensive": 12244, "thri@@": 12245, "vig@@": 12246, "pd": 12247, "wages": 12248, "ems": 12249, "lend": 12250, "astr@@": 12251, "acknowledge": 12252, "pleaded": 12253, "pursu@@": 12254, "thorne": 12255, "erg@@": 12256, "vat@@": 12257, "persuade": 12258, "scarlet": 12259, "ames": 12260, "luckily": 12261, "wandered": 12262, "terrorists": 12263, "angie": 12264, "measurement": 12265, "peaks": 12266, "precision": 12267, "rel": 12268, "1836": 12269, "detec@@": 12270, "nazis": 12271, "struggles": 12272, "clergy": 12273, "ral@@": 12274, "armenia": 12275, "debts": 12276, "flexible": 12277, "portsmouth": 12278, "boeing": 12279, "accordingly": 12280, "vicious": 12281, "gifted": 12282, "jealousy": 12283, "dog@@": 12284, "melanie": 12285, "arma@@": 12286, "ire@@": 12287, "cue": 12288, "smu@@": 12289, "person@@": 12290, "confined": 12291, "sey@@": 12292, "builder": 12293, "ks@@": 12294, "jointly": 12295, "1838": 12296, "elect": 12297, "barney": 12298, "1839": 12299, "albania": 12300, "ffle": 12301, "batted": 12302, "skeleton": 12303, "dged": 12304, "john@@": 12305, "test@@": 12306, "daemon": 12307, "ova": 12308, "junk": 12309, "shly": 12310, "threaten": 12311, "ento": 12312, "guru": 12313, "ios": 12314, "nat": 12315, "buddhism": 12316, "istanbul": 12317, "missionaries": 12318, "abi": 12319, "sant": 12320, "forbes": 12321, "nervously": 12322, "fen": 12323, "sum@@": 12324, "neat": 12325, "rebounds": 12326, "jacob@@": 12327, "intru@@": 12328, "rental": 12329, "entities": 12330, "dairy": 12331, "cheat": 12332, "verb": 12333, "smash": 12334, "flags": 12335, "grey@@": 12336, "sang@@": 12337, "equations": 12338, "flowed": 12339, "controller": 12340, "schemes": 12341, "accommodation": 12342, "wong": 12343, "amos": 12344, "someplace": 12345, "eti@@": 12346, "fraction": 12347, "grabs": 12348, "sed@@": 12349, "disguise": 12350, "module": 12351, "450": 12352, "recruit": 12353, "comprised": 12354, "confronted": 12355, "cairo": 12356, "engaging": 12357, "darwin": 12358, "mug": 12359, "accidents": 12360, "clary": 12361, "disbelief": 12362, "swan@@": 12363, "hamm@@": 12364, "vatican": 12365, "enhance": 12366, "dammit": 12367, "bordered": 12368, "enburg": 12369, "booked": 12370, "bait": 12371, "ginger": 12372, "stab": 12373, "unemployment": 12374, "marker": 12375, "news@@": 12376, "swollen": 12377, "donovan": 12378, "lithuanian": 12379, "ashe": 12380, "princes": 12381, "governance": 12382, "ht": 12383, "inaugurated": 12384, "lynch": 12385, "appreciation": 12386, "diplomat": 12387, "sna@@": 12388, "professionally": 12389, "yon": 12390, "wheelchair": 12391, "holo@@": 12392, "davi@@": 12393, "blin@@": 12394, "initiatives": 12395, "mammals": 12396, "brakes": 12397, "olo": 12398, "temp@@": 12399, "tae": 12400, "corrupt": 12401, "stool": 12402, "dep@@": 12403, "indication": 12404, "quantity": 12405, "tends": 12406, "colum@@": 12407, "teaches": 12408, "corp": 12409, "ility": 12410, "visu@@": 12411, "motivated": 12412, "maur@@": 12413, "measurements": 12414, "terminated": 12415, "wrestler": 12416, "brake": 12417, "baronet": 12418, "clou@@": 12419, "corin@@": 12420, "polished": 12421, "1842": 12422, "baby@@": 12423, "camping": 12424, "stoke": 12425, "lindsay": 12426, "cheer@@": 12427, "penis": 12428, "locality": 12429, "beh@@": 12430, "nicolas": 12431, "webb": 12432,
[...]
