#version: 0.2
_ _
_ _</w>
__ n
e n
a r
s t
u n
l l
ar t
en d
e w
u ll
st art
un k
l n
ew ln
ull __</w>
__n ull__</w>
__ end
start __</w>
__ unk
__ start__</w>
__end __</w>
__unk __</w>
ewln __</w>
__n ewln__</w>
t h
@ @</w>
i n
th e</w>
a n
e d</w>
e r
e r</w>
in g</w>
o n
r e
an d</w>
o n</w>
o r
t o</w>
o u
i n</w>
o f</w>
a t
i t
a s</w>
a t</w>
i s</w>
s i
r o
a l
e s</w>
a n</w>
y o
i c
h e</w>
w h
a c
yo u</w>
e l
o r</w>
s t</w>
e n</w>
i t</w>
o m
h a
e a
w as</w>
r i
n o
t i
i l
a l</w>
v e</w>
u r
e c
d i
en c
l i
a m
th at</w>
c h
l o
er e</w>
s h
s e</w>
b e
f or</w>
th e
si l
at i
g h
p l
sil enc
silenc e
silence __</w>
__ silence__</w>
r a
w it
o l
e v
b u
m a
wit h</w>
e m
m e</w>
i r
en t</w>
l y</w>
a b
h is</w>
s e
a y</w>
c om
a s
s u
o w
d e
h i
o o
a g
n e
l e</w>
en t
l e
c on
i s
h er</w>
ou t</w>
s p
k e</w>
a ll
p ro
gh t</w>
b y</w>
s he</w>
on e</w>
c o
f or
al l</w>
m o
ar e</w>
b e</w>
f ro
th is</w>
er s</w>
1 9
ou l
a d
m y</w>
fro m</w>
p o
ati on</w>
e t</w>
th er</w>
u @@</w>
g o
v i
d e</w>
a p
ou r</w>
wh at</w>
bu t</w>
s o</w>
e x
t h</w>
l a
v er
no t</w>
no w</w>
e t
w e</w>
u c
s a
ha ve</w>
oul d</w>
i @@</w>
t er</w>
b o
w or
t r
ha d</w>
t a
e s
t ed</w>
2 0
o p
d s</w>
q u
at e</w>
g u
j u
the y</w>
t o
el l</w>
a u
p re
w ere</w>
t s</w>
it y</w>
n o</w>
c e</w>
on s</w>
d o
e ar
h o
in g
s ed</w>
k ing</w>
r e</w>
s om
hi m</w>
p er
all y</w>
f f
c h</w>
t er
u p</w>
c l
w e
il l</w>
g h</w>
i r</w>
d o</w>
am e</w>
s c
p u
ac k</w>
ti on</w>
an t</w>
th ere</w>
d on</w>
f i
i d</w>
st r
c an</w>
f e
th ing</w>
m e
at ed</w>
m an
d ing</w>
a y
i m
g e</w>
it i
m ar
in e</w>
v er</w>
y our</w>
l ea
g i
k ed</w>
f o
a f
f ir
t ur
d ed</w>
a r</w>
m or
d er</w>
li ke</w>
ic h</w>
ju st</w>
r u
p ar
ow n</w>
un d</w>
s s</w>
k now</w>
er @@</w>
lo o
on g</w>
ab out</w>
w ay</w>
b er</w>
l l</w>
r ou
s o
ic e</w>
p p
ou r
u s</w>
wh o</w>
re c
e st
ar d</w>
s er
e l</w>
t w
i f</w>
wh ich</w>
wh en</w>
k s</w>
w i
d @@</w>
ea r</w>
m an</w>
m in
m u
be en</w>
ar @@</w>
g et</w>
ti me</w>
s on</w>
c i
ev er</w>
m i
ac e</w>
a @@</w>
o ther</w>
f in
an @@</w>
h as</w>
e @@</w>
t ing</w>
y @@</w>
ag e</w>
oo d</w>
v ed</w>
fir st</w>
d n</w>
ar y</w>
w ould</w>
h ere</w>
j o
k @@</w>
the ir</w>
b ec
ri ght</w>
ne w</w>
it s</w>
ol d</w>
d er
s ur
b l
g o</w>
si on</w>
b ack</w>
t @@</w>
g re
f u
b r
th en</w>
n i
mor e</w>
o @@</w>
in to</w>
m ent</w>
w ell</w>
20 0
p e
r y</w>
on al</w>
af ter</w>
20 1
ev er
p or
sa id</w>
e y</w>
u m
tw o</w>
al so</w>
s el
pl e</w>
s ec
ou s</w>
the m</w>
o ver</w>
n ed</w>
i es</w>
f a
e p
cl u
ho w</w>
m on
ent s</w>
d uc
in @@</w>
wh ere</w>
y es</w>
d y</w>
t e
t ra
som e
h ea
a d</w>
d u
al i
enc e</w>
r an
el y</w>
th ou
t y</w>
c u
al @@</w>
v ing</w>
ag a
w ill</w>
g @@</w>
in k</w>
di d</w>
s ch
som e</w>
d ay</w>
c ould</w>
g ra
o c
ab le</w>
com e</w>
t e</w>
p h
com m
or @@</w>
c a
at t
it e</w>
p art
en @@</w>
i c</w>
c ha
co un
a m</w>
il e</w>
f f</w>
h el
c ar
em ber</w>
sh i
on ly</w>
en d</w>
p ri
an y</w>
s @@</w>
at er</w>
in ter
con t
se e</w>
ing s</w>
re e</w>
es s</w>
b i
for m
n ing</w>
d own</w>
g e
go t</w>
p a
be t
an ce</w>
w ant</w>
re @@</w>
b ro
1 8
lo c
s m
s ing</w>
ic al</w>
f e</w>
o h</w>
w a
si de</w>
d ec
on @@</w>
sp ec
or y</w>
for e</w>
ear s</w>
y ing</w>
g ood</w>
th ink</w>
o ff
h u
f t</w>
s h</w>
l @@</w>
ev en</w>
mo st</w>
oo k</w>
en g
c re
p s</w>
p i
n or
si g
th an</w>
l and</w>
v es</w>
go ing</w>
un @@</w>
st u
an g
th rou
com p
pre s
ac h</w>
o w</w>
sel f</w>
un i
s es</w>
oo l</w>
le t</w>
ati ons</w>
be fore</w>
s in
am @@</w>
di dn</w>
i g
ay s</w>
an y
wh y</w>
c ent
w n</w>
y ea
au se</w>
yea h</w>
s y
n a</w>
c or
h ou
ac t
sh ed</w>
b le</w>
k no
0 0</w>
e ll
at es</w>
n ati
f l
t ri
p @@</w>
e i
is h</w>
at @@</w>
g r
it t
po s
it ed</w>
ma de</w>
e p</w>
in clu
p ol
an s</w>
throu gh</w>
o ff</w>
iti on</w>
p r
om e</w>
d re
ta ke</w>
k i
pe o
ic i
ac h
pl ay
h an
g a
f r
peo ple</w>
d ur
il y</w>
b or
b el
in ed</w>
y ears</w>
o k
g en
l an
b er
en ti
19 9
al s</w>
w r
o und</w>
m at
st er</w>
wor k</w>
u m</w>
loo k</w>
l es</w>
ver y</w>
ro @@</w>
s ou
n @@</w>
m s</w>
re s</w>
hea d</w>
on d</w>
to o</w>
bec ause</w>
ar ound</w>
c lo
m is
l ed</w>
ri @@</w>
l ar
b @@</w>
wor l
y s</w>
e st</w>
wh ile</w>
th o
m @@</w>
dur ing</w>
z @@</w>
th ree</w>
t al
man y</w>
the se</w>
f am
ur e</w>
ch ar
w an
ap p
ma ke</w>
r ed</w>
sch ool</w>
ec t</w>
co ll
n ever</w>
or s</w>
am er
t t
some thing</w>
bu il
shi p</w>
at ing</w>
in s</w>
sur e</w>
st ill</w>
ic k</w>
c @@</w>
i a</w>
v @@</w>
worl d</w>
i l</w>
f ri
in d</w>
b a
k e
c ap
b re
e d
s ay</w>
fu l</w>
un der</w>
ma y</w>
be ing</w>
wi th
uc h</w>
ok ay</w>
v o
el @@</w>
w ar
aga in</w>
m uch</w>
b li
c ol
nati onal</w>
c all
f il
ha pp
po in
o m</w>
we en</w>
bet ween</w>
di s
c an
en ed</w>
y ear</w>
g ro
em ent</w>
itt le</w>
th er
ra @@</w>
ne ed</w>
st e
l ittle</w>
fo ll
t ell</w>
ac t</w>
l ater</w>
u e</w>
d ev
b ur
re ally</w>
ver s
ic an</w>
t ea
ever y
su ch</w>
l ong</w>
t on</w>
at h</w>
u sed</w>
c ur
bo dy</w>
h @@</w>
s or
li fe</w>
s k
st s</w>
c our
be g
m il
re ad
a way</w>
pro duc
n er</w>
b as
19 8
i an</w>
hou se</w>
pu bli
bo th</w>
it @@</w>
st @@</w>
o p</w>
er ed</w>
si d
ar t</w>
c ity</w>
in st</w>
aga inst</w>
n ame</w>
in v
thou gh</w>
pl ace</w>
so ci
tur e</w>
it u
es s
ll i
w om
n a
par t</w>
oul dn</w>
s ha
s w
n um
u l
un ti
r @@</w>
z e</w>
st an
g g
la st</w>
sec ond</w>
s ea
ti ons</w>
unti l</w>
t or</w>
ol @@</w>
th an
st or
sh ould</w>
h ear
w on</w>
foll ow
h ome</w>
h ar
i al</w>
ti m
em p
el ec
ic @@</w>
ser v
di rec
e yes</w>
ll @@</w>
b ri
t ook</w>
p e</w>
19 7
h e
st ate</w>
sin ce</w>
di ff
i d
gen er
thou ght</w>
ar e
lo ve</w>
f ace</w>
ni ght</w>
le ft</w>
ti ve</w>
s ame</w>
p as
an other</w>
kno wn</w>
com pl
z ed</w>
w @@</w>
w al
ro om</w>
c er
c r
pl ea
tho se</w>
a ir
in t
in st
ar i
n am
uni vers
rec or
s ing
tr an
ic s</w>
ch il
iti es</w>
on na</w>
m em
ac @@</w>
d r
b ar
ent ly</w>
gi ve</w>
t re
tr y</w>
v en</w>
fam ily</w>
g rou
t ec
s ol
str uc
b ed</w>
ll ed</w>
g ir
mu si
st re
in di
on g
l ine</w>
or t</w>
t ly</w>
call ed</w>
t ow
un der
fo und</w>
d ea
w ays</w>
lo g
i e
f @@</w>
g onna</w>
h ow
h and</w>
hi gh</w>
d d
st ed</w>
go ver
an c
w in
al e</w>
b ab
d a
fa ther</w>
re lea
h ol
il @@</w>
f er
o b
h ey</w>
k es</w>
bor n</w>
tur ned</w>
e ach</w>
19 6
w ar</w>
hel p</w>
bec ame</w>
c ro
f re
p ow
tea m</w>
w at
ex p
read y</w>
ou gh</w>
c ame</w>
se t</w>
w ard</w>
ta in</w>
p ed</w>
gu e</w>
s en
st er
m ember</w>
pu t</w>
univers ity</w>
ri ed</w>
gre at</w>
re l
me an</w>
f ran
tim es</w>
as @@</w>
g et
amer ican</w>
un ited</w>
f ac
f our</w>
em @@</w>
un c
ur @@</w>
jo h
d ra
gover n
st ory</w>
un g</w>
b all</w>
e k</w>
om @@</w>
fin d</w>
u se</w>
w ent</w>
k er</w>
pp ed</w>
la r</w>
op er
in ing</w>
no thing</w>
e u
m en</w>
b an
su b
t en</w>
sea son</w>
h er
any thing</w>
ch an
g er
por t
o t</w>
ch ed</w>
c k</w>
f lo
li @@</w>
t old</w>
bre a
un d
cont in
con si
n ew
an i
t es</w>
ne x
dev el
how ever</w>
w as
as s</w>
fil m</w>
ir e</w>
do ing</w>
le ss</w>
po pu
be st</w>
c c
ad @@</w>
f oo
th @@</w>
g ar
c ra
n s</w>
am es</w>
st ates</w>
sou th</w>
c ep
r ic
ever y</w>
19 4
b and</w>
end ed</w>
n ec
g l
ou s
num ber</w>
mu st</w>
d ge</w>
ma y
t own</w>
1 0</w>
nex t</w>
inclu ding</w>
diff er
wan ted</w>
ll ing</w>
j @@</w>
s ever
u ally</w>
no v
di @@</w>
ab @@</w>
sor ry</w>
li ght</w>
sh ow</w>
ha @@</w>
ic k
ati ve</w>
or ig
g ame</w>
d ri
as ked</w>
d ar
was n</w>
comp any</w>
p er</w>
are a</w>
pl an
d em
ag @@</w>
fe w</w>
d el
et @@</w>
d es</w>
we st</w>
grou p</w>
0 00</w>
per i
plea se</w>
ir @@</w>
su pp
c am
st ri
d ic
f ic
nor th</w>
in a</w>
s si
ou t
vi ll
loo ked</w>
a in</w>
devel op
may be</w>
mo ther</w>
ti @@</w>
en s</w>
le @@</w>
it ing</w>
sever al</w>
c la
fi el
19 5
su l
bet ter</w>
for m</w>
or g
is @@</w>
al ways</w>
pl ac
go d</w>
beg an</w>
sh @@</w>
th ings</w>
st op</w>
ear ly</w>
al bu
do or</w>
i ght</w>
sa w</w>
hi gh
with out</w>
ur y</w>
h ard</w>
sc ri
h al
musi c</w>
de sig
tur n</w>
st and</w>
ti c</w>
k new</w>
s an
a h</w>
on ce</w>
k en</w>
m r</w>
c all</w>
p ic
end s</w>
ea st</w>
pl ay</w>
ch @@</w>
cha m
pr in
re gi
do es</w>
en ing</w>
0 s</w>
c es</w>
ke ep</w>
l ing</w>
t y
ir d</w>
sc i
a ir</w>
e g
t or
w ater</w>
ser ies</w>
un e</w>
sm all</w>
n e</w>
m ed</w>
u p
fi ve</w>
o ver
en ough</w>
me di
to ge
toge ther</w>
pro f
si ble</w>
i st</w>
publi c</w>
app ear
su cc
str ic
t u
le g
al ong</w>
em s</w>
b ers</w>
ll s</w>
ne ss</w>
play ed</w>
tr u
t on
ma j
follow ing</w>
el s</w>
d ers</w>
gh ts</w>
rec ei
j an
orig in
si @@</w>
hel d</w>
l in
min i
fe el</w>
n y</w>
than k</w>
tal k</w>
h on
every thing</w>
fr on
si r</w>
mi ght</w>
im @@</w>
f el
ad v
th ers</w>
mo ved</w>
ma @@</w>
2 0</w>
cont ro
se p
op en</w>
min u
pro vi
d a</w>
g er</w>
l ation</w>
sp on
joh n</w>
de @@</w>
ac k
v en
x @@</w>
e se</w>
uc k</w>
ro w</w>
bi g</w>
w ing</w>
der ed</w>
di ed</w>
dec i
l ate</w>
il ity</w>
relea sed</w>
start ed</w>
ec ted</w>
govern ment</w>
re st</w>
ch ur
c ar</w>
re ma
albu m</w>
ous ly</w>
w s</w>
d en</w>
t en
fri end</w>
se ar
our s</w>
et s</w>
ster n</w>
bu sin
m y
as si
ap pro
v al</w>
part y</w>
h op
lea ve</w>
compl et
v ic
d ays</w>
s we
s qu
comm un
un ded</w>
e ge</w>
19 3
st a
spec i
b ra
d ro
d one</w>
lo @@</w>
li sh</w>
v ari
ro ad</w>
at ely</w>
at ur
cour se</w>
lo t</w>
1 7
h or
m m
loo king</w>
ch ri
wa it</w>
se en</w>
s li
lo w</w>
ol e</w>
c o</w>
min d</w>
po sed</w>
at ure</w>
il ed</w>
br it
pol it
it al</w>
st ar
some one</w>
to p</w>
stu d
gener al</w>
com ing</w>
le ar
ste m</w>
poin t</w>
m a</w>
b ook</w>
g ed</w>
bel ie
t a</w>
r un
re por
h ind</w>
contin u
b ru
fiel d</w>
ic es</w>
or k</w>
s co
han ds</w>
wom an</w>
s y</w>
ha ving</w>
de p
di vi
pre sid
th s</w>
le y</w>
p ur
be hind</w>
clu b</w>
ser ved</w>
gir l</w>
de ath</w>
b oo
6 @@</w>
bas ed</w>
m et
j e
is ed</w>
bl ack</w>
mon ey</w>
d iti
i e</w>
e f
differ ent</w>
i ll
fron t</w>
et y</w>
qu i
1 2</w>
ru n</w>
st ation</w>
man ag
lea gue</w>
ap @@</w>
c ouldn</w>
c au
m ic
do c
on ed</w>
ti v
b ea
v e
qu est
t able</w>
l ev
di stric
sy stem</w>
fel t</w>
ne e
or e</w>
u h</w>
h ur
al ready</w>
li m
do es
wom en</w>
li ve</w>
wh ite</w>
buil ding</w>
ch o
i de
i i</w>
does n</w>
m om
coll ege</w>
log y</w>
y e</w>
or der</w>
ar ds</w>
hi m
q u@@</w>
dre n</w>
chil dren</w>
ent ed</w>
hal f</w>
t ou
c ou
d ow
sh ow
form ed</w>
d am
ou th</w>
di o</w>
b s</w>
chur ch</w>
o s</w>
f ine</w>
si ve</w>
gh ter</w>
p at
coun ty</w>
k ind</w>
ga ve</w>
pow er</w>
cham pi
per @@</w>
lli on</w>
i on</w>
fi ed</w>
him self</w>
t om
re spon
al ity</w>
lar ge</w>
er ing</w>
1 8</w>
1 5</w>
li st
v al
ir ed</w>
tran s
r ing</w>
y ork</w>
b loo
v ir
ma g
co ver
ro ss</w>
ag o</w>
ma king</w>
e er</w>
buil t</w>
lo st</w>
ch es</w>
ch ing</w>
l a</w>
ch ang
mo ve</w>
ll y</w>
mar ch</w>
at s</w>
5 @@</w>
ach ed</w>
re al</w>
mo @@</w>
ag es</w>
foo t
tr ying</w>
s s
au gu
s ong</w>
busin ess</w>
an t
h un
loc ated</w>
sh ing</w>
w ea
ca se</w>
c are</w>
d ou
lo w
de f
j ect</w>
re sul
with in</w>
si m
vo ice</w>
hear d</w>
as k</w>
gu y</w>
yo ung</w>
belie ve</w>
sing le</w>
t ember</w>
sep tember</w>
si ons</w>
e w</w>
t it
nam ed</w>
g ran
chan ge</w>
pro c
b it</w>
j une</w>
se @@</w>
to day</w>
st ing</w>
cent ury</w>
e ff
h old</w>
at or</w>
u ary</w>
e m</w>
tr ac
la w</w>
s sed</w>
l on
al though</w>
3 0</w>
un ds</w>
e duc
ri l</w>
b ad</w>
oc to
ther n</w>
gro und</w>
on es</w>
octo ber</w>
d in
si x</w>
cur r
form er</w>
distric t</w>
jan uary</w>
ic a</w>
du e</w>
eu ro
v in
su p
as soci
ri ver</w>
dea d</w>
ad e</w>
ju ly</w>
s em
bro ther</w>
el se</w>
est ab
pos ition</w>
1 1</w>
so on</w>
h ear</w>
im port
op @@</w>
v ol
ch e
al most</w>
in t</w>
get ting</w>
re as
y ed</w>
inter national</w>
in side</w>
presid ent</w>
augu st</w>
di es</w>
tec h
co @@</w>
loc al</w>
maj or</w>
m ur
ap ril</w>
b le
clo se</w>
t el
oo @@</w>
brit ish</w>
re pres
au th
th ird</w>
st ay</w>
an a</w>
c ed</w>
bo y</w>
end ing</w>
serv ice</w>
di st
to @@</w>
wi fe</w>
wor king</w>
fu ll</w>
ne y</w>
ac ross</w>
m er
y et</w>
es @@</w>
5 0</w>
wor d</w>
b att
f ar</w>
n ear</w>
chri st
j a
su @@</w>
enc h</w>
sp ea
happ ened</w>
is m</w>
am s</w>
p et
nov ember</w>
ici p
in cre
stre et</w>
for d</w>
o f
c k
d ition</w>
comp et
ull y</w>
st ra
re ad</w>
hear t</w>
enc y</w>
fir e</w>
a ff
ma in</w>
coun try</w>
2 5</w>
201 0</w>
off ice</w>
la u
sear ch</w>
is n</w>
au str
man @@</w>
fin al</w>
dec ember</w>
cent r
f ur
an ts</w>
bo ard</w>
2 @@</w>
art @@</w>
il i
ar my</w>
mem bers</w>
la @@</w>
ge st</w>
s le
w ouldn</w>
0 @@</w>
ec @@</w>
ec ts</w>
m p
all ow
l s</w>
per s
k ill</w>
cu l
on ship</w>
k a</w>
pre t
gi ven</w>
recei ved</w>
v y</w>
of ten</w>
mo un
org ani
ar m</w>
bec ome</w>
st art</w>
1 4</w>
d en
di e</w>
i se</w>
ac cor
c at
austr ali
fo re
popu lation</w>
bo @@</w>
me d
4 @@</w>
m ents</w>
1 6</w>
ide a</w>
ta king</w>
3 @@</w>
ki lled</w>
er y</w>
ent al</w>
re li
sc re
wr ong</w>
p ho
si t</w>
lea st</w>
c al
all @@</w>
u ti
ge or
par k</w>
tal king</w>
s a</w>
under stand</w>
form ation</w>
f ree</w>
hi story</w>
n i@@</w>
vi @@</w>
sa ys</w>
estab li
ic ally</w>
c ri
h y
201 1</w>
sp @@</w>
be @@</w>
ex pl
ay @@</w>
pl y</w>
ent @@</w>
gu ys</w>
p ull
pro bab
op ened</w>
de scri
it h</w>
mor ning</w>
p en
t al</w>
t t</w>
r ac
ig n</w>
m ing</w>
mi llion</w>
s al
wh o
ex am
u su
d ad</w>
n ice</w>
vi ew</w>
t em
1 3</w>
mom ent</w>
sec re
in es</w>
u t</w>
re member</w>
d om
n on</w>
h ell</w>
an sw
wi lli
po @@</w>
is su
pol ice</w>
d ly</w>
mar ried</w>
contro l</w>
we e
ver @@</w>
ter @@</w>
ar ch
import ant</w>
s our
g ames</w>
é @@</w>
ber t</w>
act ually</w>
t ro
wor ked</w>
do m</w>
ti es</w>
w in</w>
con struc
fri ends</w>
plac ed</w>
201 2</w>
cour t</w>
de part
an no
for ce</w>
ea d</w>
1 7</w>
al one</w>
c as
ati c</w>
ta ken</w>
c al</w>
li ving</w>
eng lish</w>
fe bru
febru ary</w>
u al</w>
o thers</w>
ei ther</w>
st ro
in king</w>
l ou
g one</w>
off ici
accor ding</w>
jo b</w>
u sing</w>
200 8</w>
probab ly</w>
o k</w>
am ong</w>
ev ent
foot ball</w>
um @@</w>
c ir
200 9</w>
my self</w>
h i</w>
2 4</w>
d au
ll er</w>
w on
b er@@</w>
fl u
ha ir</w>
wor ds</w>
sig ned</w>
h it</w>
wor ks</w>
end @@</w>
ing @@</w>
de sp
wh ole</w>
m ine</w>
bloo d</w>
y le</w>
cent er</w>
st ic</w>
pos sible</w>
hu man</w>
v a
inv ol
m outh</w>
ar ms</w>
m et</w>
d ate</w>
bu @@</w>
t ex
fr ench</w>
sh ort</w>
gh t
mar k
u res</w>
ne ar
cep t</w>
t ting</w>
s ent</w>
por t</w>
su s</w>
enc es</w>
a w
hi stor
z ation</w>
ne @@</w>
tri ed</w>
it ary</w>
s is</w>
per son</w>
gh @@</w>
ing ton</w>
appear ed</w>
i shed</w>
origin al</w>
e x</w>
en tion</w>
mar y</w>
201 3</w>
b en
b ir
ph one</w>
ac tion</w>
p ing</w>
peri o
se tt
b rou
sh it</w>
sh ar
l or
200 7</w>
than ks</w>
k y</w>
con cer
publi shed</w>
g u@@</w>
mar @@</w>
no @@</w>
l er</w>
continu ed</w>
el ing</w>
l at
s ite</w>
s k</w>
ec tion</w>
cl ass</w>
qu e</w>
st i
m m</w>
f ing
re gu
cover ed</w>
vill age</w>
201 4</w>
er g
inclu ded</w>
out side</w>
ab o
ha m</w>
p hi
am a</w>
fi c</w>
em ents</w>
l uc
mat ter</w>
r u@@</w>
car eer</w>
inclu de</w>
go tt
minu tes</w>
re co
h ell
st ood</w>
divi sion</w>
g s</w>
ra il
every one</w>
i m</w>
so und</w>
wh e
z ing</w>
stan ding</w>
me et</w>
fin ally</w>
lon don</w>
y a</w>
sa ying</w>
recor d</w>
mm er</w>
2 1</w>
n al</w>
e e</w>
pa st</w>
es si
con @@</w>
ch ec
ho @@</w>
sp e
b ly</w>
bab y</w>
supp ort</w>
brou ght</w>
ou @@</w>
mo m</w>
ic u
p ap
con nec
we ek</w>
h a</w>
vi ew
w il
p au
coun ci
in iti
s an</w>
p t</w>
se qu
c ar@@</w>
ne i
shi ps</w>
te st</w>
ap poin
pri v
pr act
ad a</w>
f uc
tra v
dar k</w>
19 0
re turned</w>
inv est
gra du
me @@</w>
is land</w>
1 9</w>
lan gu
str y</w>
dau ghter</w>
list en</w>
qu e
itt en</w>
d u@@</w>
loc k</w>
f em
r an</w>
any one</w>
stud ents</w>
st at
on y</w>
ol s</w>
off ic
200 6</w>
ei ght</w>
f le
st on</w>
j ap
sh ot</w>
th re
gra m</w>
k o
ag re
develop ment</w>
b ac
mu l
play ing</w>
inst itu
mon ths</w>
he al
2 2</w>
ar ri
tr ue</w>
t est
k ey</w>
inst ead</w>
we stern</w>
i ous</w>
v ely</w>
in du
lev el</w>
spec ial</w>
em y</w>
ro und</w>
l u
b i@@</w>
mil itary</w>
ger man</w>
pre vi
h om
pl @@</w>
li e</w>
char ac
rel ati
y al</w>
commun ity</w>
happ y</w>
s er</w>
on om
201 5</w>
ru ssi
ci al</w>
k is
a war
fe et</w>
centr al</w>
fi g
no t
chil d</w>
enti al</w>
ac c
re search</w>
or ed</w>
f act</w>
l u@@</w>
re ali
z y</w>
ble m</w>
1 00</w>
st op
il s</w>
comm it
counci l</w>
gu n</w>
cr it
t an
re g
r a</w>
c up</w>
ew @@</w>
sa @@</w>
w ood</w>
y our
re ached</w>
qu art
pret ty</w>
anno unc
ch ie
h ours</w>
ev i
dd le</w>
con st
c y
h all</w>
st one</w>
2 3</w>
br ing</w>
establi shed</w>
pro blem</w>
l ong
d r</w>
succ ess
sp or
mis s</w>
run ning</w>
up on</w>
wr it
fi ght</w>
ac tiv
fur ther</w>
et ing</w>
j er
p al
all s</w>
wr itten</w>
y er</w>
at a</w>
lan ds</w>
att emp
di sc
play er</w>
nee ded</w>
ro le</w>
or ity</w>
sp o
d on
new s</w>
educ ation</w>
18 9
ne l</w>
perio d</w>
cu t</w>
gra ph
se em
ro ck</w>
d ru
de l</w>
v ers</w>
j our
k ers</w>
dea l</w>
th ro
jo ined</w>
sp ace</w>
f un
u tion</w>
dep end
en se</w>
en e</w>
ser ve</w>
pi ec
follow ed</w>
ma in
si mil
su ff
me ans</w>
wi de</w>
si ster</w>
ar s</w>
ph y
g es</w>
tow ard</w>
it ting</w>
m i@@</w>
to tal</w>
2 8</w>
cre ated</w>
direc tor</w>
pres ent</w>
ex c
j ames</w>
uni on</w>
in formation</w>
vari ous</w>
lea d</w>
n ers</w>
do @@</w>
ni a</w>
ver sion</w>
pro gram</w>
ec onom
fa v
on ally</w>
ta @@</w>
re turn</w>
hop e</w>
ho sp
some times</w>
flo or</w>
do w</w>
f ood</w>
ro duc
int roduc
l it
cla im
ra ther</w>
tel evi
televi sion</w>
ac ad
pre ss</w>
eng land</w>
da vi
tit le</w>
bl ue</w>
2 7</w>
hi @@</w>
h en
th inking</w>
se a</w>
ev @@</w>
ra dio</w>
loo ks</w>
h u@@</w>
2 6</w>
w ro
wro te</w>
re qu
ha ven</w>
mo der
produc ed</w>
go @@</w>
pl es</w>
s even</w>
201 6</w>
for t</w>
f ully</w>
reco g
mar k</w>
de fin
your self</w>
pl an</w>
polit ical</w>
fe der
m u@@</w>
la ke</w>
se e
in c
art s</w>
han d
f all</w>
fa st</w>
str ong</w>
an im
m un
d er@@</w>
spec ies</w>
i sts</w>
t v</w>
vi de
br an
geor ge</w>
pro gr
to m</w>
p an
li st</w>
di s@@</w>
wat ch</w>
in ning</w>
sh oul
li ed</w>
1 6@@</w>
chang ed</w>
e art
u l@@</w>
lo gi
r en
batt le</w>
fer ence</w>
sur pri
de fe
l ad
com b
ea l</w>
bri dge</w>
ex peri
w all</w>
ep is
h ar@@</w>
pro mo
b it
i or</w>
gu ess</w>
ma kes</w>
fin ished</w>
emp lo
v a</w>
produc tion</w>
po se</w>
part icu
b ar@@</w>
ex t
diti onal</w>
c el
prof essi
sec ur
gre en</w>
ou ght</w>
lor d</w>
hu s
deci ded</w>
ter min
sh op</w>
200 5</w>
mi ddle</w>
pull ed</w>
g ri
pp ing</w>
c ause</w>
hell o</w>
an g</w>
b b
at ures</w>
cor por
comm is
depart ment</w>
comm on</w>
p e@@</w>
consi dered</w>
4 0</w>
brea k</w>
vi a</w>
sh o
chie f</w>
ab ility</w>
on to</w>
soci al</w>
v ement</w>
de ep</w>
un t</w>
regi on</w>
willi am</w>
minu te</w>
in te
seem ed</w>
th y</w>
ev ed</w>
supp or
2 9</w>
s n
18 8
sc @@</w>
so @@</w>
v is
m art
eng th</w>
clo sed</w>
s en</w>
bea uti
r ace</w>
mat ch</w>
phy si
per f
d ings</w>
fi f
pu bl
ho t</w>
abo ve</w>
ta in
ton ight</w>
lea ving</w>
fo unded</w>
ul t</w>
ta ined</w>
hu h</w>
v an</w>
par ents</w>
ta ins</w>
m al
ro yal</w>
est ed</w>
pro @@</w>
st ers</w>
n er
a ward</w>
bel i
ph @@</w>
re spec
pro ject</w>
tr ack</w>
in depend
c ent</w>
l ab
act ly</w>
t ter</w>
c i@@</w>
bro ad
re sid
ter ed</w>
ad m
par @@</w>
i mag
usu ally</w>
st yle</w>
ec u
davi d</w>
per for
t u@@</w>
incre as
qu ite</w>
qu ick
quick ly</w>
ex actly</w>
soci ety</w>
reas on</w>
ea @@</w>
air s</w>
p ay</w>
st ar</w>
for ward</w>
ar m
fuc king</w>
k ep
st age</w>
su mmer</w>
cl ear</w>
st ep
ci d
hus band</w>
t ers</w>
amer ica</w>
sp ir
k i</w>
announc ed</w>
cap tain</w>
th om
ag ed</w>
pa in
gir ls</w>
ach ing</w>
beauti ful</w>
elec tion</w>
sh oo
ri es</w>
a ver
indi vi
c ali
s l
mo ving</w>
b a</w>
perfor man
mon @@</w>
ma ster</w>
un ch</w>
ty pe</w>
quest ion</w>
sen se</w>
ne t
n a@@</w>
epis o
ali st</w>
kep t</w>
g an</w>
fe eling</w>
tu res</w>
t ation</w>
wh at
sk y</w>
ca st</w>
er ous</w>
s ong
mis sion</w>
f uck</w>
wa iting</w>
c le
18 6
sm ile</w>
pro tec
langu age</w>
fer red</w>
vi ol
sch o
iti ve</w>
hur t</w>
her self</w>
j ack</w>
r it
il ing</w>
v an
associ ation</w>
s itu
pro per
di an</w>
com es</w>
si a</w>
ad mini
cha p
po st</w>
long er</w>
indivi du
c or@@</w>
in ation</w>
pp er</w>
ch ance</w>
t ar
ha dn</w>
se x</w>
sci ence</w>
log ical</w>
att ack</w>
f er</w>
ear li
a th
com man
p ra
200 0</w>
sh ut</w>
op s</w>
hosp ital</w>
s ses</w>
200 4</w>
champi onship</w>
serv ices</w>
ea sy</w>
d ding</w>
sur vi
r s</w>
coun t</w>
pre @@</w>
se at</w>
what ever</w>
k o@@</w>
ati onal</w>
w oo
ha el</w>
doc tor</w>
t e@@</w>
in f
7 @@</w>
co ver</w>
sh es</w>
over @@</w>
n atur
m c@@</w>
li es</w>
vide o</w>
tur al</w>
cali for
indi a</w>
ac k@@</w>
co a
t our
b ow
de stro
desig n</w>
speci ally</w>
oc cu
c ru
cou ple</w>
en a</w>
wal k</w>
event ually</w>
tra ining</w>
x im
ke ep
c k@@</w>
desp ite</w>
sel ves</w>
euro pe
allow ed</w>
g oo
relea se</w>
d i</w>
ri bu
wan ts</w>
fe atur
s la
priv ate</w>
b al
ti onal</w>
mo vi
simil ar</w>
for mu
nor thern</w>
t ors</w>
califor nia</w>
develop ed</w>
l t</w>
tr ou
for ces</w>
g a</w>
e f</w>
17 @@</w>
x ed</w>
ga z
an e</w>
a va
in flu
g old</w>
ent y</w>
com pu
ea stern</w>
p es</w>
a u@@</w>
te e</w>
cl assi
ess or</w>
f ted</w>
professi onal</w>
st om
18 7
mat er
c li
bec om
exam ple</w>
k a@@</w>
su dd
b a@@</w>
f our
popu lar</w>
c u@@</w>
p u@@</w>
ban k</w>
sec on
t un
wal ked</w>
del i
sou thern</w>
fu ture</w>
appoin ted</w>
iti ons</w>
c a</w>
ff @@</w>
de gre
pas sed</w>
se par
s un
boo ks</w>
mic hael</w>
tru st</w>
ava il
lad y</w>
s on
ar en</w>
fran ce</w>
me an
s at</w>
e d@@</w>
tom or
tomor row</w>
ter m</w>
moder n</w>
l y
re fu
s ons</w>
poin ts</w>
ll ow</w>
im medi
stop ped</w>
aver age</w>
d ded</w>
ni fic
europe an</w>
h ood</w>
8 @@</w>
gran d
recor ds</w>
construc tion</w>
answ er</w>
tri es</w>
ic le</w>
sid es</w>
bo ys</w>
c oo
ac y</w>
wor ry</w>
f ol
ran ge</w>
me eting</w>
ex pres
invol ved</w>
e specially</w>
p i@@</w>
part icip
ra id</w>
gi ving</w>
c old</w>
enti re</w>
australi a</w>
l in</w>
p ac
cer tain</w>
repres ent
recor ded</w>
gg ed</w>
stu dy</w>
pau l</w>
w el
resul t</w>
r is</w>
get s</w>
sch @@</w>
h our</w>
mini ster</w>
si ze</w>
sec tion</w>
9 @@</w>
ad ded</w>
sle ep</w>
j ew
li ps</w>
ac qu
c us</w>
vill e</w>
eart h</w>
are as</w>
oc k</w>
low er</w>
est @@</w>
admini str
ic ation</w>
dre ss</w>
dre w</w>
nati ve</w>
throu gh
through out</w>
dam n</w>
descri bed</w>
sh ire</w>
a k</w>
erg y</w>
g ing</w>
f ell</w>
heal th</w>
s old</w>
pro vin
t el</w>
con tr
wee ks</w>
origin ally</w>
tech no
k ing
beg inning</w>
tow ards</w>
r on</w>
end er</w>
as h</w>
pl a
cra ft</w>
g i@@</w>
ep @@</w>
el i
sp ent</w>
te en</w>
d ance</w>
gh ed</w>
su b@@</w>
proc ess</w>
ev ent</w>
m ach
happ en</w>
h er@@</w>
tur ning</w>
an g@@</w>
lit er
k e@@</w>
avail able</w>
elec ted</w>
curr ent</w>
f unc
ca st
z a</w>
se y</w>
elec tr
kno ws</w>
ph il
hou se
cam pa
lo s</w>
lin es</w>
sha @@</w>
lea ding</w>
rema ined</w>
b ar</w>
g ol
inter @@</w>
ki ds</w>
m al</w>
d ang
g e@@</w>
secur ity</w>
m el
att ac
li c</w>
sp an
in e
att ention</w>
spea k</w>
p ati
form s</w>
201 7</w>
h e@@</w>
200 3</w>
charac ter</w>
tru th</w>
e e
ar ed</w>
ma gaz
ex @@</w>
t our</w>
sh or
s sing</w>
a k@@</w>
nei gh
min @@</w>
dri ve</w>
b ack
the m
fe sti
man u
ha ps</w>
b ility</w>
can ada</w>
st o
sig nific
h ill</w>
ad dition</w>
ti red</w>
ta kes</w>
reli gi
d a@@</w>
f i@@</w>
per haps</w>
un ding</w>
p h</w>
sor t</w>
oc @@</w>
sup posed</w>
wan na</w>
ba se</w>
mor @@</w>
li ved</w>
p id</w>
it or</w>
thom as</w>
bre ath</w>
offici al</w>
anc es</w>
go es</w>
sk in</w>
e at</w>
me ant</w>
offic er</w>
es cap
tri @@</w>
wr iting</w>
mu se
gh tly</w>
ex per
e ye</w>
rail way</w>
desig ned</w>
rou te</w>
s op
a se</w>
ev id
it ch
cau ght</w>
quest i
b ull
en ly</w>
song s</w>
ic k@@</w>
scho ols</w>
c lear
it ted</w>
chec k</w>
b om
ex i
it es</w>
b ye</w>
any way</w>
cra zy</w>
s am
sh all</w>
u k</w>
est s</w>
mark et</w>
se x
bo x</w>
wh is
indi an</w>
m rs</w>
an ge</w>
medi a</w>
k u@@</w>
gott a</w>
bro wn</w>
pas s</w>
sol di
curr ently</w>
e ful</w>
1 5@@</w>
cro ss</w>
ev ents</w>
be l</w>
m er@@</w>
const itu
sa fe</w>
hen ry</w>
su gg
g ent
pet er</w>
comm er
so f
d y
p a@@</w>
in o</w>
ci vi
c a@@</w>
si an</w>
or ies</w>
st ep</w>
for ced</w>
dr ink</w>
k i@@</w>
en ergy</w>
bl ed</w>
tea ms</w>
li ves</w>
pa in</w>
nor th
i g@@</w>
b bed</w>
bur g</w>
f act
k id</w>
j ects</w>
wor th</w>
diff ic
ell @@</w>
ju st
pol ic
earli er</w>
natur al</w>
lar ly</w>
ro bert</w>
im pro
est er</w>
n ar
gi c</w>
ati @@</w>
fig ure</w>
ra ised</w>
ur ed</w>
gh ting</w>
re si
af ter
st af
st e</w>
ri ghts</w>
b ill</w>
e qu
200 1</w>
fing ers</w>
it self</w>
who se</w>
invest ig
m ea
stu ff</w>
3 1</w>
200 2</w>
sp ort</w>
wea p
ar a</w>
ra y</w>
hol ding</w>
th us</w>
tou ch</w>
ex cu
af raid</w>
sig n</w>
char les</w>
euro pe</w>
ow @@</w>
prof essor</w>
su n</w>
at ors</w>
enc ed</w>
all ey</w>
b an</w>
co ach</w>
f la
con gre
am ed</w>
en jo
ch est</w>
te lling</w>
near ly</w>
ger many</w>
gr and</w>
no dded</w>
il ities</w>
ne t</w>
ac tive</w>
the at
cent re</w>
fem ale</w>
recog ni
6 0</w>
sy st
lar gest</w>
piec e</w>
que en</w>
s k@@</w>
ic ed</w>
st ly</w>
mo vement</w>
part s</w>
ol der</w>
u n</w>
fe atures</w>
s low
f y</w>
tur ed</w>
t ory</w>
w o
inter est</w>
s sion</w>
g lo
play ers</w>
p sy
fran c
mon th</w>
success ful</w>
sy m
repor t</w>
net work</w>
muse um</w>
performan ce</w>
stra ight</w>
ach @@</w>
ic o</w>
cont ribu
un k</w>
an al
commit tee</w>
complet ely</w>
con duc
e br
wa sh
ex ecu
col on
po or</w>
ch in
e qui
mo del</w>
pers onal</w>
pas s
co p
c an@@</w>
nee ds</w>
c le</w>
arch it
st an</w>
ll a</w>
med ical</w>
gl ass</w>
ro r</w>
cre d
ac hi
an n
k a
lea der</w>
ow ned</w>
hea vy</w>
b ay</w>
b at
h an@@</w>
a head</w>
for get</w>
tr @@</w>
s al@@</w>
sa ve</w>
ent ary</w>
dem oc
f u@@</w>
ri age</w>
sco t
fic ation</w>
w ish</w>
do g</w>
al ed</w>
de but</w>
ang el
li br
t ary</w>
n ine</w>
ic ations</w>
j u@@</w>
fu n</w>
fo und
m p</w>
ch ina</w>
re duc
se ems</w>
ver se</w>
sa m</w>
immedi ately</w>
ro se</w>
sh i@@</w>
grou ps</w>
wash ington</w>
b our
som ew
russi an</w>
squ are</w>
sh ir
1 0
perf ect</w>
four th</w>
be at</w>
per formed</w>
episo de</w>
re ly</w>
australi an</w>
complet e</w>
li k
for @@</w>
h an</w>
complet ed</w>
y ell
start ing</w>
pap er</w>
m ex
der ing</w>
j a</w>
ser ious</w>
an ed</w>
cha ir</w>
mun icip
ing ly</w>
pho to
me tho
excu se</w>
n ature</w>
or i
disc u
repor ted</w>
magaz ine</w>
bel ow</w>
spor ts</w>
m ess
sou th
festi val</w>
r an@@</w>
writ er</w>
civi l</w>
d an</w>
ex cept</w>
struc ture</w>
foll ow</w>
nec k</w>
s ma
sm iled</w>
c en
c lim
cha @@</w>
par ed</w>
cel ebr
show s</w>
hol ds</w>
trou ble</w>
cha ll
ab ly</w>
th ir
institu te</w>
feder al</w>
win dow</w>
f ish</w>
ber g</w>
er a</w>
stor e</w>
k o</w>
op ening</w>
chin ese</w>
col um
o logy</w>
tw enty</w>
sub sequ
an ese</w>
ac cep
man s</w>
high er</w>
b all
gu ard</w>
comm and</w>
st ated</w>
an d@@</w>
an o</w>
prin ci
yo @@</w>
m ental</w>
can not</w>
king dom</w>
see ing</w>
movi e</w>
ar gu
n ation</w>
bu s</w>
succ ess</w>
dow s</w>
degre e</w>
m ir
ni e</w>
en vir
org an
staf f</w>
jo @@</w>
stu dies</w>
them selves</w>
organi zation</w>
t or@@</w>
relati onship</w>
it ali
r i</w>
stud ent</w>
ent er
regu lar</w>
il ies</w>
previ ous</w>
provi ded</w>
syst ems</w>
evid ence</w>
techno logy</w>
joh n
all ow</w>
d ata</w>
al d</w>
par li
m er</w>
st y</w>
sm ith</w>
mi se</w>
la _
formu la_
tra @@</w>
ali ve</w>
air craft</w>
assi st
q @@</w>
pos si
ec tive</w>
pre ci
ar i@@</w>
con ference</w>
po t
en sive</w>
g a@@</w>
sh ook</w>
foo t</w>
c ool</w>
s s@@</w>
campa ign</w>
ear ing</w>
jap anese</w>
m al@@</w>
whe ther</w>
ar ies</w>
deci sion</w>
slow ly</w>
win ning</w>
m id</w>
vir g
mi d
any more</w>
can a
g en</w>
hel ped</w>
sur ro
parli am
st ay
de ta
p ick</w>
s end</w>
st er@@</w>
dom in
bro ke</w>
ent ered</w>
199 9</w>
shoul der</w>
id enti
coa st</w>
str u
cid ent</w>
claim ed</w>
cl @@</w>
tre at
5 00</w>
li ber
re vol
r am@@</w>
r ich</w>
acad emy</w>
tra in</w>
an d
ic les</w>
18 5
re gar
s ity</w>
re placed</w>
ho tel</w>
kis s</w>
f all
b t</w>
kno w
al i@@</w>
ter rit
bl @@</w>
sudd enly</w>
stu dio</w>
ju d
t ch</w>
secre t</w>
rel ated</w>
compet ition</w>
tour nam
j ack
w er
cast le</w>
fam ilies</w>
in dic
independ ent</w>
am a
sol u
wat ching</w>
coun tries</w>
ol y
introduc ed</w>
am o
sci enti
s itting</w>
ed ge</w>
mil es</w>
n ic
t t@@</w>
ric hard</w>
st ea
envir on
in y</w>
plac es</w>
w a@@</w>
bur @@</w>
leg s</w>
v alley</w>
dro pped</w>
a po
christ ian</w>
fe @@</w>
provi de</w>
r ican</w>
war ds</w>
wh om</w>
par is</w>
cho ice</w>
fl or
direc ted</w>
pro bl
inclu des</w>
co ff
in j
lo se</w>
pres sed</w>
featur ed</w>
cro w
as su
n om
cl as
c e
f er@@</w>
we ight</w>
so unds</w>
pro mise</w>
qu ali
un it</w>
st airs</w>
ric a</w>
4 5</w>
s er@@</w>
re ach</w>
arri ved</w>
tra de</w>
i de</w>
s and</w>
i d@@</w>
exp ected</w>
fam ous</w>
w ar@@</w>
w i@@</w>
pract ice</w>
g ate</w>
chap ter</w>
t i</w>
on a</w>
ap pl
oc cur
cap ital</w>
oper ation</w>
c amer
t ree</w>
b al</w>
d an
y an</w>
bi a</w>
fi ghting</w>
se em</w>
nec ess
or din
pri @@</w>
c ks</w>
experi ence</w>
e du
sour ce</w>
f ear</w>
ma d</w>
sen ior</w>
spe ed</w>
b es</w>
hea d
j a@@</w>
indu stry</w>
und er@@</w>
flo w
exp lo
compu ter</w>
s wit
wee k
br @@</w>
stan d
run s</w>
be th</w>
as sem
off ered</w>
m es</w>
pre mi
manag ement</w>
di stri
su per
pl at
tr a</w>
t ro@@</w>
sour ces</w>
fre qu
diti ons</w>
prin ce</w>
a i</w>
tur ns</w>
r o</w>
govern or</w>
199 8</w>
s pl
exp an
l ic
ha m
probl ems</w>
al es</w>
f a@@</w>
lo ved</w>
u es</w>
comp an
cana dian</w>
y ard</w>
i o</w>
al ex
sc ene</w>
la w
dow n
v am
span ish</w>
h ate</w>
manag ed</w>
jap an</w>
buil dings</w>
la un
ac her</w>
ad s</w>
lik ely</w>
pur cha
mar riage</w>
pro t
sy n
lim ited</w>
emplo y
de st</w>
hi b
b ra@@</w>
nam es</w>
nor mal</w>
ven ue</w>
every body</w>
bu d
un its</w>
dou ble</w>
om s</w>
din ner</w>
oc ca
li ghts</w>
a c</w>
progr am
e ve</w>
wat ched</w>
go al</w>
contr act</w>
proper ty</w>
know le
su it</w>
af rican</w>
ou t@@</w>
p a</w>
an ci
app ed</w>
ob vi
so ft</w>
pu ll</w>
e an</w>
au lt</w>
no body</w>
yo un
g ar@@</w>
jo in</w>
is l
fo rest</w>
distri bu
hor se</w>
stand ard</w>
situ ation</w>
j ac
stu pid</w>
agre ed</w>
pa id</w>
re ve
mo stly</w>
gra @@</w>
art ist</w>
al ing</w>
loc ation</w>
ter ri
read ing</w>
sim ply</w>
acc ess</w>
se l</w>
view s</w>
r ick</w>
ch ic
moun tain</w>
c ell</w>
pri mary</w>
sh e
p an@@</w>
doc um
3 5</w>
democ r
stu died</w>
fore ign</w>
manag er</w>
pl ant</w>
bo at</w>
cor ner</w>
questi ons</w>
bu y</w>
r ate</w>
n one</w>
h y@@</w>
si x
cau sed</w>
ve h
di g
p ea
cen sus</w>
w ol
at ory</w>
e th</w>
b en</w>
á @@</w>
swe et</w>
fre e
th er@@</w>
ri c</w>
o x
beli eved</w>
chan nel</w>
ir s</w>
199 7</w>
previ ously</w>
h und
la d</w>
s m</w>
g ers</w>
inte ll
g un
vic tor
fi lled</w>
ac ting</w>
mem ber
ing ing</w>
tex as</w>
pl ays</w>
theat re</w>
itali an</w>
or ing</w>
1 st</w>
199 6</w>
bro ken</w>
le e</w>
coff ee</w>
direc tion</w>
pe ace</w>
c ell
ro man</w>
z e
fil ms</w>
att ended</w>
eng ine
tiv ely</w>
appro xim
we @@</w>
mur der</w>
re n</w>
g er@@</w>
cu sed</w>
libr ary</w>
clo ser</w>
l ength</w>
eng ine</w>
th es</w>
oper ations</w>
gre w</w>
mis @@</w>
act or</w>
pa ir</w>
sim ple</w>
lo ss</w>
it ation</w>
it i@@</w>
char ge</w>
ev ening</w>
ex ten
dre am</w>
is on</w>
app ear</w>
new sp
cam p</w>
k ne
sy l
pl ans</w>
h o</w>
hund red</w>
o logical</w>
bro thers</w>
gener ally</w>
on ships</w>
call ing</w>
20 0</w>
qui et</w>
pic ture</w>
be y
ec h</w>
appear ance</w>
b ing</w>
chang es</w>
n or</w>
af rica</w>
pri or</w>
ad es</w>
sil ver</w>
z en</w>
newsp ap
tournam ent</w>
li sted</w>
sa int</w>
dist ance</w>
id a</w>
on ic</w>
p tion</w>
ach es</w>
car ried</w>
al y</w>
gu it
co st</w>
ea se</w>
issu e</w>
wa ke</w>
becom ing</w>
requ ired</w>
coll ection</w>
w ind</w>
oly mp
off er</w>
anal y
econom ic</w>
na vy</w>
ro man
sur face</w>
m ale</w>
l ying</w>
ap par
6 5</w>
s ar
secre tary</w>
u r</w>
ph ili
mi sta
signific ant</w>
awar ds</w>
wi se</w>
diffic ult</w>
fa ir</w>
et te</w>
d ic@@</w>
ath le
sch ol
some body</w>
anc ed</w>
di um</w>
the @@</w>
m enti
unc le</w>
de tec
gott en</w>
mi ke</w>
sur @@</w>
graph y</w>
star s</w>
shir t</w>
chic ago</w>
gr @@</w>
gro w
al ter
wal king</w>
fin ish</w>
s an@@</w>
m as</w>
defe ated</w>
v e@@</w>
ant i</w>
ck et</w>
tra ditional</w>
s ac
ther e
bey ond</w>
or ial</w>
as king</w>
ser ving</w>
on ing</w>
i zed</w>
particu lar</w>
rec @@</w>
f light</w>
p al</w>
dro p</w>
g lan
199 5</w>
k in
ap art
h mm</w>
si ck</w>
b lo
bi shop</w>
sh are</w>
contin ue</w>
bas k
jo e</w>
cul ture</w>
le tter</w>
nov el</w>
sc ored</w>
b o</w>
8 0</w>
expl a
awar ded</w>
pro gre
ba g</w>
bo t
i re
g as</w>
c al@@</w>
direc tly</w>
pro mis
sett l
s lo
v a@@</w>
i ma
ch em
u p@@</w>
can di
ab or
fran k</w>
e th
sub ject</w>
o d
p al@@</w>
a vo
sa f
hou ses</w>
k in</w>
initi ally</w>
fa iled</w>
histor ic</w>
sp ring</w>
issu es</w>
199 4</w>
v o@@</w>
v en@@</w>
gra de</w>
form ing</w>
qu ick</w>
k m</w>
cat ch</w>
b r</w>
air port</w>
wi d
so vi
u s
compan ies</w>
l ay</w>
be t</w>
a z@@</w>
ma d
d ear</w>
ic ked</w>
vic tory</w>
re pe
ti e</w>
ter ms</w>
pu s</w>
prot ect</w>
mul ti
wr ite</w>
ad ed</w>
e y
e u@@</w>
met al</w>
manu fac
bu l
199 2</w>
m ac@@</w>
particu larly</w>
p il
cre ate</w>
commis sion</w>
show ed</w>
just ice</w>
approxim ately</w>
re p
pic ked</w>
wer en</w>
cle an</w>
ur al</w>
u ses</w>
it a</w>
reali zed</w>
ici an</w>
clo thes</w>
re public</w>
di sp
k en
loc ked</w>
hea ded</w>
de termin
b al@@</w>
em o
sing er</w>
sk i</w>
ssi ve</w>
provin ce</w>
tho lic</w>
ca tholic</w>
ull @@</w>
soldi ers</w>
ju li
spo ke</w>
secon ds</w>
y n</w>
s low</w>
pri son</w>
respon sible</w>
cas es</w>
y ours</w>
f ly</w>
ire land</w>
a u</w>
commer cial</w>
leg al</w>
high est</w>
fir m</w>
bl ing</w>
respon se</w>
fo cus</w>
usu al</w>
v oc
high way</w>
ick et</w>
fun ny</w>
stor ies</w>
si ght</w>
hon ey</w>
per ed</w>
indu stri
je sus</w>
p ay
itu de</w>
the ory</w>
3 2</w>
un d@@</w>
ro b
por ary</w>
ear @@</w>
v al@@</w>
ar ran
ag ent</w>
k itch
kitch en</w>
s mo
col or</w>
anci ent</w>
sh ouldn</w>
c ab
comman der</w>
h at</w>
w earing</w>
ac tions</w>
s ki
d en@@</w>
stru gg
p ool</w>
con su
cer tain
b ell</w>
fo @@</w>
p ical</w>
c ard</w>
ang er</w>
ec ting</w>
b an@@</w>
y l
at trac
con serv
be ach</w>
neigh bor
ru le</w>
u pper</w>
com @@</w>
f ru
in ks</w>
w ear</w>
l y@@</w>
or dered</w>
am ing</w>
op port
polic y</w>
z z
k ni
buil d</w>
laun ched</w>
tem ple</w>
gu il
k ar@@</w>
found ation</w>
is ra
emp ire</w>
im ent</w>
18 4
el ess</w>
c iti
sel y</w>
m ec
ap e</w>
su sp
su per@@</w>
opport un
o ts</w>
em an</w>
199 3</w>
z es</w>
est ing</w>
individu al</w>
sp read</w>
199 0</w>
no ted</w>
fe llow</w>
ki e</w>
vi sion</w>
ju dge</w>
wel come</w>
cor rec
vi sit</w>
fin an
finan cial</w>
i ri
han g</w>
o il</w>
religi ous</w>
mater ial</w>
cont act</w>
eff ect</w>
ba si
wh @@</w>
ad op
n u@@</w>
pp @@</w>
star ed</w>
te acher</w>
mem ory</w>
b c</w>
lear n</w>
d ates</w>
mis sing</w>
b ought</w>
et er</w>
ko re
m at@@</w>
anc y</w>
somew here</w>
co de</w>
thro at</w>
num erous</w>
sel @@</w>
dis covered</w>
mach ine</w>
g gest</w>
mean ing</w>
ra in</w>
de si
app ears</w>
ta ining</w>
gg er</w>
direc t</w>
shoo t</w>
gu ar
199 1</w>
ru les</w>
car s</w>
ab solu
sovi et</w>
attemp t</w>
ur a</w>
ten ant</w>
sh er
bl es</w>
compl ex</w>
n d</w>
f it</w>
on ary</w>
war m</w>
sch edu
4 th</w>
5 th</w>
1 @@</w>
in ated</w>
musi cal</w>
dec lar
str at
ad ditional</w>
str ange</w>
g ar</w>
d ar@@</w>
c re@@</w>
w ra
em ic</w>
ö @@</w>
num bers</w>
lar ger</w>
yo r</w>
increas ed</w>
me dic
po p</w>
knowle dge</w>
l o</w>
er ful</w>
ch er</w>
tw ice</w>
y outh</w>
r ying</w>
expl ain</w>
j i</w>
pu shed</w>
commis si
art ists</w>
auth or</w>
bra in</w>
pres sure</w>
con fu
execu tive</w>
gro wing</w>
ri de</w>
tt on</w>
ric ul
com mon
cu stom
tre es</w>
f l@@</w>
step s</w>
mart in</w>
is ing</w>
b i</w>
o li
d ro@@</w>
amo unt</w>
h um
parliam ent</w>
sc r
b ri@@</w>
sp ot</w>
plan e</w>
rema ins</w>
an da</w>
con clu
cre w</w>
9 0</w>
7 0</w>
ann ual</w>
we b
regi onal</w>
ste pped</w>
ma gic</w>
r on@@</w>
z er
sh a</w>
associ ated</w>
h or@@</w>
st ered</w>
he at</w>
g lad</w>
c art
wor se</w>
ga ze</w>
vic ti
es ses</w>
s in</w>
bur y</w>
em erg
mex ico</w>
de sc
virg in
pos se
no te</w>
win ter</w>
j en
lea ves</w>
tre m
w ow</w>
d or
gi ves</w>
resul ts</w>
ser ves</w>
quart ers</w>
in de
o l</w>
c s</w>
act ers</w>
at lan
r y@@</w>
an der</w>
el ed</w>
sen s
char acters</w>
hel @@</w>
di sh</w>
ra ge</w>
hu ge</w>
se ts</w>
lo sing</w>
i ds</w>
physi cal</w>
h al@@</w>
tt ers</w>
w alls</w>
hon or</w>
al i</w>
won der</w>
car ol
necess ary</w>
maj ority</w>
gre at
ri sk</w>
ig nor
bel ong
tro ops</w>
s en@@</w>
near by</w>
or ders</w>
sc ared</w>
g or
angel es</w>
spea king</w>
jour n
escap e</w>
n uc
in come</w>
sc ore</w>
j uni
d ani
d el@@</w>
van ia</w>
syl vania</w>
sh own</w>
sou l</w>
bo ss</w>
ent er</w>
an na</w>
no on</w>
plan ned</w>
t en@@</w>
lau ghed</w>
pre v
di r
it aly</w>
gre @@</w>
c ked</w>
cl ar
surpri se</w>
def ense</w>
tow er</w>
ep ing</w>
ki lling</w>
sli ghtly</w>
activ ities</w>
ma x</w>
g n
198 9</w>
assist ant</w>
ch i
cri me</w>
est im
separ ate</w>
lou is</w>
goo d
gre ek</w>
ro ll</w>
a v@@</w>
com e
ef ully</w>
dd en</w>
af @@</w>
progr ams</w>
keep ing</w>
cal m</w>
mar ine</w>
sep h</w>
jo seph</w>
ch i@@</w>
e g@@</w>
pri me</w>
gr ant</w>
re ss</w>
sil y</w>
rec ent</w>
there fore</w>
ac ted</w>
st a@@</w>
re fl
sh i</w>
li eu
lieu tenant</w>
i ously</w>
ex hib
bur n</w>
b by</w>
n ick</w>
pen n
pr @@</w>
dra w</w>
al and</w>
ati ves</w>
speci fic</w>
et er
y o</w>
expres sion</w>
an t@@</w>
t ar@@</w>
st al</w>
repres ented</w>
im p
christ mas</w>
pass eng
assem bly</w>
su per</w>
pow erful</w>
in struc
b on
stor m</w>
th row</w>
s l@@</w>
virgin ia</w>
ch ester</w>
li ked</w>
bel @@</w>
r d</w>
pur pose</w>
b lock</w>
al ism</w>
recor ding</w>
mess age</w>
gi e</w>
wor ried</w>
aw are</w>
s ar@@</w>
p it
ba st
trac ks</w>
rec ently</w>
ec ture</w>
bot tom</w>
con vers
re st
scre en</w>
ad o</w>
sett led</w>
tri p</w>
on er</w>
b or@@</w>
menti oned</w>
stat us</w>
administr ation</w>
sh ment</w>
cir cu
u ght</w>
2 nd</w>
emp ty</w>
all i
be ha
al a</w>
tech n
iri sh</w>
com for
x es</w>
fe ature</w>
s ent
3 3</w>
vari ety</w>
h en</w>
russi a</w>
luc ky</w>
te eth</w>
ar re
ta il</w>
fif th</w>
w a</w>
juni or</w>
d anc
con vin
su spec
i ans</w>
d on@@</w>
pres ence</w>
beg in</w>
flor ida</w>
hand le</w>
ma lly</w>
le g</w>
6 th</w>
z a
ear ned</w>
di a</w>
dre ssed</w>
3 6</w>
ti ght</w>
suppor ted</w>
win dows</w>
cl es</w>
l an@@</w>
wor kers</w>
p on
penn sylvania</w>
ro lled</w>
rema ining</w>
vo te</w>
b en@@</w>
b ad
it ely</w>
v ey</w>
r en@@</w>
formula_ @@</w>
j am
ill u
198 8</w>
ir on</w>
bro @@</w>
t ical</w>
inter ested</w>
k ar
c ing</w>
call s</w>
str ength</w>
te lls</w>
nei ther</w>
c ities</w>
cha ir
re view</w>
tra ff
offic ers</w>
cul tural</w>
subsequ ently</w>
er al</w>
au tom
hol y</w>
pr ice</w>
trav el</w>
fl ying</w>
pers on
agre ement</w>
sel ected</w>
n es</w>
be side</w>
g ation</w>
at t@@</w>
id ent
w in@@</w>
mec han
an ne</w>
em per
incre ase</w>
re sta
val ue</w>
s in@@</w>
destro yed</w>
p ment</w>
re la
it ors</w>
dang erous</w>
re ferred</w>
ma yor</w>
wil d</w>
gg ing</w>
not iced</w>
sp r
v is</w>
s ell</w>
qu ality</w>
g en@@</w>
ed ition</w>
gre ater</w>
fin @@</w>
we al
oper ated</w>
car ry</w>
phil o
sol ution</w>
et ball</w>
bask etball</w>
t ears</w>
who a</w>
c am@@</w>
por tra
st a</w>
do ors</w>
d u</w>
kno wing</w>
ta ught</w>
ima ge</w>
med al</w>
apart ment</w>
mo on</w>
en emy</w>
s ati
we dding</w>
au di
resta ur
d ney</w>
v in</w>
part ner</w>
cont em
certain ly</w>
ent ation</w>
al ex</w>
go als</w>
individu als</w>
bo dies</w>
whis pered</w>
auth ority</w>
198 7</w>
histor ical</w>
no se</w>
be sides</w>
ea sily</w>
sp i
surpri sed</w>
al ty</w>
an tly</w>
gol den</w>
l ack</w>
jew ish</w>
ap art</w>
ali zed</w>
st ations</w>
mis sed</w>
f ying</w>
all ed</w>
thre at
in corpor
saf ety</w>
pri son
3 8</w>
ben e
pu l
ze aland</w>
l in@@</w>
con tains</w>
ad dy</w>
ll e</w>
con ver
ab les</w>
c er</w>
phi c</w>
fl ic
dem an
i stic</w>
re moved</w>
un less</w>
i ll@@</w>
dri ver</w>
el d</w>
ed ward</w>
rema in</w>
198 6</w>
ma ss</w>
g le</w>
lan d
ran k</w>
p age</w>
tow n
rep lied</w>
con centr
p re</w>
lear ned</w>
chair man</w>
sh er</w>
mon d</w>
per cent</w>
n u
glan ced</w>
pro min
ch oo
di v
bor der</w>
b on@@</w>
bran ch</w>
3 4</w>
influ ence</w>
sma ller</w>
territ ory</w>
intell ig
high ly</w>
mo del
dri ving</w>
fing er</w>
con fir
m y@@</w>
ma ss
4 4</w>
hol e</w>
pac i
paci fic</w>
ton y</w>
i x</w>
th or
t ely</w>
fri end
congre ss</w>
m ac
vol un
tex t</w>
is lands</w>
sex ual</w>
di m
th i
happ ens</w>
str @@</w>
sp ar
re v
hea v
ri se</w>
v ice</w>
p ath</w>
se ball</w>
ba seball</w>
re publ
cla im</w>
j as
gra bbed</w>
t ally</w>
ar med</w>
hea ds</w>
ang ry</w>
sta dium</w>
dist inc
dec @@</w>
tem per
philo sop
ma il</w>
hur ry</w>
f ought</w>
s event
plan ning</w>
w ine</w>
es sion</w>
emper or</w>
m ile</w>
ven tion</w>
f arm</w>
produc er</w>
e ding</w>
pos itive</w>
ü @@</w>
champi onships</w>
int ended</w>
do ll
1 4@@</w>
l uck</w>
pres ented</w>
st ance</w>
re member
bo b</w>
198 5</w>
im pl
defin itely</w>
mat ches</w>
prin c
198 4</w>
sh ru
3 7</w>
silenc e</w>
engine ering</w>
el ev
re qui
ac count</w>
est ate</w>
dam age</w>
main ly</w>
s am@@</w>
ac ts</w>
da ily</w>
be d
sco tt</w>
z z</w>
tech ni
weap ons</w>
s ad
c y</w>
tri al</w>
c r@@</w>
f ar@@</w>
bit ch</w>
bir th</w>
t y@@</w>
gi a</w>
dou bt</w>
gun s</w>
respec t</w>
spl it</w>
newspap er</w>
ag ricul
for tun
ef fort</w>
bu sy</w>
sh el
hun g
piec es</w>
so li
over all</w>
enc @@</w>
cam pus</w>
youn ger</w>
f ra
shoul ders</w>
construc ted</w>
198 0</w>
anim al</w>
b ird</w>
beha vi
ac coun
o is</w>
i ii</w>
yell ow</w>
ser iously</w>
l ar@@</w>
bo tt
y ers</w>
6 4</w>
le aned</w>
d ated</w>
v an@@</w>
gra y</w>
b re@@</w>
multi ple</w>
g l@@</w>
n ur
elec tri
stom ach</w>
cur @@</w>
n is</w>
f ault</w>
possi bly</w>
mil @@</w>
j im</w>
min or</w>
ext ended</w>
cat eg
con ditions</w>
gr at
pat ter
er ly</w>
fav or
car eful</w>
democr atic</w>
ti ll</w>
s i</w>
re tired</w>
n ations</w>
c at</w>
connec ted</w>
ac comp
c in
a e</w>
is es</w>
lau gh</w>
er son</w>
h ang
est er
re y</w>
protec tion</w>
el and</w>
d ry</w>
b y
am i</w>
as ks</w>
ma r</w>
shor tly</w>
co m</w>
7 5</w>
lat ter</w>
ben ef
ow ner</w>
brea k
sc en
is s</w>
anim als</w>
la id</w>
t an@@</w>
char lie</w>
func tion</w>
t iny</w>
ty pes</w>
clear ly</w>
char t</w>
o b@@</w>
thou sand</w>
j ones</w>
produc ts</w>
pres sion</w>
art icle</w>
19 th</w>
lev els</w>
b ear</w>
g all
provi des</w>
mi xed</w>
t te</w>
accep ted</w>
gi an</w>
gar den</w>
mar ked</w>
rac es</w>
ac cident</w>
coll abor
dani el</w>
g ri@@</w>
par ish</w>
thou ghts</w>
pos itions</w>
st ick</w>
gradu ated</w>
dr ama</w>
ga ined</w>
ari o</w>
ad el
plea sure</w>
dru g</w>
fac ed</w>
bo y
g ro@@</w>
i z@@</w>
z er</w>
198 3</w>
sig n
tr uck</w>
ev il</w>
appar ently</w>
b right</w>
d or@@</w>
s ev
broad cast</w>
gent l
u g
brit ain</w>
s or@@</w>
produc e</w>
recogni zed</w>
c er@@</w>
ent h</w>
organi zed</w>
st ics</w>
convers ation</w>
g or@@</w>
k ness</w>
fore ver</w>
cri min
n i</w>
mar t</w>
appro ach</w>
differ ence</w>
offici ally</w>
du ke</w>
ex change</w>
cor ps</w>
ro me</w>
ic ans</w>
l an</w>
ei gh
wa ve</w>
issu ed</w>
equi pment</w>
wh er
hi de</w>
m ate</w>
sh u
air @@</w>
t all</w>
le ss
for ts</w>
tu al</w>
ch ris</w>
dra g
bir th
3 rd</w>
d in@@</w>
pl us</w>
ru p
m el@@</w>
pas sing</w>
198 2</w>
pow ers</w>
p et@@</w>
em en</w>
p ha
ear l</w>
after noon</w>
traff ic</w>
gr ace</w>
un able</w>
en g@@</w>
gradu ate</w>
treat ment</w>
house holds</w>
stay ed</w>
ad am</w>
com posed</w>
mal es</w>
reve aled</w>
tal ked</w>
re fer
ran ce</w>
ho st</w>
sea sons</w>
bo ston</w>
p ack</w>
bar ely</w>
champi on</w>
di am
cre ek</w>
divi ded</w>
p en@@</w>
s ol@@</w>
am p</w>
w ings</w>
inte gr
sp end</w>
activ ity</w>
pro posed</w>
n in
on line</w>
free dom</w>
ma g@@</w>
y ards</w>
bo w</w>
i us</w>
ed itor</w>
ee ded</w>
fr @@</w>
d em@@</w>
z ens</w>
et ry</w>
franc is
occu p
ic ity</w>
ste ve</w>
wal es</w>
pri ze</w>
happ ening</w>
municip ality</w>
s on@@</w>
an ti@@</w>
grow th</w>
197 9</w>
any body</w>
sp ain</w>
el ements</w>
tw el
ro oms</w>
enc ou
eu r</w>
fiel ds</w>
cl in
dem on
wa ited</w>
p ire</w>
acqu ired</w>
hu mans</w>
electri c</w>
colon el</w>
hou sing</w>
b loc
d um
imag ine</w>
ha u
li fted</w>
re sc
fl at</w>
de b
st ock</w>
ag ree</w>
squ ad
fem ales</w>
pro test
g g@@</w>
st i@@</w>
ex tra</w>
s as</w>
1 3@@</w>
ste el</w>
thir ty</w>
s na
n at
de dic
sp ok
won der
har ry</w>
ther ed</w>
t on@@</w>
as p
man n</w>
d an@@</w>
e z</w>
crow d</w>
chri st</w>
thre w</w>
gh o
ll i@@</w>
194 5</w>
reg iment</w>
str ong
ci v
ver ed</w>
poin ted</w>
de sk</w>
ton gue</w>
per man
ic ks</w>
s y@@</w>
o k@@</w>
tr u@@</w>
refu sed</w>
ra di
t one</w>
f alls</w>
leg isl
ste in</w>
pot ential</w>
k er@@</w>
absolu tely</w>
k in@@</w>
lau gh
f an</w>
tran sm
ba th
197 2</w>
opportun ity</w>
m en@@</w>
dig ital</w>
musi ci
sugg ested</w>
consi sts</w>
se tting</w>
dra wn</w>
du ty</w>
sm ell</w>
3 9</w>
f ts</w>
le tters</w>
z one</w>
pi ed</w>
mar ry</w>
198 0s</w>
1 0@@</w>
in i</w>
v i</w>
an th
mo b
za beth</w>
eli zabeth</w>
cr y
beli ev
fle et</w>
h ei
nati on
to tally</w>
su e</w>
re ment</w>
ta x</w>
a x
pos ite</w>
v el@@</w>
der i
adv ant
sec u
eff ects</w>
198 1</w>
co vers</w>
gu est</w>
h en@@</w>
moun tains</w>
attac ked</w>
rac ing</w>
d y@@</w>
ri st</w>
im possible</w>
197 4</w>
bene ath</w>
t op
resid ents</w>
ck ey</w>
re min
a sian</w>
fre sh</w>
pri mar
primar ily</w>
con flic
ev ol
pain ting</w>
ga in</w>
pic tures</w>
charac ter
m c
j ected</w>
fa shi
promo ted</w>
pu tting</w>
bra z
du tch</w>
ex clu
we ird</w>
1 2@@</w>
sc ale</w>
con sci
quart er</w>
ad dress</w>
p in@@</w>
en ge</w>
fo cused</w>
guit ar</w>
exc ell
f loo
han ded</w>
cor e</w>
cap tured</w>
197 0</w>
fr ed</w>
m i</w>
or ities</w>
broad ca
john son</w>
exp ect</w>
k an
carol ina</w>
z i@@</w>
lat in</w>
sati s
c at@@</w>
fin ding</w>
k h@@</w>
por @@</w>
any where</w>
initi al</w>
eg y
th ick</w>
197 5</w>
sha pe</w>
fir ed</w>
ul ty</w>
sar ah</w>
z i</w>
tran sport</w>
st ati
spir it</w>
town ship</w>
pu sh</w>
in si
d addy</w>
vam pire</w>
ag ency</w>
ar i</w>
197 6</w>
g al@@</w>
bo und</w>
con fi
d am</w>
ther wise</w>
o therwise</w>
s atur
defe at</w>
ir a</w>
j e@@</w>
francis co</w>
pal ace</w>
ner ship</w>
ro w
re ti
3 00</w>
lear ning</w>
fac es</w>
in ts</w>
197 8</w>
ama zing</w>
em bar
ac cept</w>
oul @@</w>
in ess</w>
manufac tur
bas is</w>
v ac
har d
la bel</w>
r on
dr a</w>
comfor table</w>
bir ds</w>
196 8</w>
win ner</w>
produc t</w>
cep tion</w>
trans ferred</w>
wonder ful</w>
cho sen</w>
glo bal</w>
o un
er ic</w>
197 0s</w>
ro of</w>
occur red</w>
int en
de pu
hu r</w>
a venue</w>
inter esting</w>
a b</w>
c as@@</w>
promis ed</w>
lea @@</w>
re turning</w>
clo @@</w>
alex ander</w>
chall enge</w>
demon str
corpor ation</w>
ac ity</w>
tar get</w>
ne u
adv anced</w>
la ws</w>
birth day</w>
t re@@</w>
pic ally</w>
lea ders</w>
enter tain
s word</w>
sa ved</w>
p un
star ing</w>
d ra@@</w>
w rest
k en@@</w>
enti @@</w>
reali ze</w>
brea king</w>
mass ac
com pared</w>
scot land</w>
n or@@</w>
no table</w>
mista ke</w>
bu ried</w>
a p</w>
obvi ously</w>
fam ili
becom es</w>
jer sey</w>
mis si
is a
pr o</w>
inter view</w>
18 0
l ined</w>
gro w</w>
st u@@</w>
na h</w>
consi der
th in</w>
ef forts</w>
col @@</w>
4 2</w>
cer em
pati ent</w>
not ice</w>
ing ham</w>
oc ean</w>
ent rance</w>
pro jects</w>
il a</w>
jo int</w>
a sia</w>
197 3</w>
camer a</w>
d r@@</w>
ty pically</w>
start s</w>
ic ated</w>
connec tion</w>
v ar@@</w>
sh ore</w>
secon d
second ary</w>
in str
pre par
jour nal</w>
l am@@</w>
t al@@</w>
cap @@</w>
bu t
m ped</w>
pre pared</w>
ght ened</w>
victor ia</w>
it able</w>
in sp
respon si
ner v
20 th</w>
197 7</w>
y u@@</w>
te a</w>
wor e</w>
4 8</w>
an ing</w>
de st
jack son</w>
ap preci
acad emic</w>
sup pose</w>
hel ping</w>
lo ad</w>
ha bit
l i</w>
fall ing</w>
s mart</w>
reas ons</w>
law yer</w>
sil @@</w>
medic ine</w>
b on</w>
att le</w>
li p</w>
industri al</w>
fin als</w>
5 5</w>
instr um
se lling</w>
avo id</w>
c ry</w>
as signed</w>
is ation</w>
philosop h
sim on</w>
196 9</w>
al right</w>
sil ent</w>
197 1</w>
plan et</w>
beg ins</w>
allow ing</w>
il ian</w>
suff ered</w>
e es</w>
k ins</w>
ur ban</w>
im per
es sed</w>
no tes</w>
tw @@</w>
gener ation</w>
br inging</w>
s al</w>
th u
answ ered</w>
gra phic</w>
consi der</w>
kan sas</w>
i er</w>
t om@@</w>
tre at</w>
gro wn</w>
head quarters</w>
f re@@</w>
oper a</w>
je an</w>
mo tion</w>
th o@@</w>
determin ed</w>
h ol@@</w>
sa d</w>
organi z
part ies</w>
inv ited</w>
oper ating</w>
aff airs</w>
ha w
mu sli
appoin t
ff s</w>
o on</w>
moun t</w>
a sh@@</w>
st e@@</w>
ad ap
our ed</w>
f s</w>
v on</w>
clu bs</w>
fe els</w>
ent ing</w>
ch ar@@</w>
tw are</w>
shar ed</w>
arre sted</w>
cover ing</w>
bor ough</w>
gir l
con v
ti sh</w>
sc ul
bea u
be er</w>
willi ams</w>
ing er</w>
de an</w>
promin ent</w>
stre ss</w>
hear ing</w>
st ar@@</w>
polit ician</w>
stre ets</w>
p ack
elec tions</w>
some how</w>
o hi
ohi o</w>
196 7</w>
n ar@@</w>
stan ces</w>
th inks</w>
ch o@@</w>
sing les</w>
sof tware</w>
con cept</w>
ter y</w>
wea ther</w>
y ester
yester day</w>
pi er
weap on</w>
an try</w>
la dies</w>
br and</w>
re aching</w>
ici ent</w>
an k
j o</w>
entertain ment</w>
l unch</w>
gu es</w>
op in
der ship</w>
m o</w>
cl ou
isra el</w>
reli ef</w>
c lock</w>
ell y</w>
g un@@</w>
cas h</w>
ong side</w>
al ongside</w>
liter ature</w>
crit ical</w>
mini stry</w>
clas ses</w>
bur gh</w>
et t</w>
metho d</w>
l ated</w>
environ ment</w>
repor ts</w>
remember ed</w>
k ings</w>
con dition</w>
mu t
fa ith</w>
in no
chall eng
mic hi
michi gan</w>
stan ds</w>
f arm
the ater</w>
declar ed</w>
terri ble</w>
famili ar</w>
fa ir
ent ry</w>
ght ers</w>
under stood</w>
off ers</w>
a vi
ne s
te aching</w>
gl as
tou ched</w>
pre gn
enjo y</w>
ri an</w>
tre as
uni que</w>
re ality</w>
j or
ol a</w>
inde ed</w>
ta r</w>
medi an</w>
cont ent</w>
sun day</w>
veh icle</w>
re comm
pull ing</w>
bri ef
san ta</w>
republ ican</w>
e ds</w>
expla ined</w>
inter net</w>
196 0s</w>
common ly</w>
sw @@</w>
plan ts</w>
ri er</w>
na val</w>
appear ances</w>
cap acity</w>
ne g
fact ory</w>
ho ll
d ale</w>
bi e</w>
w al@@</w>
p rou
cro ssed</w>
e h</w>
in gu
dis ease</w>
po lish</w>
art hur</w>
my ster
follow s</w>
enti rely</w>
s ites</w>
ag ing</w>
basi c</w>
princi pal</w>
contem porary</w>
tit led</w>
re serve</w>
ti ves</w>
s now</w>
m p@@</w>
4 1</w>
twel ve</w>
g ely</w>
ell a</w>
adop ted</w>
or che
orche str
in spec
enc ies</w>
concer ned</w>
f c</w>
m att
un like</w>
form erly</w>
surro unding</w>
as sa
sy dney</w>
albu ms</w>
pl ate</w>
wi lling</w>
p at@@</w>
st ri@@</w>
sm @@</w>
audi ence</w>
phili pp
fe el
feel ings</w>
gu ards</w>
ar ian</w>
ici ous</w>
re stor
jas on</w>
scienti fic</w>
war ri
dedic ated</w>
por tion</w>
e i@@</w>
recog n
shoo ting</w>
spe ech</w>
f ill</w>
ri f
lea dership</w>
on g@@</w>
her o</w>
ex pe
d d@@</w>
k ra
hop ing</w>
in sur
i z
kis sed</w>
stri ke</w>
fol k</w>
wor st</w>
princ ess</w>
g am@@</w>
b low</w>
o es</w>
purcha sed</w>
bb ing</w>
batt ali
z z@@</w>
un i@@</w>
list ening</w>
em er
z e@@</w>
analy sis</w>
comb ined</w>
ser t</w>
great est</w>
4 7</w>
f l</w>
ill e</w>
d ying</w>
l or@@</w>
g an@@</w>
op posite</w>
san ds</w>
flow ers</w>
j i@@</w>
recei ve</w>
ln @@</w>
cir cle</w>
shar p</w>
squad ron</w>
sup ply</w>
199 0s</w>
qu i@@</w>
in sul
sen ate</w>
ici de</w>
v o</w>
restaur ant</w>
exper im
b one</w>
s at
settl ement</w>
ide as</w>
continu es</w>
intellig ence</w>
fo under</w>
ic king</w>
ph y</w>
den sity</w>
wh i
r yan</w>
show ing</w>
m ention</w>
c ra@@</w>
an drew</w>
m on</w>
occu pied</w>
su pre
n ings</w>
app lied</w>
el im
bow l</w>
r ated</w>
j im
confi d
s u</w>
fac ilities</w>
hun ter</w>
sle eping</w>
ho ckey</w>
han d@@</w>
d ri@@</w>
lan e</w>
st uck</w>
í @@</w>
v es
al ities</w>
claim s</w>
ju mp</w>
di c</w>
ja ke</w>
ec tions</w>
sal es</w>
gi ft</w>
bri an</w>
ali sts</w>
uc e</w>
confir med</w>
k al@@</w>
n ate</w>
196 4</w>
w et</w>
deta ils</w>
n ated</w>
desig nated</w>
inf antry</w>
t une</w>
s wi
ell e</w>
ma y@@</w>
bed room</w>
wid ely</w>
k an@@</w>
au stri
volun te
pre s@@</w>
desp er
m it</w>
conduc ted</w>
come dy</w>
tran spor
ke ys</w>
g as
stre am</w>
rel ations</w>
exi st
po cket</w>
a id</w>
investig ation</w>
e ks</w>
196 5</w>
lea r</w>
u me</w>
f al
ex ist</w>
concer t</w>
bas @@</w>
ro ads</w>
ad ver
allow s</w>
di e
x ing</w>
plat form</w>
diti onally</w>
car rying</w>
attac ks</w>
194 4</w>
att or
si onal</w>
it t@@</w>
sol o</w>
kni fe</w>
h oo
tra ined</w>
se t
sing ing</w>
gran ted</w>
cred it</w>
sig nal</w>
tran s@@</w>
em ma</w>
imp act</w>
under standing</w>
candi date</w>
crimin al</w>
ec e</w>
p ur@@</w>
st o@@</w>
tur @@</w>
comm uni
pa ki
langu ages</w>
s em@@</w>
fac ility</w>
sh u@@</w>
x i</w>
polit ics</w>
g ab
s n</w>
es sing</w>
bb c</w>
196 6</w>
j r</w>
wol f</w>
geor gia</w>
scri pt</w>
ó @@</w>
pil ot</w>
ha m@@</w>
logi st</w>
d un
fi x</w>
ra il</w>
w il@@</w>
fav or</w>
in ner</w>
ki ller</w>
a i@@</w>
si vely</w>
se ats</w>
f ri@@</w>
web site</w>
emerg ency</w>
c y@@</w>
h ong</w>
f ting</w>
f a</w>
choo se</w>
u sa</w>
re plac
c ro@@</w>
colum bia</w>
n y@@</w>
pro ve</w>
man i
re sources</w>
im mi
na sty</w>
favor ite</w>
girl friend</w>
et ly</w>
smo ke</w>
lar gely</w>
model s</w>
s as
sem i</w>
dar kness</w>
sh ou
her it
up set</w>
comb at</w>
e en</w>
i ded</w>
lou d</w>
re mo
bri g
stat ement</w>
ta ste</w>
tra dition</w>
ber lin</w>
cro wn</w>
f ers</w>
ar ily</w>
our @@</w>
4 00</w>
5 2</w>
d ating</w>
rail road</w>
e ating</w>
scot tish</w>
revol ution</w>
com par
ru g
rug by</w>
ren amed</w>
cell s</w>
techn ical</w>
co at</w>
m et@@</w>
ä @@</w>
t op@@</w>
house hold</w>
el a</w>
17 9
pol @@</w>
dang er</w>
pap ers</w>
y m
bu re
estim ated</w>
advant age</w>
gu res</w>
fi gures</w>
r ural</w>
depu ty</w>
can cer</w>
fin ds</w>
bath room</w>
cha in</w>
k ick</w>
bi o
o t@@</w>
jan e</w>
yl or</w>
ta ylor</w>
qu es</w>
h l</w>
ki dding</w>
n am</w>
ra ise</w>
dev @@</w>
re ar</w>
gg s</w>
t am@@</w>
re action</w>
stan dar
es s@@</w>
h es
ter ing</w>
ti ed</w>
p ra@@</w>
tra il</w>
deci de</w>
k ong</w>
rou @@</w>
defin ed</w>
flo w</w>
fo x</w>
in n</w>
ger y</w>
st oc
fr ame</w>
du de</w>
mar ks</w>
ne go
gen e</w>
dec or
weal th</w>
s un@@</w>
b or</w>
kne es</w>
j an</w>
g am
b y@@</w>
i als</w>
al an</w>
no ise</w>
won dered</w>
4 3</w>
n on@@</w>
4 9</w>
m ess</w>
supre me</w>
196 0</w>
v el</w>
h on@@</w>
beau ty</w>
coun ter</w>
fig ured</w>
ent ure</w>
cre ation</w>
ac ked</w>
l ations</w>
g ment</w>
sea @@</w>
en s
sho es</w>
cap able</w>
st ra@@</w>
week end</w>
f ans</w>
fi xed</w>
independ ence</w>
in ch</w>
ó n</w>
br on
desi re</w>
a side</w>
new ly</w>
bour ne</w>
5 1</w>
ra d
d ol
at en</w>
do gs</w>
si er</w>
act ress</w>
six th</w>
sur ed</w>
t an</w>
detec tive</w>
t ted</w>
fa il
d le</w>
ab and
sw ear</w>
u te</w>
mar ia</w>
nuc lear</w>
v in@@</w>
o ted</w>
hang ing</w>
su res</w>
ew s</w>
unk no
unkno wn</w>
commun ities</w>
gra ph</w>
h ired</w>
so unded</w>
ro lling</w>
new @@</w>
bi lly</w>
reduc ed</w>
vi sible</w>
dre ams</w>
aband oned</w>
4 6</w>
cer ti
mem orial</w>
featur ing</w>
car ds</w>
ri son</w>
sh ock</w>
oo th</w>
eff ective</w>
v is@@</w>
insp ired</w>
l ew
trans fer</w>
cho se</w>
el i</w>
te ach
appoint ment</w>
identi fied</w>
nerv ous</w>
dr inking</w>
il es</w>
b la
cy cle</w>
particip ated</w>
si ghed</w>
gh t@@</w>
distribu tion</w>
devel op</w>
psy cho
citi zens</w>
ang el</w>
194 2</w>
le tting</w>
dist ingu
m ill</w>
r are</w>
ha sn</w>
t ask</w>
view ed</w>
t le</w>
b ang
j on
mat t</w>
c d</w>
provi ding</w>
ic ate</w>
proc e
b at@@</w>
m ur@@</w>
woo ds</w>
h in
ri dge</w>
l un
on ist</w>
boy friend</w>
bi llion</w>
hor ses</w>
heav ily</w>
vol ume</w>
pro te
a unt</w>
cre ating</w>
h om@@</w>
ang le</w>
lab or</w>
per form</w>
cir c
id es</w>
g ay</w>
ma xim
v ity</w>
ma p</w>
f are</w>
vis ited</w>
f ile</w>
correc t</w>
lo ts</w>
oo h</w>
enc h
ha ll
speci fic
fa ster</w>
dru gs</w>
ski lls</w>
viol ence</w>
su mm
196 3</w>
the mat
ma themat
ran ked</w>
mob ile</w>
bi ggest</w>
exist ence</w>
di pl
spok en</w>
bl ack@@</w>
tit les</w>
i di
j an@@</w>
con f
jo ining</w>
h ung</w>
ch in</w>
dro ve</w>
hi dden</w>
h in@@</w>
atlan tic</w>
dr unk</w>
classi c</w>
fin i
vi et
ri e</w>
dis appeared</w>
pas ses</w>
amer icans</w>
h ers</w>
wea k</w>
te ach</w>
u ries</w>
cent uries</w>
struc k</w>
dra ft</w>
back ground</w>
chang ing</w>
sc ar
gre y</w>
resul ted</w>
di sci
auth orities</w>
a im
ro les</w>
per forming</w>
ja zz</w>
tre ated</w>
prev ent</w>
g ently</w>
emplo yed</w>
194 1</w>
ol dest</w>
attemp ted</w>
196 2</w>
expan ded</w>
ew ay</w>
ban ds</w>
v ol@@</w>
inj ury</w>
ssi ons</w>
sop hi
v ements</w>
ni ght
t in@@</w>
con sul
gra b</w>
thre at</w>
hi lls</w>
k u</w>
ad ult</w>
or ange</w>
in ned</w>
liber al</w>
bri ef</w>
dar ling</w>
c king</w>
n on
ir ing</w>
stay ing</w>
k at@@</w>
194 0</w>
fic tion</w>
cu ri
form at</w>
jim my</w>
destro y</w>
is sed</w>
episo des</w>
mic ro@@</w>
ch art
bott le</w>
l ink</w>
wil son</w>
g n@@</w>
in c</w>
f und</w>
la p</w>
p ag
cham ber</w>
ra m</w>
in ois</w>
concer n</w>
f ar
ob serv
b ent</w>
n ick
stan tly</w>
d d</w>
offici als</w>
j unc
crit ics</w>
y l</w>
i ze</w>
wra pped</w>
contro lled</w>
encou ra
bur ned</w>
u kra
mi d@@</w>
i g</w>
gro unds</w>
be y</w>
hea d@@</w>
attor ney</w>
ill inois</w>
d al</w>
sh ops</w>
respec tively</w>
am y</w>
har v
sc oring</w>
prou d</w>
bloo dy</w>
form al</w>
pol and</w>
perman ent</w>
car efully</w>
ordin ary</w>
l at@@</w>
y wood</w>
thou sands</w>
imper ial</w>
c ally</w>
re sp
nego ti
il i@@</w>
dra wing</w>
incorpor ated</w>
ha b
ki m</w>
y u
ea sed</w>
stre t
r ics</w>
op position</w>
u s@@</w>
c e@@</w>
archit ecture</w>
fran k
cha se</w>
classi cal</w>
de pic
v el
con sequ
organiz ations</w>
com pos
5 6</w>
act ual</w>
s qu@@</w>
cau sing</w>
ni c</w>
f ool</w>
t ics</w>
ar ia</w>
th ed</w>
comp on
t am
success fully</w>
p ants</w>
ri s
194 8</w>
e a</w>
squ ad</w>
ident ity</w>
situ ated</w>
bi an</w>
5 4</w>
apo logi
un fortun
po ses</w>
s son</w>
ici al</w>
ar ab
ac he</w>
shru gged</w>
194 3</w>
rec ep
exi sting</w>
k am@@</w>
hop ed</w>
in t@@</w>
hi ding</w>
it u@@</w>
satur day</w>
s burg</w>
mon t</w>
sp ac
neighbor hood</w>
ru sh</w>
ch i</w>
swe e
wa ste</w>
alter native</w>
r ac@@</w>
the me</w>
pati ents</w>
an i</w>
ro ger</w>
phi a</w>
co ordin
guil ty</w>
bur ning</w>
w is
shi ft</w>
sym bo
ous in</w>
c ousin</w>
feder ation</w>
o s@@</w>
a st</w>
st ro@@</w>
eng aged</w>
gi ant</w>
pat rick</w>
administr ative</w>
7 th</w>
le ts</w>
tru ly</w>
b le@@</w>
r am
w ned</w>
b ol
193 9</w>
inv a
d or</w>
whe el</w>
dipl om
set ts</w>
pha se</w>
aff ili
sli d</w>
x i
se es</w>
fe ed</w>
r ic@@</w>
brig ade</w>
constitu tion</w>
frequ ently</w>
ay a</w>
be ll@@</w>
qui etly</w>
fu el</w>
tra ins</w>
relati vely</w>
g al
194 6</w>
196 1</w>
ho sted</w>
fashi on</w>
d re@@</w>
responsi bility</w>
rec ru
massac hu
massachu setts</w>
requ est</w>
resul ting</w>
bom b</w>
econom y</w>
mater ials</w>
adm itted</w>
f at</w>
bo und
che ek</w>
re views</w>
adm it</w>
neg ative</w>
bud dy</w>
enc oun
matt ers</w>
d al@@</w>
8 5</w>
lo vely</w>
attemp ts</w>
i b
hung ry</w>
c ow
trem ely</w>
ex tremely</w>
act ors</w>
li m@@</w>
itu al</w>
s ant</w>
hea ding</w>
9 5</w>
dr am
con tra
in ary</w>
5 3</w>
la unch</w>
in cident</w>
ar rest</w>
inter nal</w>
d dy</w>
we i
doll ars</w>
ec tor</w>
sa ke</w>
ri sing</w>
religi on</w>
passeng er</w>
r ach
rach el</w>
sec @@</w>
soldi er</w>
vo tes</w>
div or
ri a</w>
š @@</w>
confu sed</w>
i ed</w>
u lar</w>
mu l@@</w>
br u@@</w>
pri est</w>
d are</w>
ci a</w>
g ang</w>
et ed</w>
danc ing</w>
re ference</w>
hon est</w>
an n</w>
conflic t</w>
compl a
brief ly</w>
su bur
john ny</w>
si d@@</w>
pro ved</w>
tan k</w>
dir ty</w>
po t</w>
lab our</w>
embar ra
phil adel
philadel phia</w>
v als</w>
app ing</w>
b ones</w>
rela x</w>
195 0</w>
h eight</w>
opin ion</w>
educ ational</w>
olymp ics</w>
6 6</w>
op posed</w>
soli d</w>
bas s</w>
ill eg
woo den</w>
ob ject</w>
crit ic
dis gu
ac ks</w>
mir ror</w>
pol y@@</w>
lan ding</w>
coll ap
gh ly</w>
ex er
ban ks</w>
195 6</w>
promo tion</w>
sha ke</w>
bl in
nar row</w>
premi er</w>
p her</w>
ti er</w>
wal ter</w>
break fast</w>
k ev
kev in</w>
war ning</w>
regi ons</w>
tt a</w>
achi eved</w>
194 7</w>
o f@@</w>
laugh ing</w>
part @@</w>
clo sely</w>
p ink</w>
se ssion</w>
veh icles</w>
alli ance</w>
conserv ative</w>
pl ain</w>
ob tained</w>
li ft</w>
jour ney</w>
o bli
en z
li fe
fall en</w>
t ough</w>
i ra
inter ior</w>
h its</w>
195 8</w>
iti c</w>
battali on</w>
s ale</w>
d ick</w>
r ice</w>
li kes</w>
cr icket</w>
re place</w>
temper ature</w>
con vention</w>
brea thing</w>
195 9</w>
writ ers</w>
ver sions</w>
ex press</w>
br a</w>
sudd en</w>
dev ice</w>
ad ing</w>
it ch</w>
ou se</w>
u d</w>
communi st</w>
represent ative</w>
fail ure</w>
dur @@</w>
e f@@</w>
ja il</w>
st itu
lan d@@</w>
in ian</w>
pi ano</w>
st y
dis play</w>
junc tion</w>
experi enced</w>
survi ve</w>
scul p
appro ved</w>
ho li
n am@@</w>
fun ding</w>
v or</w>
performan ces</w>
ac le</w>
da vis</w>
c ook</w>
champi ons</w>
de ter
ent ally</w>
tor onto</w>
ther ap
si sters</w>
bi o@@</w>
pain ted</w>
gall ery</w>
char ged</w>
com po
pa int
surro unded</w>
g ary</w>
hor ri
specific ally</w>
for got</w>
don ald</w>
progre ss</w>
sol ved</w>
u t
it led</w>
ent itled</w>
mil ton</w>
wor n</w>
g est
ri d</w>
9 9</w>
gra ss</w>
squ ee
g y@@</w>
re l</w>
herit age</w>
ter r
d un@@</w>
adv oc
gentl emen</w>
sou ght</w>
adv is
uni verse</w>
po pe</w>
prin t</w>
bast ard</w>
regi ster</w>
succ eeded</w>
ty pical</w>
t is</w>
mi x</w>
a er
est ic</w>
ab ilities</w>
pro per</w>
mo di
metho ds</w>
obvi ous</w>
environ mental</w>
mom ents</w>
mi ller</w>
equ al</w>
et c</w>
adver ti
ul ti
ulti mat
ultimat ely</w>
coll @@</w>
w an</w>
unk @@</w>
assu med</w>
arran g
5 8</w>
won dering</w>
drag on</w>
scri p
sa r</w>
represent atives</w>
appl ication</w>
ob j
p on@@</w>
m ol@@</w>
s r</w>
hom es</w>
195 7</w>
som @@</w>
su al</w>
r hy
bure au</w>
lew is</w>
for th</w>
victi m</w>
er able</w>
recei ving</w>
orig in</w>
distric ts</w>
nor mally</w>
hol der</w>
step hen</w>
sci ences</w>
t ol
bu sh</w>
e y@@</w>
p et</w>
educ ated</w>
o v</w>
paki stan</w>
bel t</w>
dem and</w>
con tained</w>
5 7</w>
un c@@</w>
subsequ ent</w>
lu ke</w>
orchestr a</w>
6 2</w>
tr an@@</w>
p son</w>
for give</w>
ju mped</w>
sha dow</w>
regar ding</w>
ag s</w>
con vic
kore a</w>
su m
h h</w>
pu r</w>
ro l</w>
adv ice</w>
p m</w>
qu it</w>
min im
down town</w>
ad d</w>
b alls</w>
olymp ic</w>
f an
k il
cop y</w>
chem ical</w>
increas ing</w>
commissi oned</w>
att ached</w>
ser ge
imag es</w>
commun ication</w>
jo ke</w>
fac ing</w>
cat al
sec tor</w>
adv ance</w>
ch e@@</w>
hi p</w>
nom inated</w>
ther ing</w>
ev a</w>
op pon
di sm
col e</w>
ea sier</w>
t ario</w>
on tario</w>
co p</w>
le ep</w>
we b</w>
lea ds</w>
i st@@</w>
standar ds</w>
te dly</w>
pregn ant</w>
in et</w>
as y</w>
philosoph y</w>
every where</w>
8 th</w>
friend ly</w>
ma ssive</w>
suppor ting</w>
gho st</w>
i ff</w>
sig ns</w>
behavi or</w>
s p</w>
sp here</w>
north west</w>
grand father</w>
bac k@@</w>
195 5</w>
trav ell
cop ies</w>
ll o</w>
f m</w>
cr ying</w>
ma ke
movi es</w>
sof tly</w>
re stric
lo ves</w>
sw im
as leep</w>
bro ad</w>
off ices</w>
g il@@</w>
5 9</w>
col or
insur ance</w>
exten sive</w>
k elly</w>
adm ir
k y@@</w>
d ges</w>
resc ue</w>
def ence</w>
tow ns</w>
je ff</w>
maxim um</w>
s ending</w>
de al
po etry</w>
sha king</w>
b ol@@</w>
polit an</w>
program me</w>
ff ed</w>
worl d
world wide</w>
a w</w>
194 9</w>
re d@@</w>
art i
good bye</w>
tun nel</w>
wor k
cerem ony</w>
inj ured</w>
ou ts</w>
z o
co al</w>
wo unded</w>
in ity</w>
har dly</w>
g all@@</w>
h oo@@</w>
si zed</w>
si e</w>
ed die</w>
resi stance</w>
d am@@</w>
sch em
e tic</w>
pea k</w>
sm iling</w>
mem ories</w>
lev @@</w>
eng in
ox ford</w>
pro of</w>
tro pical</w>
val ry</w>
p ale</w>
excell ent</w>
emp ha
fi ghter</w>
om et
f li
n er@@</w>
fac ulty</w>
engin eer</w>
loo se</w>
teach ers</w>
7 2</w>
r end
dan ny</w>
ar ch@@</w>
chec ked</w>
s or</w>
k ate</w>
compet ed</w>
hea ven</w>
sh op
achi ev
195 0s</w>
inno cent</w>
c em
ken ne
ch ick
we st@@</w>
ep h
da ve</w>
me at</w>
impl em
dim en
bo t</w>
t el@@</w>
d na</w>
on ia</w>
f ame</w>
fo re@@</w>
bi gger</w>
n ell</w>
char ges</w>
195 2</w>
mon ster</w>
l f</w>
idi ot</w>
ā @@</w>
a h@@</w>
con test</w>
sel s</w>
con t@@</w>
dy nam
6 7</w>
commit ted</w>
gar d
195 4</w>
ti p</w>
bl ame</w>
franc is</w>
9 th</w>
c el@@</w>
prof it</w>
gu s</w>
ki d
n n</w>
san d@@</w>
so cc
socc er</w>
cin em
dem on</w>
wh it@@</w>
6 3</w>
b b@@</w>
pi res</w>
ca ve</w>
met ro
air ed</w>
f al@@</w>
how ard</w>
wat er@@</w>
art icles</w>
municip al</w>
ic h@@</w>
di str
e k@@</w>
par king</w>
can al</w>
hun t</w>
mm m</w>
6 1</w>
quali fied</w>
pro to
regi stered</w>
cor respon
swe dish</w>
195 3</w>
su gar</w>
re pu
br ick</w>
re quest
jew s</w>
f unds</w>
al bert</w>
ch u@@</w>
schedu led</w>
as sas
repres ent</w>
rou gh</w>
fif teen</w>
com pri
b ond</w>
ri ding</w>
clim ate</w>
ro ber
r ew
tw i
b la@@</w>
m un@@</w>
su b</w>
j ay</w>
coo per
su icide</w>
f ur@@</w>
strat eg
wan ting</w>
employ ees</w>
commun ications</w>
har der</w>
dec ades</w>
br an@@</w>
6 8</w>
sha ped</w>
fif ty</w>
a uc
clo sing</w>
u gu
sec ure</w>
incre di
pro pos
appro pri
po st
u t@@</w>
off ering</w>
bud get</w>
fini shing</w>
com ic</w>
su l@@</w>
ther ine</w>
re sear
hun dre
hundre ds</w>
arran ged</w>
exp ensive</w>
a o</w>
19 18</w>
b all@@</w>
8 8</w>
t ant</w>
kore an</w>
mor gan</w>
aff ected</w>
ge o
fle sh</w>
fo unding</w>
electr onic</w>
fri day</w>
mo tor</w>
liter ary</w>
an ni
develop ing</w>
x on</w>
re vi
bl ind</w>
di os</w>
de struc
l it</w>
for gotten</w>
t ape</w>
il er</w>
sli pped</w>
sur gery</w>
dom estic</w>
m ol
fle w</w>
categ ory</w>
n els</w>
b ite</w>
od d</w>
cro ssing</w>
show er</w>
perf ec
perfec tly</w>
be ar
treat y</w>
k ra@@</w>
lan ded</w>
ag gre
a bu
wher e
under ground</w>
sen ator</w>
sp an</w>
ac cur
survi ved</w>
scen es</w>
sh o@@</w>
al co
dist ur
alco ho
st in</w>
é e</w>
mex ican</w>
c ri@@</w>
vill ages</w>
sto res</w>
victi ms</w>
south east</w>
8 6</w>
ac ti
gra ve</w>
the o
expan sion</w>
st ating</w>
k er
hu man
di al
com mo
co sts</w>
0 1</w>
gran ts</w>
li qu
week ly</w>
ill ery</w>
m it@@</w>
gh ted</w>
pu l@@</w>
na ked</w>
fla g</w>
cra w
ma ker</w>
ti m@@</w>
at tered</w>
comb ination</w>
terr or
row ed</w>
i um</w>
att end</w>
pas @@</w>
h at@@</w>
li shed</w>
lab or
consi sted</w>
brea the</w>
c c@@</w>
stud ying</w>
or a</w>
bal ance</w>
l as</w>
appreci ate</w>
de e
ir o</w>
u se
kno ck</w>
sh oc
g on@@</w>
p it</w>
circu it</w>
gh s</w>
ti an</w>
appro ached</w>
ey e
ap s</w>
ch or
u el</w>
p uni
wat ers</w>
enti ally</w>
mo ves</w>
195 1</w>
ep er</w>
gar ian</w>
protec ted</w>
deli vered</w>
influ enced</w>
w right</w>
gr in</w>
land sc
t um
wit ne
dec k</w>
produc ing</w>
est y</w>
7 6</w>
su peri
man age</w>
en na</w>
p ure</w>
sat ell
it ems</w>
co ps</w>
z o@@</w>
gu ide</w>
st ones</w>
b in</w>
braz il</w>
institu tions</w>
mul ti</w>
l en@@</w>
regar ded</w>
ho st
inva sion</w>
enjo yed</w>
6 00</w>
b ap
w y@@</w>
eng ines</w>
clar k</w>
pal m</w>
gr an@@</w>
t emp
zer o</w>
in c@@</w>
k han</w>
ex ter
ti m</w>
func tions</w>
jo bs</w>
n ic@@</w>
publ ication</w>
patter n</w>
ra pi
de sert</w>
occu r</w>
w ins</w>
di ag
presid ential</w>
ac t@@</w>
cri sis</w>
20 @@</w>
ick ets</w>
as se
w o@@</w>
cre te</w>
establi shment</w>
al ice</w>
archit ect</w>
log an</w>
cred ited</w>
bl u
cu te</w>
a ster
re ven
sevent h</w>
al u
s me
d c</w>
n ity</w>
mil k</w>
import ance</w>
t ine</w>
st able</w>
sc ent</w>
an ia</w>
degre es</w>
ve get
dep lo
it ated</w>
val ent</w>
an dy</w>
mean while</w>
t uc
w an@@</w>
exhib ition</w>
ther lands</w>
ne therlands</w>
sto l</w>
ed ly</w>
vi sual</w>
sk a</w>
invest ment</w>
li a</w>
r ati
la b</w>
c ement</w>
re al
cap e</w>
musli m</w>
bu dd
in ations</w>
ew ed</w>
ll board</w>
bi llboard</w>
po et</w>
su sta
th a</w>
u ser</w>
193 8</w>
illu str
gr u@@</w>
d ged</w>
shi fted</w>
cem et
cra sh</w>
agricul tural</w>
p y@@</w>
cemet ery</w>
simil ar
th um
ob served</w>
hun ting</w>
journ alist</w>
ar cha
6 9</w>
an ti
y n@@</w>
18 th</w>
lo an</w>
mar ie</w>
ro y</w>
an n@@</w>
pi on
m ama</w>
h ated</w>
cl ay</w>
pre c
discu ss</w>
proper ties</w>
conver ted</w>
p el@@</w>
tal ent</w>
7 7</w>
te en
vers ary</w>
w ich</w>
jor dan</w>
m ²</w>
k m²</w>
cap ture</w>
k il@@</w>
struc tures</w>
k or@@</w>
pl enty</w>
ca the
pay ing</w>
bron ze</w>
ch an@@</w>
appear ing</w>
north east</w>
om an</w>
sp ell</w>
w ag
ch er@@</w>
bo ther</w>
es ome</w>
argu ed</w>
ti le</w>
s ew
m ly</w>
ru led</w>
ow ed</w>
docum entary</w>
goo ds</w>
tor al</w>
ac cused</w>
exc ited</w>
make up</w>
go ds</w>
fi shing</w>
el even</w>
pre dic
sol ve</w>
w ound</w>
star ring</w>
chap el</w>
hel or</w>
bac helor</w>
con taining</w>
f le@@</w>
stu dios</w>
schol ar
v d</w>
person nel</w>
be ating</w>
8 9</w>
swe den</w>
sal t</w>
e v</w>
p se</w>
tim ate</w>
dev il</w>
m itted</w>
pau sed</w>
ro cks</w>
ma c</w>
resid ence</w>
a w@@</w>
193 6</w>
v it@@</w>
consi st
estab lish</w>
vic tor</w>
s sy</w>
ar gent
7 8</w>
19 20</w>
institu tion</w>
recogn ition</w>
cl u@@</w>
somew hat</w>
un usual</w>
disci pl
st um
exam ples</w>
separ ated</w>
mer ged</w>
e o</w>
repu tation</w>
ap p@@</w>
strat e
sher iff</w>
f ra@@</w>
recogni ze</w>
ob jects</w>
v eter
k icked</w>
mo sco
l ers</w>
sh ell</w>
for ty</w>
circ um
coll ected</w>
cra p</w>
s ab@@</w>
ar ch</w>
f ate</w>
a st@@</w>
be gun</w>
ja w</w>
t to</w>
ha y@@</w>
wrest ling</w>
cr u@@</w>
main tain</w>
pho to</w>
the sis</w>
am ic</w>
pl ed</w>
jack et</w>
unfortun ately</w>
cab inet</w>
main tained</w>
purcha se</w>
wit ness</w>
const ant</w>
mon t
threat ened</w>
f as
ne st</w>
po sing</w>
tou ch
bl ack
loc ations</w>
tri bu
f el@@</w>
di sa
dou @@</w>
con c
cla ire</w>
ev al</w>
at ch</w>
test s</w>
shop ping</w>
h ur@@</w>
su ggest</w>
inter ests</w>
i v</w>
jo y</w>
i van</w>
e than</w>
o v@@</w>
serge ant</w>
ly rics</w>
gra pher</w>
war s</w>
ay e</w>
dri ven</w>
n an@@</w>
d hood</w>
chil dhood</w>
sn apped</w>
cau ses</w>
9 8</w>
an der
ro ck
art illery</w>
p lot</w>
expres sed</w>
glas ses</w>
op tion</w>
et on</w>
sp ending</w>
con qu
moun ted</w>
ac cu
0 th</w>
je al
program ming</w>
st an@@</w>
ly n</w>
an k</w>
gen us</w>
vo ted</w>
f ed</w>
impro ved</w>
193 7</w>
mu sc
wor @@</w>
bu ff
schedu le</w>
mur dered</w>
pu shing</w>
clear ed</w>
holl ywood</w>
tur key</w>
reti rement</w>
metro politan</w>
8 2</w>
chur ches</w>
impro ve</w>
oper ate</w>
arri val</w>
mosco w</w>
man ner</w>
th ri
p en</w>
sm ooth</w>
8 7</w>
compos er</w>
c he</w>
ber ry</w>
es cor
19 19</w>
ic ing</w>
re ments</w>
ro ws</w>
dow n@@</w>
ch ers</w>
appropri ate</w>
ec tively</w>
cre am</w>
19 17</w>
or i@@</w>
em ies</w>
paint ings</w>
ul ous</w>
en ses</w>
t ic
legisl ative</w>
fo cu
de f@@</w>
qu ant
repe ated</w>
fl u@@</w>
boo @@</w>
hor ror</w>
ni ghts</w>
h il@@</w>
k night</w>
deri ved</w>
fru it</w>
ri dic
em ily</w>
in duc
after wards</w>
broadca sting</w>
ex hau
i zation</w>
mea sure</w>
val u
bo ats</w>
r one</w>
d son</w>
re gre
wit ch</w>
stea m</w>
employ ment</w>
cart er</w>
dr al</w>
cathe dral</w>
y l@@</w>
s n@@</w>
9 6</w>
val ues</w>
tou ri
sec tions</w>
f ter</w>
an ian</w>
y land</w>
wa ves</w>
medi um</w>
wal ker</w>
arch i
8 1</w>
8 4</w>
lau ghter</w>
consci ous</w>
requ ire</w>
bu tton</w>
et ings</w>
keep er</w>
die go</w>
sc ar</w>
ag ents</w>
in al</w>
transpor tation</w>
b id</w>
met ers</w>
sel ection</w>
shi eld</w>
anth ony</w>
su rely</w>
re sem
car l</w>
cli ent</w>
met res</w>
8 3</w>
up stairs</w>
roman tic</w>
all eg
publi shing</w>
7 4</w>
7 1</w>
mu s
contribu ted</w>
man chester</w>
con tain</w>
au g
athle tic</w>
con trac
per mission</w>
ca p</w>
n el
gre g
t d</w>
sol e</w>
convin ced</w>
south west</w>
wa ist</w>
assist ance</w>
fl ash</w>
possi bility</w>
escap ed</w>
19 14</w>
p ine</w>
gor don</w>
provin cial</w>
go dd
le ans</w>
dy nasty</w>
193 0</w>
ow ners</w>
fe ll
dam aged</w>
bo bby</w>
keep s</w>
re fers</w>
m ood</w>
chick en</w>
ea u</w>
gu ests</w>
colon ial</w>
o tt
test ing</w>
lic ense</w>
ow s</w>
deman ded</w>
col n</w>
du st</w>
nic hol
viet nam</w>
por ts</w>
san d
lin coln</w>
h un@@</w>
se an</w>
9 7</w>
re ver
mal ay
in k@@</w>
ha mp
in er</w>
di oc
us ers</w>
strong er</w>
so ta</w>
mi ll@@</w>
tr ick</w>
cour ses</w>
rec i
b un@@</w>
introduc tion</w>
ent ering</w>
uti onary</w>
fil es</w>
bad ly</w>
phili p</w>
lo aded</w>
b lo@@</w>
bro w</w>
ro o
docum ents</w>
physi ci
re form</w>
b ath</w>
ap pe
lo tte</w>
illeg al</w>
p ers</w>
k on@@</w>
b il@@</w>
d p</w>
dec ade</w>
flow er</w>
j am@@</w>
fro @@</w>
min ing</w>
lea ther</w>
a than</w>
d ley</w>
w all
cou ch</w>
1 50</w>
m ps</w>
re turns</w>
ne sota</w>
min nesota</w>
appl ications</w>
anni versary</w>
cam bridge</w>
prison ers</w>
ge on</w>
p ad@@</w>
consi dering</w>
bl ade</w>
at ically</w>
enter pri
l ec
k ir
represent ing</w>
c able</w>
la m</w>
gol f</w>
193 5</w>
n an</w>
pa int</w>
mel bourne</w>
z u@@</w>
be tra
fact or</w>
nur se</w>
bl in</w>
lo com
str ing</w>
g ent</w>
rac ial</w>
ar o@@</w>
pla stic</w>
o gue</w>
inst alled</w>
sho ts</w>
indi ana</w>
9 2</w>
suff ering</w>
fac ts</w>
con grat
g i</w>
stri p</w>
app eal</w>
tom my</w>
belie f</w>
st eal</w>
fru str
sub stan
ten nis</w>
sett le</w>
7 3</w>
ne tt</w>
bur st</w>
sur vey</w>
ha r</w>
egy pt</w>
color ado</w>
strateg y</w>
candi dates</w>
jer ry</w>
part ners</w>
vam pires</w>
cu tting</w>
bo ards</w>
x i@@</w>
z ona</w>
193 3</w>
si onally</w>
photo graph
con crete</w>
7 9</w>
pain ter</w>
fi re@@</w>
am at
ag u
co ck</w>
woo d@@</w>
ru pt</w>
ow e</w>
0 0@@</w>
o tic</w>
g y</w>
f it
b ble</w>
gr am
suspec t</w>
foot ball
football er</w>
mu m
regu larly</w>
ten nes
tennes see</w>
w are</w>
i si
dis co
disco very</w>
stea dy</w>
vis iting</w>
i p@@</w>
exten sion</w>
en ess</w>
s at@@</w>
rou ghly</w>
sev ere</w>
part nership</w>
rup ted</w>
ru s</w>
pe ac
sam uel</w>
promo te</w>
th m</w>
assa ult</w>
s ad@@</w>
bloc ks</w>
p an</w>
gab ri
ca ke</w>
ar ena</w>
ic i@@</w>
h n</w>
hy dro@@</w>
kno cked</w>
se ek</w>
st ical</w>
l am
c ried</w>
č @@</w>
che eks</w>
pho @@</w>
ga thered</w>
mo tor
19 29</w>
answ ers</w>
r ating</w>
mu m</w>
circum stances</w>
ay ne</w>
ap ol
g ates</w>
swim ming</w>
bo ar
tw in</w>
st or@@</w>
organ isation</w>
mi lli
ur s</w>
di son</w>
re move</w>
mis sions</w>
uni form</w>
p are</w>
respon ded</w>
g in</w>
po st@@</w>
is s
sour i</w>
e ing</w>
resp ond</w>
thro wing</w>
occur s</w>
benef it</w>
gre en@@</w>
viol ent</w>
n fl</w>
mon o@@</w>
exi sted</w>
gh ty</w>
der ick</w>
ugu ese</w>
port uguese</w>
mis souri</w>
ander son</w>
ex tre
sh y</w>
e ous</w>
n t</w>
form @@</w>
plea sed</w>
a th@@</w>
prote in</w>
do zen</w>
ha i</w>
re signed</w>
op e</w>
cap it
t ab@@</w>
cre ature</w>
r ant</w>
bel ong</w>
techni ques</w>
pp y</w>
ch a</w>
cour ts</w>
is sa</w>
passeng ers</w>
locom o
v s</w>
unc ed</w>
du ties</w>
de sh</w>
archa e
mic ro
sp o@@</w>
wat er
fore head</w>
in don
mp ing</w>
j essi
st are</w>
secu tive</w>
con secutive</w>
stor age</w>
strugg le</w>
tem porary</w>
dee ply</w>
o b</w>
b unch</w>
ad ul
st ol
stol en</w>
m art@@</w>
compet e</w>
deter mine</w>
ca a</w>
so ci@@</w>
the tic</w>
wh en
when ever</w>
occa sionally</w>
kne e</w>
ani ed</w>
accomp anied</w>
mi ami</w>
ō @@</w>
lim it</w>
sear ching</w>
e ggs</w>
supp lies</w>
ri vers</w>
is ol
ma d@@</w>
pla yo
193 4</w>
off @@</w>
use ful</w>
sw iss</w>
el em
par all
pan ic</w>
mol ecu
conclu ded</w>
def ensive</w>
hou ston</w>
formu la</w>
all en</w>
pers ons</w>
ric h
call @@</w>
tec h</w>
ari zona</w>
9 3</w>
in san
do x</w>
off ensive</w>
clo thing</w>
pre pare</w>
nor way</w>
jam ie</w>
so il</w>
be c</w>
vis itors</w>
re in
distingu ished</w>
ø @@</w>
b ay@@</w>
s man</w>
re jected</w>
ge e</w>
r ates</w>
all e
t icket</w>
col ony</w>
bu l@@</w>
do or
gl as</w>
me di@@</w>
y d</w>
n ag@@</w>
sent ence</w>
mar yland</w>
la u@@</w>
att ribu
gl ance</w>
custom ers</w>
g ender</w>
histor ian</w>
scri ption</w>
holi day</w>
desig ns</w>
mo de</w>
b ag@@</w>
reg on</w>
o regon</w>
ow a</w>
bran ches</w>
b ach</w>
um s</w>
clou d</w>
fal se</w>
fun eral</w>
tur k
turk ish</w>
k y
v ic@@</w>
char lotte</w>
k ur@@</w>
spon sor
reduc e</w>
sle pt</w>
in son</w>
en emies</w>
c z
i e@@</w>
ar ab</w>
get @@</w>
ad ding</w>
a di@@</w>
ac id</w>
pp i</w>
mis sil
r at</w>
consi sting</w>
c c</w>
indon e
sequ ence</w>
for tune</w>
a ka</w>
prin ted</w>
d vd</w>
schem e</w>
gri p</w>
ap ple</w>
cre ative</w>
appro val</w>
descri be</w>
civ ili
p ir
lin ked</w>
no where</w>
ex posed</w>
sp ell
e c</w>
vo ices</w>
g ol@@</w>
continu ing</w>
di ary</w>
popu lar
busin esses</w>
ous ness</w>
cou ples</w>
car din
e z
associ ate</w>
ridic ulous</w>
mar i@@</w>
wis con
wiscon sin</w>
t ations</w>
ri o</w>
k an</w>
ex act</w>
sal em</w>
mo vements</w>
wr @@</w>
char ity</w>
19 28</w>
har m</w>
ha milton</w>
earli est</w>
vi c</w>
al o@@</w>
musici ans</w>
h s</w>
9 4</w>
am bas
com fort</w>
y m</w>
t in</w>
se as</w>
en sure</w>
sh e@@</w>
thro wn</w>
the w</w>
mat thew</w>
gr inned</w>
sig ning</w>
rel ative</w>
go d
ei ved</w>
dic tion</w>
a a</w>
univers al</w>
wi shed</w>
d ol@@</w>
i ons</w>
distinc t</w>
se th</w>
agricul ture</w>
th rone</w>
not ably</w>
we gian</w>
nor wegian</w>
sub jects</w>
bull @@</w>
univers ities</w>
p ic@@</w>
b it@@</w>
dou glas</w>
mar gar
margar et</w>
br uce</w>
ho p</w>
ong st</w>
am ongst</w>
sing ap
singap ore</w>
ex ec
ce iling</w>
zer land</w>
ł @@</w>
rapi dly</w>
swit zerland</w>
ton io</w>
an tonio</w>
sa u@@</w>
dow @@</w>
satell ite</w>
da wn</w>
inc t</w>
su san</w>
ch ant</w>
at mo
scre am</w>
inst ance</w>
philipp ines</w>
termin al</w>
eg es</w>
je ans</w>
no d</w>
fro wned</w>
er t</w>
contra st</w>
á n</w>
ssi @@</w>
str on
do c</w>
ex it</w>
cry stal</w>
be t@@</w>
in aug
substan ti
aff air</w>
mea sures</w>
col ors</w>
193 2</w>
v eg
d om@@</w>
in nov
distribu ted</w>
thou se</w>
descri bes</w>
concer ns</w>
pri de</w>
ambas sad
san g</w>
divi sions</w>
bu ll</w>
in habit
inhabit ants</w>
shou ted</w>
s mo@@</w>
b ir@@</w>
swit ch</w>
al ties</w>
si m@@</w>
fa ke</w>
lon g@@</w>
ex plan
po em</w>
mi c</w>
g lo@@</w>
19 22</w>
pl an@@</w>
pol e</w>
que ens
queens land</w>
gr ation</w>
rob in</w>
o d@@</w>
9 1</w>
st ole</w>
pur poses</w>
ser v@@</w>
k ir@@</w>
musici an</w>
it ure</w>
gu lar</w>
jo sh</w>
sk y@@</w>
b are</w>
aw ful</w>
20 s</w>
o v
d ay
fin ance</w>
ac cid
r ent</w>
on able</w>
h u</w>
spec tive</w>
de aling</w>
y an
leg end</w>
ç @@</w>
mer ely</w>
br ac
he art@@</w>
alcoho l</w>
u x</w>
j ar@@</w>
particip ate</w>
physi cs</w>
t ons</w>
si mul
am p
accoun ts</w>
desper ate</w>
ci gar
voc als</w>
coll ea
ci se</w>
ali zation</w>
ma sters</w>
dep ending</w>
sco @@</w>
t us</w>
pul se</w>
j et</w>
conduc t</w>
17 th</w>
19 24</w>
twi sted</w>
ab s
expe dition</w>
techni que</w>
ro ots</w>
dioc ese</w>
h it
ir an</w>
sk ir
a f</w>
kil omet
eth nic</w>
t z</w>
austri a</w>
19 27</w>
enti ons</w>
mut tered</w>
li ght
emer ged</w>
tr act</w>
193 0s</w>
si lly</w>
ira q</w>
cont ex
ch uc
p ap@@</w>
ar c
exp ecting</w>
e qu@@</w>
b east</w>
ra ising</w>
hel en</w>
trav eled</w>
jac ent</w>
ad jacent</w>
boo ts</w>
n at@@</w>
isl amic</w>
o id</w>
l ily</w>
y ep</w>
ch ess</w>
direc tors</w>
193 1</w>
int ense</w>
19 21</w>
cou @@</w>
ur ing</w>
pa irs</w>
jon athan</w>
dr o</w>
ver ing</w>
rif le</w>
tri be</w>
produc tions</w>
bac ked</w>
fl ed</w>
deb ate</w>
amat eur</w>
j ury</w>
3 0@@</w>
phi l</w>
to ols</w>
st ab
er ie</w>
el i@@</w>
k h</w>
cu l@@</w>
ber ed</w>
luc as</w>
requi res</w>
no v@@</w>
our selves</w>
o y</w>
isra eli</w>
l ac
bap ti
19 12</w>
wh il
whil st</w>
star red</w>
19 10</w>
por t@@</w>
congrat ul
sc an
gi ble</w>
belong ed</w>
who ever</w>
w el@@</w>
in e@@</w>
ew ork</w>
el ement</w>
mon day</w>
loc @@</w>
m ers</w>
dir t</w>
br ings</w>
r ical</w>
guar an
w ayne</w>
grand mother</w>
sla ve</w>
a sh
mon aster
liter ally</w>
k ent
sha dows</w>
me d@@</w>
mo ti
for mally</w>
extre me</w>
p ha@@</w>
bull et</w>
ra w</w>
ta g</w>
bro w
reven ge</w>
nati onally</w>
19 16</w>
stro ke</w>
lo ver</w>
no l
ss ell</w>
be an</w>
mar shall</w>
pal est
i o@@</w>
bea @@</w>
pers onally</w>
d all
dall as</w>
stra i
19 25</w>
m am@@</w>
f ant
fant asy</w>
bre ad</w>
dev ices</w>
p ages</w>
pass age</w>
commissi oner</w>
bro ws</w>
ha wa
pro test</w>
juli a</w>
19 15</w>
th ly</w>
superi or</w>
therap y</w>
f bi</w>
mat h</w>
cab in</w>
st al
ab sor
ev er@@</w>
f ab
differ ences</w>
pet e</w>
sh ine</w>
resid ential</w>
c in@@</w>
bar s</w>
n caa</w>
ec ho
su m</w>
doc tors</w>
str ang
spea ker</w>
ñ @@</w>
logi es</w>
admir al</w>
ch y</w>
attrac ted</w>
fi a</w>
tro it</w>
de troit</w>
st ages</w>
8 00</w>
ad ditionally</w>
uc ky</w>
kent ucky</w>
flo @@</w>
lu x
ou ter</w>
sa ving</w>
wh it
te enth</w>
sha w</w>
19 23</w>
com ics</w>
hel ic
fil ed</w>
ici ans</w>
immedi ate</w>
sha me</w>
del eg
c on</w>
im pres
ro ck@@</w>
ju an</w>
emo tional</w>
destruc tion</w>
ici zed</w>
fre a
is er</w>
p in</w>
mark ets</w>
est ly</w>
ici a</w>
ru st</w>
b lake</w>
godd am
goddam n</w>
re ign</w>
helic op
n ish</w>
schol ars</w>
leg is
is sion</w>
was h</w>
ta i
me ets</w>
bow @@</w>
luc y</w>
duc @@</w>
for cing</w>
al o</w>
lou isi
louisi ana</w>
harv ard</w>
st ew
af gh
col our</w>
s c</w>
bi ke</w>
c m</w>
m eal</w>
classi fied</w>
sp in</w>
member ship</w>
pow ered</w>
ch ea
z ard</w>
bl ues</w>
person ality</w>
lli ant</w>
bri lliant</w>
s z@@</w>
ga u@@</w>
co l</w>
cent @@</w>
fan ta
g ear</w>
h m</w>
i stry</w>
ch oc
vi ll@@</w>
b at</w>
achi eve</w>
ag u@@</w>
sl am
19 26</w>
sex y</w>
c art@@</w>
friend ship</w>
s ley</w>
cor ri
bro o
e th@@</w>
gre ece</w>
pu ts</w>
medi eval</w>
def end</w>
2 50</w>
s ri</w>
me etings</w>
confid ence</w>
fur n
sugg ests</w>
bac ks</w>
fran ch
stop s</w>
19 @@</w>
assu me</w>
ignor ed</w>
be lle</w>
fre derick</w>
es a</w>
un a</w>
tor ate</w>
de serve</w>
ari st</w>
h art</w>
k yo</w>
ea ble</w>
19 00</w>
prof ile</w>
hon or
dau ghters</w>
ou l</w>
ali a</w>
arri ve</w>
instrum ents</w>
in formed</w>
cl an</w>
ran g</w>
fact ors</w>
z ar@@</w>
emo tions</w>
deci sions</w>
com position</w>
r at@@</w>
j er@@</w>
c ell@@</w>
haw k</w>
p ace</w>
adul ts</w>
aw esome</w>
argu ment</w>
har ris</w>
coa stal</w>
psy ch
exper t</w>
tur ing</w>
se attle</w>
sco pe</w>
myster y</w>
bar a</w>
comp ani
sh r
co s</w>
horri ble</w>
ll ers</w>
w at@@</w>
er ies</w>
corpor ate</w>
lar ry</w>
ã o</w>
diam ond</w>
1 6th</w>
ra pid</w>
eigh th</w>
k ent</w>
ge ous</w>
in ches</w>
ch er
fac tion</w>
see king</w>
a im</w>
m are</w>
fol ded</w>
occup ation</w>
plea sant</w>
ves sel</w>
sol ar</w>
de pression</w>
kenne dy</w>
th ic</w>
hon our</w>
ru m
ru ssell</w>
n an
af ford</w>
strong ly</w>
c ab@@</w>
br un
arm en
bi ble</w>
jac ob</w>
j on</w>
r ender</w>
na vi
mo ore</w>
pit ch</w>
bull shit</w>
gg y</w>
un ted</w>
out standing</w>
b ags</w>
comp @@</w>
rou tes</w>
propos al</w>
ro b</w>
wr ence</w>
la wrence</w>
g ments</w>
r ings</w>
bli @@</w>
ar k</w>
ch en</w>
is ms</w>
ph en
ph ra
pres sing</w>
hom a</w>
den ied</w>
w ire</w>
y e@@</w>
deta il</w>
virg in</w>
bat tery</w>
invol ving</w>
enc ing</w>
suff icient</w>
hur ric
g in@@</w>
le g@@</w>
equi valent</w>
je ff
la sted</w>
coo per</w>
repres ents</w>
de eper</w>
ear ed</w>
heal thy</w>
parall el</w>
alli ed</w>
pos iti
th i@@</w>
re solution</w>
manufactur ing</w>
h itting</w>
f i</w>
e ed</w>
iss ance</w>
tro phy</w>
elem entary</w>
st re@@</w>
hand some</w>
ec k</w>
inst all
scre aming</w>
eph one</w>
pat ri
lic en
li sa</w>
pan el</w>
sh ar@@</w>
ssi ppi</w>
missi ssippi</w>
acti vi
el der</w>
se bast
el e</w>
frequ ency</w>
f an@@</w>
s le@@</w>
coun ties</w>
stret ched</w>
in cid
nor man</w>
v as@@</w>
mark eting</w>
a qu@@</w>
b ou@@</w>
b ad@@</w>
in her
econom ics</w>
me l</w>
ca valry</w>
ro unds</w>
dep th</w>
tel ephone</w>
am ent</w>
er o</w>
ú @@</w>
ru m@@</w>
s ab
popular ity</w>
mathemat ics</w>
hall way</w>
warri or</w>
le o</w>
car bon</w>
es se</w>
pic king</w>
electr icity</w>
mp tion</w>
bab @@</w>
sens itive</w>
mus cles</w>
equi pped</w>
maj esty</w>
m m@@</w>
ce o</w>
gard ens</w>
b un
pro mp
oli ver</w>
fic ations</w>
t s@@</w>
tra ding</w>
ba i</w>
consider able</w>
si gh</w>
ha l</w>
compl icated</w>
w ick</w>
oper ates</w>
al ab
alab ama</w>
bar on</w>
phi @@</w>
i ding</w>
be ars</w>
im pressed</w>
de e</w>
replac ement</w>
in o@@</w>
bar ry</w>
sym pa
ven ess</w>
mur mur
pra ised</w>
ch arts</w>
hi ps</w>
m us</w>
hon estly</w>
curi ous</w>
sli de</w>
sli p</w>
i owa</w>
h em@@</w>
chem istry</w>
low ered</w>
signific antly</w>
ss a</w>
increas ingly</w>
shoc ked</w>
mid night</w>
restor ed</w>
juli an</w>
sal v
ten sion</w>
desig ner</w>
posse ssion</w>
pat rol</w>
gu lf</w>
be g</w>
adv enture</w>
r al
ch ill</w>
fu l
colum n</w>
gar age</w>
i stics</w>
par ker</w>
d in</w>
ti a</w>
hel ps</w>
v ar
asp ects</w>
c ats</w>
c af
clim bed</w>
t act
an ch
ro man@@</w>
lat est</w>
tra p</w>
shar ing</w>
contro ver
l td</w>
tou ching</w>
en ni
identi fy</w>
broad way</w>
frank lin</w>
tra pped</w>
newspap ers</w>
bor ne</w>
repor ter</w>
ban d@@</w>
secre ts</w>
t ear</w>
win ners</w>
ench ed</w>
l em@@</w>
o li@@</w>
de bt</w>
19 11</w>
au stin</w>
be lla</w>
k ha@@</w>
prin ts</w>
an s@@</w>
it er
ill a</w>
where as</w>
gra ham</w>
tr ace</w>
chuc k
po unds</w>
ju ries</w>
in juries</w>
ambassad or</w>
be aten</w>
defin ition</w>
enti onal</w>
dra w
en g</w>
belong s</w>
is a</w>
le an</w>
ok la
okla homa</w>
de t
war ned</w>
labor atory</w>
theo re
musc le</w>
f und
vin cent</w>
ser ver</w>
ru shed</w>
pas sion</w>
com pre
ma sk</w>
d less</w>
nov els</w>
la y
min i@@</w>
indi ans</w>
expl or
occa sion</w>
gen ous</w>
e tion</w>
common wealth</w>
ca u@@</w>
ra in
gabri el</w>
divor ce</w>
spir itual</w>
fi st</w>
electr ical</w>
remo te</w>
an nie</w>
end a</w>
dro pping</w>
d ent</w>
mag n
bl ank
ch anc
19 13</w>
relati onships</w>
liqu id</w>
tal e</w>
stop ping</w>
cla @@</w>
at t</w>
prison er</w>
ap ply</w>
ti on@@</w>
ex ception</w>
y an@@</w>
m ates</w>
mar cus</w>
sc ra
sur ing</w>
ol ing</w>
ow nership</w>
por ted</w>
scienti sts</w>
w all@@</w>
gradu ally</w>
vir us</w>
bru sh</w>
parliam entary</w>
indic ated</w>
to kyo</w>
re tained</w>
atlan ta</w>
end ant</w>
sp are</w>
sa v@@</w>
industri es</w>
s no
b ench</w>
fil @@</w>
na zi</w>
assas sin
ic ker</w>
air e</w>
clim b</w>
ma son</w>
car los</w>
inspec tor</w>
le aning</w>
hor iz
art istic</w>
deli very</w>
da e</w>
gent le</w>
symbo l</w>
landsc ape</w>
jeal ous</w>
k ri
she et</w>
f la@@</w>
scre amed</w>
r ar
rar ely</w>
life time</w>
swe at</w>
aw a</w>
chart er</w>
int ention</w>
serv ation</w>
con nor</w>
trans lated</w>
warri ors</w>
en thu
ug ly</w>
ar gue</w>
tho dox</w>
or thodox</w>
rel ev
over wh
remin ded</w>
ali en</w>
revol utionary</w>
do ck</w>
ver ty</w>
ti ger</w>
po verty</w>
sna ke</w>
hor n</w>
2 th</w>
1 2th</w>
el ine</w>
par ent</w>
n ard</w>
va st</w>
s anc
la ura</w>
wor k@@</w>
c assi
war ren</w>
lo g@@</w>
wi ll
suspec ted</w>
ma inten
mainten ance</w>
discu ssion</w>
r un@@</w>
constitu ency</w>
lim its</w>
cro ati
polic ies</w>
abs ence</w>
or al</w>
pret end</w>
pur ple</w>
insan e</w>
p it@@</w>
sk i@@</w>
b oul
pier re</w>
l ec@@</w>
pract ical</w>
stat ue</w>
g age</w>
e ties</w>
introduc e</w>
as sh
congratul ations</w>
hei m</w>
ab bey</w>
ott oman</w>
m all</w>
end ers</w>
f ea
ab c</w>
su ed</w>
believ es</w>
li ar</w>
co tton</w>
mach ines</w>
descri ption</w>
mi a</w>
cal cul
im m
spr ings</w>
bri de</w>
f on@@</w>
campa ig
p ay@@</w>
í a</w>
claim ing</w>
k yle</w>
ex ists</w>
ev es</w>
n it@@</w>
the art</w>
swee theart</w>
an y@@</w>
har bor</w>
t un@@</w>
e ers</w>
re covered</w>
d ation</w>
pre fer</w>
lo sses</w>
apologi ze</w>
ab led</w>
g ur@@</w>
ti s
c ow@@</w>
proper ly</w>
vi an</w>
list ened</w>
k u
happ iness</w>
ger mans</w>
g at@@</w>
pract ices</w>
do cu
docu ment</w>
z ane</w>
se ed</w>
h ook</w>
comman ded</w>
legis lation</w>
cla u
be lly</w>
contex t</w>
guit arist</w>
op her</w>
c li@@</w>
c i</w>
recor dings</w>
i eld</w>
k ol@@</w>
christ opher</w>
exer cise</w>
cr uc
dr inks</w>
constitu tional</w>
phi lli
ss ment</w>
a wake</w>
vi er</w>
wi ll@@</w>
con cep
lo w@@</w>
experi ences</w>
confu sion</w>
trans lation</w>
b in@@</w>
collabor ation</w>
disa ster</w>
in stantly</w>
a ki</w>
wit @@</w>
id en</w>
de bu
debu ted</w>
pen insul
peninsul a</w>
s ch</w>
du blin</w>
ha ll@@</w>
mor al</w>
ph a</w>
al pha</w>
190 8</w>
ol ate</w>
choc olate</w>
minim um</w>
tic ut</w>
connec ticut</w>
kis sing</w>
k el@@</w>
sw allowed</w>
ear n</w>
qu a
view ers</w>
sp y</w>
contin ental</w>
ba ker</w>
que bec</w>
gi es</w>
ne ath</w>
tri ple</w>
ev eland</w>
cl eveland</w>
i p
car go</w>
wo ke</w>
nel son</w>
requi rements</w>
n ect</w>
con nect</w>
diag no
grat eful</w>
tal ks</w>
fi ghters</w>
ko v</w>
na than</w>
g el</w>
co al
coal ition</w>
it ate</w>
wal ks</w>
dan ish</w>
un ts</w>
j ing</w>
mu d</w>
ex cep
3 th</w>
1 3th</w>
stan ley</w>
assi st</w>
re su
ran king</w>
em p@@</w>
dram atic</w>
inter rupted</w>
op tions</w>
ru p@@</w>
0 9</w>
u l</w>
si g@@</w>
o ak</w>
explan ation</w>
dist ant</w>
in ate</w>
soci alist</w>
mi lls</w>
ri val</w>
e u</w>
kid n
sub stitu
strate gic</w>
po sted</w>
e on</w>
s li@@</w>
deli ver</w>
ali g
re be
j in</w>
ma ine</w>
publ ications</w>
au dio</w>
in ter</w>
ga p</w>
v ei
0 8</w>
n as
great ly</w>
in f@@</w>
franch ise</w>
i zing</w>
trav eling</w>
convin ce</w>
t age</w>
pu er
puer to</w>
premi ered</w>
m ic@@</w>
p unk</w>
conserv ation</w>
yell ed</w>
att itude</w>
dr u@@</w>
ag a</w>
gra des</w>
nu ts</w>
cr ack</w>
m ere</w>
k shire</w>
fr an@@</w>
s ara</w>
no ble</w>
do s</w>
as sign
voc al</w>
fair ly</w>
gir @@</w>
critic ism</w>
sh h</w>
mor tal</w>
dea ths</w>
b our</w>
l ic@@</w>
v u
sil k</w>
compon ents</w>
auth ors</w>
in nings</w>
execu ted</w>
fo ster</w>
photo s</w>
th eless</w>
spec t
rac y</w>
or leans</w>
s ew@@</w>
cinem a</w>
swe @@</w>
veg as</w>
n ever
never theless</w>
f old</w>
r ho
cu st
ne il</w>
aim ed</w>
al u@@</w>
ad ams</w>
net works</w>
o x@@</w>
cri mes</w>
j e</w>
ο @@</w>
k ar</w>
resid ent</w>
re fer</w>
mechan ical</w>
vu ln
budd hi
l ace</w>
adverti sing</w>
ri x</w>
ran dom</w>
shar es</w>
encoura ged</w>
occa sions</w>
sw ing</w>
b ilities</w>
l on@@</w>
bound ary</w>
be half</w>
con ven
tr ac@@</w>
mer chant</w>
e o@@</w>
just in</w>
re aches</w>
inst ant</w>
e yed</w>
che ese</w>
h ence</w>
sa v
incredi ble</w>
nichol as</w>
su its</w>
dec lined</w>
cre atures</w>
insi sted</w>
ke y
ti l
w rist</w>
natur ally</w>
cover age</w>
rel ation</w>
hun garian</w>
influ ential</w>
enc er</w>
tre al</w>
sac red</w>
mon treal</w>
dom ain</w>
ru ption</w>
brea ks</w>
ra bb
u ll</w>
sk ull</w>
dom in@@</w>
egy p
jo han
0 7</w>
et a</w>
p un@@</w>
ran ks</w>
m in</w>
te es</w>
ter ry</w>
sty les</w>
avi ation</w>
par ks</w>
abo ard</w>
inde x</w>
rel uc
fu r</w>
0 5</w>
ti more</w>
bal timore</w>
mur der
tr um
di spo
c ad@@</w>
run ner</w>
ru bbed</w>
st le</w>
190 5</w>
regre t</w>
cl ing</w>
t end</w>
t at@@</w>
thom pson</w>
s lo@@</w>
success or</w>
ch uck</w>
impres sive</w>
ay ed</w>
e e@@</w>
eff ectively</w>
k om@@</w>
dra g</w>
1 5th</w>
discu ssed</w>
li on</w>
strugg led</w>
loo p</w>
initi ative</w>
ser ted</w>
gu id
eng ag
neigh bour
icu l@@</w>
satis fied</w>
whis per</w>
proc essing</w>
ph arm
y a@@</w>
youn gest</w>
br ew
per su
cli ents</w>
p o</w>
ric o</w>
mul ti@@</w>
vir t
modi fied</w>
met ro</w>
st ev
farm ers</w>
celebr ated</w>
dis c</w>
d g@@</w>
ves sels</w>
graph ical</w>
4 0@@</w>
ham mad</w>
bro ok</w>
sebast ian</w>
fi es</w>
pack age</w>
vi enna</w>
d ness</w>
mel o
valu able</w>
to dd</w>
bi lls</w>
e b</w>
cent ers</w>
contribu tions</w>
survi ving</w>
k ri@@</w>
lon gest</w>
fi lling</w>
sel ess</w>
ph ony</w>
scre w</w>
den mark</w>
ick y</w>
fore sts</w>
pri x</w>
anc ing</w>
a to</w>
hosp it
et ta</w>
elev ator</w>
flo ws</w>
str eng
phen om
l en
dru ms</w>
sub si
re pair</w>
ble w</w>
sla ves</w>
col om
y ja</w>
fre yja</w>
ang el@@</w>
ca therine</w>
s la@@</w>
sing h</w>
gi um</w>
bel gium</w>
ti ps</w>
inter pre
in der</w>
org an</w>
abu se</w>
eff ici
doll ar</w>
um a</w>
ra d</w>
sugg est
j un
invol vement</w>
cr itic</w>
bu t@@</w>
190 6</w>
str anger</w>
guar dian</w>
boo m</w>
it z</w>
b art
r h
b is@@</w>
gre g</w>
li ghting</w>
s ni
p c</w>
ke e</w>
no ah</w>
read s</w>
ren ov
ir y</w>
cli ff</w>
ma x
in burgh</w>
ed inburgh</w>
stew art</w>
ag er</w>
depart ure</w>
pen alty</w>
indi genous</w>
sac rif
enthu si
r ation</w>
vo y</w>
ver pool</w>
li verpool</w>
der ek</w>
ec h@@</w>
t ables</w>
ju ris
str u@@</w>
r it@@</w>
mon t@@</w>
ent ures</w>
p itt
hol es</w>
monaster y</w>
simul tan
n ap@@</w>
scholar ship</w>
poin ting</w>
bu ying</w>
f itted</w>
or i</w>
ta h</w>
gen etic</w>
chec king</w>
is le</w>
hy per@@</w>
benef its</w>
stru ment</w>
in strument</w>
fanta stic</w>
door way</w>
susp ended</w>
ho sts</w>
id ae</w>
cr an@@</w>
concentr ation</w>
under neath</w>
pract ically</w>
at i</w>
he d@@</w>
dep ends</w>
bea m</w>
proc esses</w>
cour @@</w>
be e</w>
z i
k land</w>
replac ing</w>
arrang ement</w>
s ung</w>
p il@@</w>
i k</w>
c el</w>
su itable</w>
murmur ed</w>
wel sh</w>
fir ing</w>
schol ar</w>
hu g</w>
10 th</w>
span ic</w>
hi spanic</w>
celebr ate</w>
wil d
p unch</w>
fol ks</w>
o g</w>
la yer</w>
crit icized</w>
in spir
transm ission</w>
ki a</w>
sew here</w>
el sewhere</w>
exp ec
col ored</w>
190 7</w>
p issed</w>
t ol@@</w>
ro pe</w>
cy lin
aff @@</w>
civ ilian</w>
coll ect</w>
ro w@@</w>
neu ro@@</w>
l ac@@</w>
argent ina</w>
wa ved</w>
on ian</w>
spo tted</w>
hal f
re d
ac commo
c age</w>
i en</w>
la w@@</w>
1 4th</w>
princi ples</w>
s ink</w>
bu tt</w>
dou b
domin ated</w>
d t</w>
exc it
z za</w>
jud ges</w>
ty ler</w>
lo ving</w>
mur ray</w>
fa ir@@</w>
fil med</w>
rock y</w>
elec toral</w>
bas in</w>
ext ent</w>
eg g</w>
t em@@</w>
s light</w>
less ly</w>
c en@@</w>
p bell</w>
cam pbell</w>
ab road</w>
z zy</w>
n g</w>
ar e@@</w>
hu ll</w>
territ ories</w>
bra ve</w>
bl u@@</w>
tu be</w>
ev ac
pre ferred</w>
w rec
desc ent</w>
dec line</w>
ha u@@</w>
f un@@</w>
a po@@</w>
kin ds</w>
m it
har d@@</w>
spi der</w>
se ssions</w>
compl etion</w>
cur se</w>
pl at@@</w>
ok lyn</w>
bro oklyn</w>
hell @@</w>
coo king</w>
sp or@@</w>
pl ates</w>
ne t@@</w>
bas ement</w>
aw k
bu cks</w>
dis ney</w>
tam il</w>
corri dor</w>
th ro@@</w>
arri ving</w>
ukra inian</w>
190 9</w>
fe e</w>
swe pt</w>
volunte er</w>
en s@@</w>
s no@@</w>
plac ing</w>
furn iture</w>
sponsor ed</w>
n ev
exter nal</w>
j esse</w>
ed ited</w>
cu ts</w>
tem por
x ture</w>
ju lie</w>
wor ker</w>
experim ental</w>
ed a</w>
p at</w>
m itch
mitch ell</w>
for cement</w>
produc ers</w>
acc el
ignor e</w>
min es</w>
domin ant</w>
ev alu
mess ages</w>
fro zen</w>
ess ential</w>
all ies</w>
opportun ities</w>
r in@@</w>
lea f</w>
fre sh
in qu
it ter</w>
tho logy</w>
ru ined</w>
nin th</w>
bo xes</w>
p ag@@</w>
li sts</w>
mor ris</w>
touch down</w>
spec i@@</w>
fa il</w>
down stairs</w>
g ab@@</w>
reg ard</w>
acc es
gro ve</w>
revi val</w>
d ence</w>
gradu ating</w>
re tt</w>
ea fter</w>
k at
al arm</w>
di g</w>
a x</w>
logi c</w>
ha w@@</w>
pr on
hung ary</w>
dre ssing</w>
t ickets</w>
y alty</w>
six teen</w>
il ey</w>
ea gle</w>
guil t</w>
c attle</w>
ble eding</w>
pra yer</w>
ta in@@</w>
secur ed</w>
am end
citi zen</w>
atmo sphere</w>
au ton
so oner</w>
b ac@@</w>
rev eal</w>
defe ating</w>
dow ns</w>
repe at</w>
oli via</w>
zz le</w>
ing e</w>
jam in</w>
ben jamin</w>
att ending</w>
gol d@@</w>
ill ness</w>
se st</w>
c ker</w>
inter pret
sur render</w>
al fred</w>
si ege</w>
n bc</w>
int end
po t@@</w>
plan ted</w>
at ched</w>
em on</w>
coun ter@@</w>
integr ated</w>
u ss</w>
sh an</w>
adap ted</w>
ear ning</w>
ow en</w>
0 2</w>
le on
har mon
ap es</w>
dec ides</w>
n ba</w>
an dre
s burgh</w>
pitt sburgh</w>
chan nels</w>
ro s</w>
19 20s</w>
a ide</w>
f u</w>
ul timate</w>
si al</w>
recomm ended</w>
controver sial</w>
eff icient</w>
com ment</w>
commer ce</w>
puni shment</w>
t ool</w>
ukra ine</w>
oper ational</w>
so m</w>
hurric ane</w>
ro d</w>
wan g</w>
ro ot</w>
rob inson</w>
al ber
rad ar</w>
dra gged</w>
sub marine</w>
light ning</w>
rec re
re leg
dis cover</w>
ph ones</w>
ne tic</w>
mag netic</w>
y or
part ly</w>
exper iment</w>
vers y</w>
sea l</w>
fem in
l ately</w>
nar r
than k
contro versy</w>
du al</w>
lon ely</w>
dism issed</w>
frequ ent</w>
tea @@</w>
we lls</w>
kar l</w>
explo sion</w>
0 6</w>
ga thering</w>
in ding</w>
neu tr
g oo@@</w>
appar ent</w>
indic ate</w>
co pper</w>
190 4</w>
l eng
f lies</w>
vo ting</w>
sc ar@@</w>
swit ched</w>
ad ju
cha m@@</w>
out put</w>
f unded</w>
stre tch</w>
sur ve
win ds</w>
pol y
reli eved</w>
po ems</w>
to ssed</w>
fl ames</w>
p p</w>
sam ple</w>
m ingham</w>
z on</w>
fir @@</w>
coll eges</w>
a j@@</w>
ban g</w>
braz ilian</w>
br o</w>
relev ant</w>
writ es</w>
z o</w>
substanti al</w>
sno w@@</w>
how @@</w>
pi ll
trans ition</w>
princi ple</w>
ch ron
pi e</w>
compet ing</w>
intell ec
legisl ature</w>
ow ns</w>
thum b</w>
5 0@@</w>
ph il@@</w>
e ously</w>
bar bara</w>
request ed</w>
suppor ters</w>
grand ma</w>
her oes</w>
bur ns</w>
im a</w>
jen ny</w>
w en</w>
sou th@@</w>
susp ici
th in@@</w>
b ha@@</w>
autom atic</w>
1 000</w>
ati vely</w>
f ab@@</w>
sp encer</w>
gre en
thir teen</w>
in ted</w>
gen re</w>
pl u@@</w>
ga ining</w>
es is</w>
hea @@</w>
ang els</w>
ver sus</w>
similar ly</w>
scienti st</w>
c bs</w>
ho u</w>
win d@@</w>
tri bes</w>
fav our</w>
190 2</w>
pl ac@@</w>
k un@@</w>
blin ked</w>
k as@@</w>
oppon ent</w>
e sp
gener ated</w>
lor ds</w>
weal thy</w>
ro s@@</w>
ra structure</w>
inf rastructure</w>
ul a</w>
suff er</w>
st un
201 8</w>
engine ers</w>
expla ins</w>
v enture</w>
1 20</w>
mar k@@</w>
u ment</w>
mon ument</w>
ma kers</w>
la kes</w>
ob tain</w>
loo @@</w>
austri an</w>
bor ders</w>
ess a</w>
coll ections</w>
i b@@</w>
manag ing</w>
r ors</w>
compet itive</w>
w er@@</w>
h r</w>
he arts</w>
spec @@</w>
dum b</w>
s é</w>
ca st@@</w>
pho en
phoen ix</w>
emo tion</w>
au to@@</w>
min i</w>
represent ation</w>
mi ll
190 1</w>
conclu sion</w>
sho ved</w>
p earl</w>
some time</w>
å @@</w>
e aten</w>
brea st</w>
ni ger
ral ph</w>
sy n@@</w>
l ap@@</w>
part i
parti ally</w>
mag gie</w>
summ it</w>
sm en</w>
pic k@@</w>
ug al</w>
port ugal</w>
mat ure</w>
con fron
song writer</w>
190 3</w>
cl er
0 4</w>
in ci
progre ssive</w>
imag ined</w>
re ply</w>
deta iled</w>
ne u@@</w>
mer cy</w>
ri ley</w>
k it</w>
camer as</w>
h r@@</w>
tan ks</w>
go d@@</w>
col in</w>
ma id</w>
nin et
k ened</w>
coun t
st im
bir mingham</w>
1 th</w>
1 1th</w>
vide os</w>
pi g</w>
c le@@</w>
rend ered</w>
on y@@</w>
can cell
ab an
re venue</w>
y u</w>
bi ological</w>
to il
ent ers</w>
enterpri se</w>
conv entional</w>
solu tions</w>
ep s</w>
th an@@</w>
man h
compu ters</w>
â @@</w>
car rier</w>
ro cket</w>
attrac tive</w>
l as@@</w>
a x@@</w>
t ically</w>
dri vers</w>
dem ons</w>
gr ac
wor thy</w>
squ e</w>
elec tro@@</w>
ti ghtly</w>
attemp ting</w>
e i</w>
re sort</w>
re ed</w>
y am@@</w>
patter ns</w>
ann ually</w>
k aren</w>
assh ole</w>
y ang</w>
und track</w>
so undtrack</w>
logi sts</w>
har rison</w>
b last</w>
re mark
auth ori
ran ean</w>
ad or</w>
ess man</w>
busin essman</w>
deman ds</w>
chea p</w>
th a
connec tions</w>
ho ll@@</w>
liber ty</w>
pea ked</w>
v ors</w>
por ch</w>
to x
plan es</w>
a ah</w>
ar on</w>
a aron</w>
7 00</w>
m ir@@</w>
es h</w>
vol can
ag encies</w>
govern ments</w>
shel ter</w>
ru ling</w>
mar ines</w>
s pl@@</w>
cou rage</w>
ru in</w>
cor n</w>
om a</w>
nov a</w>
op ens</w>
tre ss</w>
el ite</w>
al tar</w>
evol ution</w>
inter section</w>
quali fying</w>
au l@@</w>
dra fted</w>
serv ant</w>
whe els</w>
phra se</w>
n as@@</w>
aff ect</w>
elim inated</w>
tran sit</w>
ca b</w>
ther eafter</w>
ban e</w>
slam med</w>
manh att
manhatt an</w>
h il
ar m@@</w>
alleg ed</w>
o unced</w>
lo e</w>
sa ints</w>
milli ons</w>
spo ts</w>
bab e</w>
am anda</w>
lin ks</w>
sh er@@</w>
th ful</w>
so ap</w>
dru m</w>
per ry</w>
p y
compet itions</w>
pay ment</w>
ra ble</w>
gentl eman</w>
hou @@</w>
we st
y gen</w>
ox ygen</w>
oper ator</w>
ec tural</w>
archit ectural</w>
recep tion</w>
tour ing</w>
play @@</w>
q i</w>
loc ks</w>
quart er
sing @@</w>
slo va
wa shed</w>
resi ding</w>
fi er
pur sue</w>
ic on</w>
dy lan</w>
s day</w>
restor ation</w>
ph ew</w>
ne phew</w>
b its</w>
t u</w>
k im@@</w>
cooper ation</w>
concer ts</w>
smo king</w>
fi res</w>
proce dur
procedur e</w>
test ed</w>
pre served</w>
ki lls</w>
man or</w>
ga ther</w>
par don</w>
particip ation</w>
l ing
over seas</w>
am b
ant icip
sn ea
perio ds</w>
mad am</w>
magaz ines</w>
au d
floo d</w>
eart h
b u</w>
tra ditionally</w>
m ou
on t</w>
earth qua
tr unk</w>
th am</w>
pi pe</w>
hu gh</w>
e house</w>
mi dd
man sion</w>
p y</w>
organ ic</w>
st even</w>
ac les</w>
pur se</w>
cle aning</w>
ha mmer</w>
protec ting</w>
ell i
rema inder</w>
th al</w>
bo y@@</w>
ter ror</w>
di st</w>
pp ers</w>
gh ton</w>
cz ech</w>
b eng
ab by</w>
reco very</w>
jer emy</w>
th rust</w>
sp un</w>
or ia</w>
c ited</w>
ll o
clin ical</w>
bear ing</w>
ident ical</w>
sacrif ice</w>
et ary</w>
re t@@</w>
hit ler</w>
ym ous</w>
on ymous</w>
rhy thm</w>
rati o</w>
anim ated</w>
go s</w>
0 3</w>
clo sest</w>
sa iled</w>
egyp tian</w>
hu dson</w>
ba u@@</w>
en ne</w>
as sets</w>
photograph s</w>
bec ca</w>
m cc
re mind</w>
mom my</w>
vill a</w>
den nis</w>
absolu te</w>
at o@@</w>
tex ts</w>
as m</w>
classi fication</w>
compo und</w>
sou @@</w>
sk ill</w>
tri als</w>
bloo d@@</w>
no t@@</w>
preci ous</w>
a stic</w>
p itch
tur ner</w>
comm em
wi desp
widesp read</w>
conven i
cour t
ul ties</w>
overwh el
t ack
comm ented</w>
tor n</w>
we ll
ar kansas</w>
no pe</w>
g as@@</w>
mi es</w>
le ban
go w</w>
pro ph
m ous</w>
buff alo</w>
organ ised</w>
d ay@@</w>
priv il
non sense</w>
ha med</w>
ev ans</w>
port land</w>
tar get
regi me</w>
sup pl
sc out</w>
m ent@@</w>
con feder
ev an</w>
er o@@</w>
hop es</w>
coun ts</w>
licen sed</w>
et e</w>
pac ked</w>
auton om
br ace</w>
pre su
d ining</w>
st o</w>
ran gers</w>
custom er</w>
connec ting</w>
hur ts</w>
fa i
ag ers</w>
p ile</w>
hi bit</w>
i vy</w>
bre w</w>
provin ces</w>
bel s</w>
hi ll@@</w>
an dr
regu lations</w>
ch ron@@</w>
four teen</w>
st y@@</w>
d at
particip ants</w>
certi fic
d il@@</w>
ff in</w>
ke ith</w>
fer ry</w>
li fting</w>
manu el</w>
coun ted</w>
a z</w>
activ ated</w>
j ay@@</w>
uti li
di se</w>
ab o@@</w>
san dy</w>
bor ing</w>
instruc tions</w>
camer on</w>
war ner</w>
v et</w>
portra yed</w>
sta ke</w>
clou ds</w>
ma dison</w>
un comfortable</w>
ani stan</w>
afgh anistan</w>
s its</w>
g lar
el ey</w>
al y@@</w>
am p@@</w>
near est</w>
s ag@@</w>
at om
ff y</w>
sym phony</w>
evac u
jo sé</w>
han k</w>
h es</w>
is y</w>
malay sia</w>
on ers</w>
ac i
resear chers</w>
d ar</w>
cra ig</w>
u salem</w>
jer usalem</w>
b art@@</w>
ch an</w>
fic tional</w>
attac king</w>
publi sher</w>
psycho logy</w>
re treat</w>
fing er
h art@@</w>
per cent
percent age</w>
mar s</w>
sw ung</w>
tom s</w>
d um@@</w>
engag ement</w>
cred its</w>
it ty</w>
lan ca
deli ber
honor ary</w>
ko ta</w>
bec k</w>
u tah</w>
dis appointed</w>
f ancy</w>
he art
con stantly</w>
consist ent</w>
del hi</w>
po ison</w>
squee zed</w>
cas u
ken ny</w>
mur phy</w>
volunte ers</w>
clas s
athle tics</w>
sophi e</w>
es day</w>
su ck</w>
yu go
pres ents</w>
bru shed</w>
coll ins</w>
can dy</w>
im pression</w>
ch ances</w>
psy chi
dat ab
accur ate</w>
ur i</w>
car ed</w>
batt les</w>
sho e</w>
li am</w>
portra it</w>
na ils</w>
o sity</w>
us age</w>
h um@@</w>
du o</w>
g li@@</w>
fil ming</w>
e an
clo th</w>
st en</w>
ur o</w>
treas ure</w>
f art
survi val</w>
ta xes</w>
he els</w>
re p@@</w>
har a</w>
pull s</w>
compon ent</w>
pl ing</w>
d j</w>
histor ically</w>
god de
godde ss</w>
regar dless</w>
a ked</w>
at us</w>
def ending</w>
repor ting</w>
ro t</w>
wi ped</w>
acqu is
house holder</w>
che f</w>
excit ement</w>
dra ke</w>
wor ship</w>
c ure</w>
suppor ts</w>
189 8</w>
collap sed</w>
helicop ter</w>
bio graphy</w>
l ab@@</w>
ten se</w>
dru mmer</w>
f at
ser ial</w>
threat ening</w>
clo set</w>
sa il
tor ture</w>
gen u
gor geous</w>
w oo@@</w>
instrum ental</w>
gi gg
exc iting</w>
ti de</w>
publ ic
public ly</w>
se qu@@</w>
gu t</w>
in sec
har old</w>
them es</w>
nom ination</w>
si c</w>
exclu sive</w>
dis played</w>
um es</w>
en forcement</w>
ti v@@</w>
g el@@</w>
vi ć</w>
llo yd</w>
ch in@@</w>
per spective</w>
es sive</w>
k et@@</w>
tru sted</w>
dev oted</w>
popu lations</w>
mart ial</w>
diam eter</w>
lo dge</w>
tum n</w>
au tumn</w>
d ity</w>
spec im
farm er</w>
dun can</w>
u a</w>
sp ar@@</w>
s by</w>
bi ology</w>
o o</w>
f ac@@</w>
techno logies</w>
roman ce</w>
character istics</w>
myster ious</w>
gen ius</w>
g g</w>
del ta</w>
o g@@</w>
re l@@</w>
ar do</w>
sig nature</w>
awar eness</w>
fe der@@</w>
reas onable</w>
wi der</w>
ra lly</w>
ban d
re li@@</w>
fe eding</w>
ban k
al ert</w>
enjo ying</w>
sin s</w>
a de
elec @@</w>
è @@</w>
arch y</w>
a qu
y ar@@</w>
lat ino</w>
strugg ling</w>
a vi@@</w>
deplo yed</w>
indone sia</w>
hawa ii</w>
rich mond</w>
di st@@</w>
ali e</w>
with drew</w>
ea st@@</w>
b il
ma j@@</w>
gradu ation</w>
invol ves</w>
ch o</w>
pa ired</w>
h em
rec alled</w>
pi zza</w>
_ @@</w>
stu art</w>
fin ed</w>
han nah</w>
tw ins</w>
tiv ity</w>
dest ination</w>
democ racy</w>
att end
l ing@@</w>
lou @@</w>
g al</w>
cha irs</w>
continu ous</w>
lin ear</w>
ber y</w>
ra pe</w>
et ch</w>
m en
po is
p i</w>
settl ers</w>
pr ices</w>
san k</w>
swi m</w>
celebr ation</w>
med als</w>
don ated</w>
fa int</w>
anc est
w as@@</w>
co p@@</w>
pu p
pup ils</w>
basi cally</w>
escor t</w>
b ber</w>
rec all</w>
relea ses</w>
le sson</w>
f ence</w>
concer ning</w>
ra f</w>
missil e</w>
tour ed</w>
spac es</w>
ag ue</w>
wi shes</w>
contribu tion</w>
v ani
lo yal</w>
mor s</w>
c eased</w>
an thro
189 0</w>
re tail</w>
isol ated</w>
ther more</w>
fur thermore</w>
cir cles</w>
or mous</w>
en ormous</w>
jo ey</w>
z en@@</w>
decor ated</w>
te x</w>
tt le</w>
inv itation</w>
for d
ing o</w>
ed ith</w>
m ea@@</w>
pa u@@</w>
ro b@@</w>
har vey</w>
ang s</w>
rebe llion</w>
assi sted</w>
vo y
gro ss</w>
fr on@@</w>
prepar ing</w>
less ons</w>
k l@@</w>
arch bishop</w>
eff @@</w>
th or@@</w>
sm iles</w>
lo g</w>
tra ded</w>
ma u@@</w>
wo unds</w>
kni ghts</w>
cur ve</w>
arab ic</w>
lli e</w>
direc tions</w>
di sch
pre dec
sculp ture</w>
tal es</w>
z om
dro ps</w>
restric ted</w>
l un@@</w>
contro ls</w>
m ouse</w>
pap a</w>
c ed
view ing</w>
el t</w>
m und</w>
ac res</w>
witne sses</w>
bu ck@@</w>
o se</w>
pra y</w>
ber nard</w>
affili ated</w>
show @@</w>
photo graphy</w>
jessi ca</w>
med iter
mediter ranean</w>
shi pping</w>
z a@@</w>
dis appear</w>
sid ew
s ni@@</w>
fin land</w>
y ce</w>
nor th@@</w>
duc k</w>
p lo@@</w>
th less</w>
physi cally</w>
s ally</w>
e do</w>
su cked</w>
kno @@</w>
ra j@@</w>
mechan ism</w>
e ze</w>
g ang@@</w>
she ep</w>
mir acle</w>
boo th</w>
dec ent</w>
produc es</w>
ing ed</w>
half way</w>
189 9</w>
u be</w>
n ab@@</w>
se gment</w>
min ority</w>
refer ring</w>
n ered</w>
end ants</w>
po sure</w>
ex posure</w>
al ised</w>
peo ples</w>
po ll@@</w>
bound aries</w>
k ing@@</w>
ch loe</w>
pow der</w>
p om@@</w>
to s</w>
eli gible</w>
re verse</w>
dro me</w>
elev ation</w>
reve als</w>
v ent@@</w>
al k</w>
refu se</w>
gi ll@@</w>
ni fer</w>
j acqu
fin ite</w>
er ror</w>
fre ak</w>
employ ee</w>
d ag@@</w>
ha bit</w>
ch at@@</w>
gro ws</w>
alex an
diffic ulty</w>
div ine</w>
mon k</w>
vo ters</w>
ell i</w>
sy mp
symp toms</w>
woo d
tai wan</w>
is lam</w>
we d
li gh
car riage</w>
ly n@@</w>
rela xed</w>
ent e</w>
ed ges</w>
bri dges</w>
bab ies</w>
o u</w>
r ons</w>
yugo sla
l ator</w>
attribu ted</w>
y ton</w>
li v
o scar</w>
id eal</w>
touri sm</w>
achiev ement</w>
consci ousness</w>
bra d</w>
chi p</w>
viol et</w>
hop @@</w>
appro aching</w>
scho ol@@</w>
mon thly</w>
ran ch</w>
pain ful</w>
isa ac</w>
mon itor</w>
dre sses</w>
ro lls</w>
glas gow</w>
num bered</w>
han na</w>
min ds</w>
she ets</w>
gi b
fe st</w>
hamp shire</w>
gas ped</w>
li ghtly</w>
grand son</w>
t wit
st al@@</w>
jen nifer</w>
collap se</w>
fir mly</w>
stati stics</w>
el dest</w>
dev on</w>
initi ated</w>
gl ory</w>
but ler</w>
er ected</w>
mi ster</w>
si on@@</w>
clin ton</w>
on i</w>
m ck
categ ories</w>
at edly</w>
l ining</w>
vuln erable</w>
fa st
ab ad</w>
immi grants</w>
radi ation</w>
her d</w>
sc he</w>
ro de</w>
ess entially</w>
v et@@</w>
p se
t ab
er ia</w>
tol er
par am
disc @@</w>
t itude</w>
musli ms</w>
ke y@@</w>
fu ri
fa x</w>
cigar ette</w>
pre sti
ea ses</w>
clu e</w>
hum or</w>
eigh teen</w>
sco res</w>
al ban
simultan eously</w>
po s@@</w>
m es@@</w>
wild life</w>
tar gets</w>
gu ine
an o@@</w>
gi ants</w>
dec reas
har sh</w>
y i</w>
met er</w>
ant ine</w>
hol ders</w>
func ti
investig ate</w>
o te</w>
bu ck</w>
scrip ts</w>
co pe</w>
mi ghty</w>
min a</w>
pre y</w>
premi ere</w>
bac king</w>
per sian</w>
exhau sted</w>
et ics</w>
re built</w>
tra ditions</w>
ball et</w>
establi shing</w>
coun ting</w>
tis sue</w>
ell or</w>
chanc ellor</w>
ste aling</w>
dam ned</w>
rad ical</w>
mer chan
victor ian</w>
rail ways</w>
vis its</w>
189 6</w>
wol ves</w>
ma h@@</w>
tri gger</w>
hi b@@</w>
re sting</w>
int ent</w>
yor kshire</w>
189 5</w>
bar n</w>
nar rowed</w>
ex ca
par ade</w>
den y</w>
vac ation</w>
3 d</w>
blank et</w>
ent or</w>
pen ny</w>
for tress</w>
v anc
w is@@</w>
repor tedly</w>
chri st@@</w>
sli ding</w>
tow ers</w>
cho ir</w>
spir its</w>
hi d</w>
j un@@</w>
inv ented</w>
hy po
ju mping</w>
but ter
psychi at
war m
warm th</w>
h on</w>
j or@@</w>
kis ses</w>
li ber@@</w>
t ate</w>
f lights</w>
l ag@@</w>
li z</w>
carol ine</w>
depart ed</w>
d as</w>
cha os</w>
p ac@@</w>
vanc ou
vancou ver</w>
loc k@@</w>
her o
wa it
disp u
spea kers</w>
loc ally</w>
ac c@@</w>
car es</w>
gi o</w>
ho t
bri stol</w>
ent ine</w>
co ins</w>
c oo@@</w>
spea ks</w>
ra d@@</w>
pol is</w>
st air
experim ents</w>
jer k</w>
lo west</w>
ma ur
coll ective</w>
cardin al</w>
sh an@@</w>
du g</w>
boar ding</w>
con stan
compani on</w>
orig ins</w>
exam ination</w>
human ity</w>
mon it
po und</w>
refl ected</w>
indi @@</w>
believ ing</w>
su ite</w>
vol umes</w>
en han
psy cho@@</w>
exec ution</w>
ac king</w>
v ary</w>
ten ure</w>
ner ve</w>
jo an</w>
sta kes</w>
h it@@</w>
sent enced</w>
b ic</w>
s ville</w>
sc are</w>
clim bing</w>
n ancy</w>
b locked</w>
ade qu
wi dow</w>
disp ute</w>
ric h@@</w>
dynam ic</w>
ru shing</w>
hei ghts</w>
mil an</w>
ri pped</w>
con tain
car ries</w>
gra ded</w>
z er@@</w>
negoti ations</w>
travell ed</w>
arm or</w>
cat ching</w>
i gh</w>
jud gment</w>
c z@@</w>
sh ers</w>
bu ses</w>
awk ward</w>
d é@@</w>
n om@@</w>
boo k@@</w>
tha il
thail and</w>
li ons</w>
cur led</w>
increas es</w>
inspir ation</w>
flo ating</w>
tr ent</w>
obj ective</w>
high @@</w>
f aded</w>
g les</w>
u seless</w>
j ared</w>
id an</w>
p ity</w>
fac il
oppon ents</w>
equ ally</w>
rac ed</w>
ti gers</w>
arri ves</w>
v all@@</w>
sc attered</w>
sh ane</w>
o ch@@</w>
ori ented</w>
en er</w>
sear ched</w>
ma ps</w>
lun gs</w>
hand ling</w>
rou tine</w>
i res</w>
foot age</w>
car ved</w>
st ir
character ized</w>
pet er
danc er</w>
tr inity</w>
f ever</w>
fuc ked</w>
ž @@</w>
er ra</w>
o a
f at@@</w>
in fl
189 7</w>
b end</w>
ger ald</w>
consequ ences</w>
he i@@</w>
lu is</w>
exp and</w>
cust om</w>
d les</w>
ur sday</w>
th ursday</w>
re am</w>
spec tr
cra shed</w>
in v@@</w>
re pr
ent repr
di scri
mea sured</w>
sel ect</w>
shor ter</w>
ta x
susp icious</w>
b age</w>
ver n</w>
s se</w>
ka i</w>
ul ation</w>
n ut</w>
del ay</w>
v or@@</w>
k it@@</w>
re v@@</w>
fa iling</w>
p ause</w>
ra di@@</w>
gu er
he m</w>
it i</w>
pre d
w u</w>
physici an</w>
om ed</w>
ru th</w>
it im
il ation</w>
comp ilation</w>
for um</w>
ent on</w>
lin da</w>
inter views</w>
an c@@</w>
p ec@@</w>
eye brows</w>
ad ri@@</w>
adap tation</w>
por tions</w>
j ack@@</w>
g ym
vers ity</w>
bo xing</w>
ac knowle
sign als</w>
ib bean</w>
encoun ter</w>
car ibbean</w>
tou rist</w>
juris diction</w>
embarra ssed</w>
ne ed
assign ment</w>
n hl</w>
fair y</w>
sc u@@</w>
bor e</w>
per c
po sts</w>
par ked</w>
hin du</w>
cassi e</w>
sto dy</w>
cu stody</w>
pro secu
flo wing</w>
li thu
a is</w>
l ew@@</w>
habit at</w>
mo du
pl u
glo be</w>
ha il</w>
in st@@</w>
f ury</w>
prepar ation</w>
jer ked</w>
sp ir@@</w>
grand pa</w>
tim ber</w>
ran ging</w>
ge o@@</w>
der by</w>
del icious</w>
bas es</w>
evol ved</w>
ro y@@</w>
f ic@@</w>
n apol
l um
ho lly</w>
boo t</w>
eng age</w>
complet ing</w>
g low</w>
el ena</w>
swee tie</w>
part ial</w>
di verse</w>
ho t@@</w>
stor y
th under@@</w>
bit ter</w>
ma dri
madri d</w>
bor ed</w>
cul t</w>
sc ary</w>
off ense</w>
ess ors</w>
restaur ants</w>
s mu
str onom
a stronom
accel er
mar ble</w>
se c</w>
oli shed</w>
dem olished</w>
ni k</w>
cam ps</w>
on going</w>
batt le
rober ts</w>
bu st</w>
g ori
al gori
mon key</w>
for k</w>
le ton</w>
di g@@</w>
di ans</w>
temper atures</w>
t ent</w>
flo ors</w>
co tt
wher ever</w>
r y
amend ment</w>
g om
spor ting</w>
challeng ed</w>
an i@@</w>
ri al</w>
certi fied</w>
car ol</w>
der ly</w>
exclu sively</w>
comm ents</w>
night mare</w>
mo lly</w>
l as
bl ank</w>
gi l</w>
ro e</w>
se ated</w>
as ka</w>
al aska</w>
di et</w>
confid ent</w>
ru ler</w>
mo th</w>
hel m</w>
ser vo
re servo
cler k</w>
j ac@@</w>
hand led</w>
re located</w>
so ver
s ac@@</w>
ar es</w>
demonstr ated</w>
bl ond</w>
ch al@@</w>
de pos
188 9</w>
har bour</w>
reci pi
to es</w>
mag ical</w>
hou sed</w>
ver tical</w>
christ i
ext end</w>
t at
l on</w>
ce ded</w>
depend ent</w>
cro sses</w>
r al</w>
bre eding</w>
189 3</w>
acces sible</w>
arrang ements</w>
m ull@@</w>
nick name</w>
h ire</w>
lo sed</w>
sor ts</w>
z ar</w>
bec @@</w>
es man</w>
g ym</w>
to y</w>
mad ame</w>
d ome</w>
en sem
ta xi</w>
188 5</w>
resi st</w>
s lu@@</w>
bel gian</w>
cont est
consu mer</w>
pa st
reduc tion</w>
trav els</w>
189 2</w>
ju ice</w>
top ic</w>
greg ory</w>
par a
necess arily</w>
o sa
inher ited</w>
ep y</w>
on de</w>
bl onde</w>
jun gle</w>
impro vement</w>
inter state</w>
f en@@</w>
el ia</w>
plat forms</w>
hal t</w>
manufac tured</w>
thor ou
oo m</w>
clear ing</w>
war n</w>
subur b</w>
de er</w>
nec @@</w>
cu ba</w>
convic ted</w>
p oured</w>
u ps</w>
186 1</w>
cam p@@</w>
2 1st</w>
mea su
fla shed</w>
co ck
bar rel</w>
jeff erson</w>
comp ens
a g</w>
pro f@@</w>
inten sity</w>
bu ck
sp ine</w>
mi st</w>
t ag@@</w>
collea gues</w>
sub mitted</w>
ti onally</w>
qu inn</w>
pion eer</w>
l ington</w>
implem ented</w>
pat ch</w>
the ories</w>
sh ell
fri ghtened</w>
out door</w>
ma ster@@</w>
am ber</w>
a st
sp r@@</w>
toil et</w>
ali ze</w>
fab ric</w>
du l@@</w>
hes itated</w>
pre t@@</w>
commer ci
our ite</w>
fav ourite</w>
form ers</w>
fuc ker</w>
termin us</w>
v as</w>
gu ided</w>
o ons</w>
r in</w>
cl ever</w>
tribu te</w>
situ ations</w>
ol ed</w>
189 4</w>
e enth</w>
re bels</w>
recogn ised</w>
mor t
ach ment</w>
fl ame</w>
bon us</w>
re hear
186 4</w>
in visible</w>
def ended</w>
f eared</w>
pit ched</w>
gal ax
interpret ation</w>
athle tes</w>
sec u@@</w>
t end
se ized</w>
respec tive</w>
focu sing</w>
roman ia</w>
ull ivan</w>
s ullivan</w>
a va</w>
origin ated</w>
sha de</w>
ban ned</w>
ff led</w>
p ple</w>
dou g</w>
ti ghtened</w>
end ar</w>
cal endar</w>
cor ruption</w>
posse ssed</w>
co in</w>
n ad@@</w>
ur ge</w>
compar ison</w>
immi gration</w>
questi oned</w>
ad rian</w>
ne o</w>
ro bot</w>
p ic</w>
t ours</w>
ch el
con version</w>
diplom atic</w>
wra p</w>
pra ise</w>
per mitted</w>
om ing</w>
sul tan</w>
ma ge</w>
reg i@@</w>
re sted</w>
recomm end
pro spec
194 0s</w>
den ver</w>
s as@@</w>
ra ft</w>
ma inst
mainst ream</w>
g au
gau ge</w>
k r@@</w>
ô @@</w>
commit ment</w>
vir tual</w>
alter nate</w>
clin ic</w>
ell en</w>
bour @@</w>
mu hammad</w>
t all
e sp@@</w>
tre ating</w>
l p</w>
reco ver</w>
mu tual</w>
or ph
serv ants</w>
u gh</w>
subsi diary</w>
h ans</w>
sha ft</w>
kin da</w>
ju sti
o tt</w>
th ie
thie f</w>
re ll</w>
mi xture</w>
j on@@</w>
186 2</w>
ni k
sc ra@@</w>
wel fare</w>
substitu te</w>
as sured</w>
ste pping</w>
be i
he ir</w>
f icial</w>
por ter</w>
sa il</w>
186 5</w>
de s@@</w>
k ane</w>
flu id</w>
qu est</w>
cl enched</w>
y mond</w>
ra ymond</w>
st am@@</w>
pre serve</w>
gran d@@</w>
bl an@@</w>
divor ced</w>
wed nes
wednes day</w>
at oes</w>
un ce</w>
sou p</w>
un successful</w>
intellec tual</w>
cont ested</w>
tu ary</w>
pro stitu
scre en
cerem on
colum ns</w>
die sel</w>
argu ing</w>
sp her
t enth</w>
r é@@</w>
scr ewed</w>
n au
congre gation</w>
u ed</w>
si ded</w>
trac king</w>
v ir@@</w>
comm @@</w>
g w@@</w>
challeng es</w>
tempor arily</w>
mo tor@@</w>
prin ting</w>
bei jing</w>
real m</w>
t ance</w>
inv ite</w>
tu esday</w>
ma s@@</w>
k at</w>
l ad@@</w>
gener ations</w>
fi ghts</w>
sur vei
189 1</w>
188 8</w>
ol f</w>
ew ing</w>
sec ution</w>
inter nationally</w>
cancell ed</w>
ef a</w>
lo v@@</w>
lo ading</w>
ar row</w>
su p@@</w>
x ious</w>
et tes</w>
t ap@@</w>
func tional</w>
observ ation</w>
s ent@@</w>
fart her</w>
festi vals</w>
hon ors</w>
be ard</w>
distinc tion</w>
susta in
id ers</w>
comman ding</w>
wall ace</w>
settl ements</w>
dest iny</w>
arti ficial</w>
belong ing</w>
speci alized</w>
roman ian</w>
sover e
tr e</w>
mini sters</w>
186 3</w>
survei ll
surveill ance</w>
sk el
quali fy</w>
sp ite</w>
good ness</w>
empha sis</w>
ro gers</w>
l it@@</w>
z y@@</w>
ser bian</w>
le gi
k ati
kati e</w>
ac on</w>
manufactur er</w>
man ual</w>
ag an</w>
na u@@</w>
po d</w>
mon sters</w>
sugg esting</w>
tw enti
enz y
sam ples</w>
sil ently</w>
leon ard</w>
gri d</w>
mi stress</w>
ro wing</w>
188 0</w>
il ers</w>
mer ger</w>
authori zed</w>
an ders</w>
pat ent</w>
si um</w>
disch ar
murder er</w>
grow led</w>
ght ful</w>
187 0</w>
ar c</w>
tea mm
s it@@</w>
st own</w>
refer ences</w>
histor ians</w>
t ender</w>
z hou</w>
brea thed</w>
cor ners</w>
k ur
concentr ated</w>
diffic ulties</w>
concentr ate</w>
alig n</w>
lou ise</w>
lo yalty</w>
asp ect</w>
ev i@@</w>
del ayed</w>
sc or
focu ses</w>
a si@@</w>
b art</w>
o tto</w>
imag ination</w>
sa iling</w>
an te</w>
far ming</w>
hen sive</w>
compre hensive</w>
descri bing</w>
asse ssment</w>
es si@@</w>
hard ware</w>
in door</w>
christ ians</w>
ran e</w>
tru ste
occa sional</w>
sy ria</w>
di versity</w>
amo unts</w>
hol m</w>
autom atically</w>
pil ots</w>
i ster</w>
co aches</w>
adv entures</w>
nol d</w>
hun ger</w>
pati ence</w>
law yers</w>
g em@@</w>
supp lied</w>
mu st
en to</w>
resu med</w>
l um@@</w>
ad dressed</w>
depart ments</w>
six ty</w>
sc ru@@</w>
be ver
locomo tives</w>
ff e</w>
su ing</w>
co w</w>
au to</w>
relati ves</w>
contrac ts</w>
promo ting</w>
p ent@@</w>
relea sing</w>
go thic</w>
read @@</w>
s oul
soul s</w>
gi fts</w>
mon ica</w>
dri ves</w>
b ic
str an@@</w>
back up</w>
protest s</w>
tra ordinary</w>
ex traordinary</w>
b b</w>
fer ences</w>
tri o</w>
re m
t it@@</w>
br on@@</w>
ru b</w>
fel d</w>
am bi
playo ffs</w>
de on</w>
intellig ent</w>
pi stol</w>
photo grapher</w>
ang lo</w>
tor e</w>
pro hib
bour g</w>
be ats</w>
custom s</w>
hospit als</w>
x y</w>
sig nation</w>
bi ll@@</w>
han g@@</w>
flor ence</w>
co aching</w>
sing ly</w>
tow n@@</w>
ma s
m é@@</w>
t ina</w>
ad i</w>
bull ets</w>
cru el</w>
n ina</w>
g ical</w>
bul ance</w>
am bulance</w>
col m</w>
ig n
gra vity</w>
k icking</w>
di gging</w>
a ids</w>
æ @@</w>
in j@@</w>
for ti
b inding</w>
coll ar</w>
sens ation</w>
ru de</w>
stra ined</w>
chan g@@</w>
dol l</w>
out break</w>
terror ist</w>
comm ons</w>
who o</w>
k ay@@</w>
de z</w>
em bas
embas sy</w>
shi el
tec @@</w>
read er</w>
lo u</w>
micro soft</w>
instruc tion</w>
bet ty</w>
le s@@</w>
wag on</w>
he brew</w>
j am</w>
repe atedly</w>
dis eases</w>
a h
ean or</w>
em ed</w>
de emed</w>
sha llow</w>
ru bber</w>
re bel</w>
bre ed</w>
air lines</w>
hell e</w>
bac ter
ca th
sha l</w>
mar shal</w>
tor pe
inf ection</w>
k g</w>
blo wn</w>
iti ous</w>
bol t</w>
po in@@</w>
cal i@@</w>
j u</w>
fl or@@</w>
sen ses</w>
worl ds</w>
m om@@</w>
fin nish</w>
h int</w>
gr o</w>
tom b</w>
cru sh</w>
fiel der</w>
tri um
ri ers</w>
ell o</w>
et own</w>
mom ent
lin e
sna p</w>
fri ed</w>
survi vors</w>
h at
sh in@@</w>
188 7</w>
w ol@@</w>
w ning</w>
exca v
qu e@@</w>
vi br
wid th</w>
es co</w>
implem entation</w>
re signation</w>
di er</w>
bapti st</w>
d wi
regu lation</w>
cal cu
ho o</w>
m entally</w>
indic ates</w>
acquis ition</w>
fin n</w>
ü r@@</w>
mur ders</w>
w ay@@</w>
datab ase</w>
thre ats</w>
stu me</w>
co stume</w>
announc ement</w>
b re</w>
val i@@</w>
hur ting</w>
activi st</w>
hy dro
a j</w>
ob ama</w>
distinc tive</w>
w w
sw i@@</w>
whe el
confeder ate</w>
psycho logical</w>
is o@@</w>
í n</w>
co ck@@</w>
b old</w>
effici ency</w>
earthqua ke</w>
col on@@</w>
pir ates</w>
ri p</w>
coun ter
priv acy</w>
veter an</w>
ea ger</w>
campaig ns</w>
character istic</w>
sy rian</w>
stri king</w>
pla ins</w>
et ers</w>
remark able</w>
u efa</w>
stor ed</w>
attend ance</w>
gest ure</w>
str ings</w>
char ming</w>
ri ders</w>
pen et
in hab
ro unded</w>
zo o</w>
la desh</w>
bang ladesh</w>
mar gin</w>
cr acked</w>
ath ens</w>
chuck led</w>
graph ics</w>
encoun tered</w>
tre vor</w>
nev ada</w>
main land</w>
bo x
a ha</w>
tra sh</w>
sur geon</w>
im pl@@</w>
appro aches</w>
ge es</w>
r itual</w>
mista kes</w>
certific ate</w>
eu ro@@</w>
ra ys</w>
hy bri
bom bing</w>
re tri
anim ation</w>
proto col</w>
casu alties</w>
en o@@</w>
promis ing</w>
op h
car di
rew ard</w>
rabb i</w>
peac eful</w>
ow ing</w>
signific ance</w>
nat i</w>
ee ding</w>
un expected</w>
p ad</w>
pse u
im pri
1 1@@</w>
plac ement</w>
r h@@</w>
scri bed</w>
attrac tion</w>
gram mar</w>
mo re@@</w>
san dra</w>
d rank</w>
re con
war rant</w>
colon ies</w>
ch ile</w>
v est@@</w>
ver a</w>
ro land</w>
influ ences</w>
cor d</w>
el bow</w>
di al</w>
k ab@@</w>
reve aling</w>
sett ling</w>
st am
speci alist</w>
gri ef</w>
th under</w>
n s@@</w>
ec o@@</w>
succ eed</w>
v ine</w>
188 6</w>
jac kie</w>
it em</w>
fo un
min ation</w>
li ga</w>
do t</w>
so unding</w>
uti l
aggre ssive</w>
cont ents</w>
ca sey</w>
k ad@@</w>
enni al</w>
drag ons</w>
adel aide</w>
y ou@@</w>
ti onary</w>
mar ath
ky lie</w>
protec tive</w>
fund am
fundam ental</w>
accomp lished</w>
pri ests</w>
ing en</w>
christi an
christian ity</w>
i de@@</w>
spe are</w>
li ghter</w>
en rolled</w>
skir t</w>
j ama
ven ez
venez u
tou @@</w>
cro ps</w>
tal ity</w>
fu l@@</w>
in put</w>
our ing</w>
pres entation</w>
dea dly</w>
saf ely</w>
num @@</w>
eng er</w>
archae ological</w>
v ital</w>
sid ers</w>
stan d@@</w>
declar ation</w>
st ea@@</w>
ee ds</w>
r ats</w>
a v
war ehouse</w>
p in
shor ts</w>
exten sively</w>
et ti</w>
re g@@</w>
mil iti
militi a</w>
it ch@@</w>
incid ence</w>
f am@@</w>
heal ing</w>
inaug ural</w>
stri kes</w>
f t@@</w>
refl ect</w>
fr am
fram ework</w>
un conscious</w>
as hamed</w>
pl ess</w>
bu g</w>
tiv ated</w>
ar nold</w>
o d</w>
od ds</w>
ren owned</w>
holl and</w>
acc ent</w>
sha h</w>
mart ha</w>
c inc
terri fied</w>
as s@@</w>
be ings</w>
cho ices</w>
re becca</w>
top ics</w>
quarter back</w>
sha ke
shake speare</w>
cro ss@@</w>
see ds</w>
il bert</w>
g ilbert</w>
v oc@@</w>
ap pr
ca sting</w>
mal colm</w>
exam ined</w>
ignor ing</w>
s bane</w>
bri sbane</w>
188 1</w>
ph y@@</w>
bran don</w>
ri der</w>
can non</w>
cep @@</w>
p ond</w>
lan g@@</w>
wid ened</w>
ang led</w>
ra y@@</w>
ch at</w>
ma ll@@</w>
sme lled</w>
ven ues</w>
alber ta</w>
ous y</w>
t ic@@</w>
ă @@</w>
it arian</w>
answ ering</w>
y ale</w>
le eds</w>
ic y</w>
exper ts</w>
ou s@@</w>
j ag@@</w>
cou p</w>
uc @@</w>
ani st</w>
commem or
ed itions</w>
о @@</w>
chor us</w>
particip ating</w>
lo go</w>
autom ob
guid ance</w>
stat ements</w>
ur ation</w>
buddhi st</w>
reli able</w>
stra in</w>
m oo@@</w>
se t@@</w>
un ge</w>
ed wards</w>
cl ed</w>
shor t@@</w>
wi ves</w>
it is</w>
bar on
arc tic</w>
ar mies</w>
de als</w>
recru ited</w>
re v</w>
cham bers</w>
mat rix</w>
wat son</w>
cas ino</w>
r ing@@</w>
pier ce</w>
pri ority</w>
da kota</w>
hon ored</w>
es y</w>
gener ate</w>
coun c
satis faction</w>
m ou@@</w>
f ew
few er</w>
que ens</w>
ou tta</w>
d ong</w>
tr am@@</w>
ru ins</w>
ven ice</w>
er i</w>
tow el</w>
bre eze</w>
ali zing</w>
sh in</w>
ti les</w>
x ter</w>
j en@@</w>
a shes</w>
gro aned</w>
au to
pe dro</w>
jud icial</w>
ir anian</w>
democr ats</w>
cher ry</w>
anch or</w>
v ar</w>
pho to@@</w>
neighbor s</w>
ra b
rab bit</w>
in nati</w>
cinc innati</w>
thi ghs</w>
ec tors</w>
or n</w>
ax is</w>
end or
di ana</w>
democr at</w>
har per</w>
expl ore</w>
circu lar</w>
de st@@</w>
guine a</w>
stati stical</w>
amp ton</w>
co sta</w>
guaran tee</w>
sp i@@</w>
bu tt
fif a</w>
tem ples</w>
assu ming</w>
comm it</w>
188 4</w>
ash ley</w>
discipl ine</w>
t in
pag ne</w>
cham pagne</w>
ne ys</w>
str o</w>
as es</w>
bu l</w>
polit icians</w>
tar a</w>
back ward</w>
d ag
aer o@@</w>
pi llow</w>
pro c@@</w>
sp inning</w>
kilomet ers</w>
tr y@@</w>
i v@@</w>
а @@</w>
f et@@</w>
encou rage</w>
her bert</w>
o graphy</w>
h y</w>
d ily</w>
mic helle</w>
k re@@</w>
hy po@@</w>
nor folk</w>
curr ency</w>
tex @@</w>
se aled</w>
read ers</w>
ex ile</w>
hu man@@</w>
si erra</w>
al tered</w>
vi si
l u</w>
ch im@@</w>
equ ation</w>
trans formed</w>
b out</w>
journ alism</w>
po ck
pock ets</w>
ex hibit</w>
ra ham</w>
ab raham</w>
tra iler</w>
o a</w>
ban king</w>
correspon ding</w>
bar rier</w>
perman ently</w>
un ity</w>
re source</w>
ho llow</w>
fier ce</w>
sh im@@</w>
follow ers</w>
indic ating</w>
out fit</w>
invol ve</w>
ec ho</w>
i k@@</w>
susta ined</w>
bal d</w>
eart h@@</w>
war fare</w>
tuc ked</w>
s oned</w>
s ack</w>
impri soned</w>
succ ession</w>
cha ins</w>
trac ed</w>
bro ad@@</w>
ab or@@</w>
accid entally</w>
o re@@</w>
cru ise</w>
prote ins</w>
sp reading</w>
li s
per mit</w>
neutr al</w>
air line</w>
mun ich</w>
gi ate</w>
e giate</w>
coll egiate</w>
t end@@</w>
n ée</w>
gar rison</w>
ill y</w>
hand ful</w>
al titude</w>
ow l</w>
hea l</w>
cul tures</w>
cha sing</w>
narr ative</w>
kidn apped</w>
stric t</w>
territ orial</w>
lea gues</w>
ph on@@</w>
reduc ing</w>
par al
paral y
bet a</w>
bic y
writ ings</w>
advoc ate</w>
stoc k
lan ka</w>
x ie</w>
ben nett</w>
ter ly</w>
tel e
leg acy</w>
cath ol
any a</w>
all ing</w>
lo bby</w>
sanc tuary</w>
fu sion</w>
mach @@</w>
anc i@@</w>
bom bs</w>
a issance</w>
del icate</w>
haw ks</w>
qu o@@</w>
str ic@@</w>
f its</w>
view er</w>
recei ver</w>
m ation</w>
fi sher
ren aissance</w>
ach t</w>
fli pped</w>
m atic</w>
ach i</w>
cl one</w>
frustr ation</w>
uc ks</w>
tr ucks</w>
th ur@@</w>
dev a
mp h</w>
we ll@@</w>
jacqu es</w>
b au
c any
cany on</w>
less er</w>
deal t</w>
re ver@@</w>
vari able</w>
he ated</w>
loc ate</w>
maur ice</w>
docum ented</w>
contin ent</w>
lan der</w>
wi ki</w>
liber ation</w>
recei ves</w>
sc an</w>
remo val</w>
in um</w>
adequ ate</w>
ster dam</w>
am sterdam</w>
cl in@@</w>
scr am
blo wing</w>
techn ically</w>
t z@@</w>
cylin der</w>
ti re</w>
shi p@@</w>
protest ant</w>
estim ate</w>
qu et</w>
ra in@@</w>
tw ist</w>
sp an@@</w>
itim ate</w>
ro o@@</w>
anc e
ib n</w>
may a</w>
188 2</w>
activ ely</w>
dial ogue</w>
gi ous</w>
gh ing</w>
k on</w>
fast est</w>
professi on
profession als</w>
produc tive</w>
sh ining</w>
a ine</w>
m ir</w>
philipp ine</w>
g on
sc and
hop efully</w>
pe st</w>
clu t
dis order</w>
son ic</w>
expl ic
p r</w>
h el</w>
elev ated</w>
a ires</w>
si p</w>
proce ed</w>
pe er</w>
bur ger</w>
wer ew
mc c@@</w>
ban ded</w>
dimen sional</w>
ick ey</w>
be d@@</w>
m med</w>
comm enced</w>
promis es</w>
vani shed</w>
om i</w>
can d@@</w>
armen ian</w>
jo king</w>
gra in</w>
jo se</w>
sme lls</w>
he h</w>
l ang
desper ately</w>
g art
melo dy</w>
prev ented</w>
sa y@@</w>
sun light</w>
struc tural</w>
186 0</w>
k end
c ence</w>
be at
pla za</w>
dou bles</w>
ori um</w>
ab u</w>
pre ston</w>
l ance</w>
tim ing</w>
advis ory</w>
ph d</w>
pl a@@</w>
roo sev
tri ps</w>
or bit</w>
contribu ting</w>
ar ray</w>
mo ther@@</w>
wil d@@</w>
bu d@@</w>
i to</w>
k ap@@</w>
g on</w>
ext ending</w>
illustr ated</w>
f arms</w>
ff ing</w>
m w</w>
voc alist</w>
min ster</w>
pre f
pet ition</w>
respec ted</w>
stati oned</w>
ner ves</w>
sand wich</w>
ga z@@</w>
che ers</w>
travell ing</w>
l ecture</w>
the ology</w>
prec is
precis ely</w>
bo o</w>
roo kie</w>
t as@@</w>
u k@@</w>
ap h
z el</w>
main taining</w>
g m</w>
ser bia</w>
pp e</w>
pat ri@@</w>
with @@</w>
gen es</w>
roosev elt</w>
gen er@@</w>
r at
rat ings</w>
cir cus</w>
run ners</w>
star k</w>
virt ually</w>
th ai</w>
sla very</w>
p u</w>
st atic</w>
reservo ir</w>
ea gles</w>
fra ud</w>
north western</w>
motor cycle</w>
ul u</w>
th y@@</w>
h l@@</w>
civili ans</w>
ac hi@@</w>
touri sts</w>
photo graph</w>
we ed</w>
g ad@@</w>
e mail</w>
re less</w>
il ia</w>
pol l</w>
furi ous</w>
le igh</w>
cor n@@</w>
celebr ity</w>
win d
locomo tive</w>
correc tly</w>
over head</w>
ang ered</w>
hun ters</w>
la ying</w>
h ms</w>
inter action</w>
fre ight</w>
ar ing</w>
to e</w>
sh or@@</w>
manu script</w>
hoo ds</w>
clo sure</w>
na p</w>
sc or@@</w>
sevent een</w>
hea ther</w>
f o</w>
assem bled</w>
dic t</w>
ne bra
nebra ska</w>
inf ected</w>
t um@@</w>
d ried</w>
m end@@</w>
ö r@@</w>
depic ted</w>
st icks</w>
sla m</w>
d ame</w>
sh out</w>
under graduate</w>
pitch er</w>
perc eived</w>
an im@@</w>
ex c@@</w>
cel ona</w>
bar celona</w>
o logist</w>
desig nation</w>
fo g</w>
k eley</w>
impro vements</w>
w et@@</w>
de t</w>
s ers</w>
mir anda</w>
gl ac
o t
f in</w>
pi lls</w>
free ze</w>
de sp@@</w>
car t</w>
h end
er i@@</w>
ri d@@</w>
susp en
suspen sion</w>
ta p</w>
ir rit
acknowle dged</w>
las er</w>
na il</w>
exer c
be ds</w>
playo ff</w>
10 1</w>
bl ings</w>
ja b</w>
coll ecting</w>
di shes</w>
pron ounced</w>
scand al</w>
sever ely</w>
sli e</w>
accep table</w>
187 6</w>
frea king</w>
reali zing</w>
sp el</w>
go spel</w>
shi p
mat ched</w>
ow ski</w>
188 3</w>
at on</w>
some day</w>
refu gees</w>
over come</w>
st ays</w>
ro ad@@</w>
sc oo
bask et</w>
d art
hu gh
hugh es</w>
ba iley</w>
l amp</w>
ensem ble</w>
con ver@@</w>
ra p</w>
re t</w>
enc h@@</w>
test i
foo t@@</w>
a e@@</w>
ssi onal</w>
mont ana</w>
shu a</w>
emerg ing</w>
col t</w>
every day</w>
n u</w>
k ara</w>
do l</w>
refl ection</w>
ro t
comp ati
cal eb</w>
dis solved</w>
187 1</w>
bow ling</w>
ha ir@@</w>
t asks</w>
sim pl
comp li
mon um
mar vel</w>
veter ans</w>
niger ia</w>
ti l@@</w>
ha gen</w>
è re</w>
i ri@@</w>
hur ried</w>
consu mption</w>
identi fication</w>
pract iced</w>
s ev@@</w>
con fig
d der</w>
s way</w>
coun sel</w>
separ ation</w>
ari ans</w>
destro ying</w>
behavi our</w>
im p@@</w>
o y@@</w>
sal ary</w>
unk s</w>
sp ed</w>
auth or@@</w>
tri bal</w>
ke en</w>
de served</w>
187 8</w>
medi ate</w>
inter mediate</w>
re served</w>
glar ed</w>
nam ely</w>
explo ded</w>
connec ts</w>
re act</w>
st oc@@</w>
bor g</w>
super vis
y out
yout ube</w>
i di@@</w>
betra yed</w>
em brace</w>
j ah</w>
rup tly</w>
accommo date</w>
ab ruptly</w>
peter sburg</w>
gra bbing</w>
ha st
po unding</w>
s worth</w>
s ends</w>
ó w</w>
bea u@@</w>
j in@@</w>
work shop</w>
neighbor ing</w>
ka z@@</w>
ag ar</w>
t ac@@</w>
car pet</w>
ran ges</w>
ell is</w>
municip alities</w>
pur suit</w>
belie fs</w>
ell ie</w>
mar iti
mariti me</w>
log i@@</w>
ev ard</w>
boul evard</w>
p all@@</w>
la yers</w>
to bac
tobac co</w>
po l</w>
leg end
legend ary</w>
ca m</w>
athle te</w>
proc eeded</w>
pret ending</w>
sp e@@</w>
witne ssed</w>
si zes</w>
mel issa</w>
mar io</w>
angel a</w>
ga vin</w>
de fine</w>
ca in</w>
con tra@@</w>
le on</w>
dan te</w>
mun ition</w>
deman ding</w>
cur sed</w>
lux ury</w>
predec essor</w>
squee ze</w>
re store</w>
clau de</w>
am er@@</w>
stre ak</w>
spir acy</w>
con spiracy</w>
molecu lar</w>
nur sing</w>
sor e</w>
quali fication</w>
desi red</w>
para dise</w>
ki d@@</w>
neigh bor</w>
foot steps</w>
congre ssional</w>
da isy</w>
bow s</w>
sta ined</w>
v ale</w>
deal er</w>
there by</w>
adv ised</w>
exhib ited</w>
inhab ited</w>
d onna</w>
inter vention</w>
no tion</w>
pu pp
construc t</w>
syn drome</w>
ka therine</w>
te ddy</w>
per si
soci eties</w>
si st</w>
w ed</w>
prof ession</w>
quant um</w>
kir k</w>
so und@@</w>
sh ang
shang hai</w>
acqu a
186 7</w>
admini stered</w>
ni ght@@</w>
a wa
d us</w>
sw allow</w>
sun shine</w>
st ack</w>
d op@@</w>
hamp ton</w>
goo gle</w>
wh ore</w>
al ec</w>
m ick</w>
gho sts</w>
on om@@</w>
er ship</w>
cent ered</w>
bo ts</w>
start led</w>
on i@@</w>
tro y</w>
fi sher</w>
eye brow</w>
pro pag
sequ el</w>
se p@@</w>
broo ks</w>
archit ects</w>
pro ven</w>
ha b@@</w>
co x</w>
new castle</w>
or able</w>
contr ary</w>
all oc
par an
cre ator</w>
mont gom
montgom ery</w>
sa x
a er@@</w>
ble ssed</w>
advis or</w>
rac ks</w>
shar ply</w>
re viewed</w>
ep ic</w>
civi c</w>
ag a@@</w>
concep ts</w>
on ics</w>
electr onics</w>
ol o</w>
sing ers</w>
ea e</w>
sti ff</w>
kno cking</w>
bra ss</w>
be lls</w>
fas c
cle aned</w>
la wn</w>
bra ins</w>
de pot</w>
f ears</w>
hol mes</w>
om on</w>
reg im
y i
new ton</w>
beng al</w>
conduc tor</w>
certain ty</w>
mar c</w>
pal ms</w>
ve ins</w>
r ams</w>
pu mp</w>
fri ed
trans formation</w>
cle an@@</w>
cott age</w>
teen age</w>
9 00</w>
struc @@</w>
pre servation</w>
agre es</w>
inter face</w>
cl ar@@</w>
stan ford</w>
cre ates</w>
r ington</w>
de lla</w>
ur u</w>
step @@</w>
desc endants</w>
c dp</w>
m d</w>
stum bled</w>
fre e@@</w>
absor bed</w>
avo iding</w>
po pped</w>
fro ze</w>
y ment</w>
fi sts</w>
yi el
w icked</w>
char m</w>
comp u@@</w>
187 2</w>
fac e
face book</w>
spi ke</w>
g ement</w>
sp in@@</w>
tel e@@</w>
int ly</w>
crow ded</w>
beg ging</w>
philli ps</w>
187 5</w>
bu rial</w>
ar ched</w>
li o</w>
gri m</w>
associ ates</w>
co des</w>
galax y</w>
sh ep
re serves</w>
priv ately</w>
vo iced</w>
pow er@@</w>
pal mer</w>
p iss</w>
pre li
187 9</w>
di m</w>
mer ry</w>
ag onist</w>
gl y@@</w>
p ear
v ac@@</w>
ri ses</w>
it ations</w>
ste fan</w>
suggest ion</w>
gar bage</w>
den se</w>
install ation</w>
s enti
fin est</w>
horiz on</w>
pro j
presid ency</w>
gym na
anth a</w>
e b@@</w>
s ement</w>
shi fting</w>
rev ised</w>
ac ular</w>
d ell</w>
lar s</w>
desc ended</w>
re x</w>
happ ily</w>
ran dy</w>
su r</w>
am o@@</w>
el ic</w>
qu a@@</w>
t all@@</w>
pe g</w>
t ops</w>
ac o</w>
w i</w>
am munition</w>
ro t@@</w>
dre aming</w>
chil @@</w>
hot els</w>
stun ned</w>
ic t</w>
journ alists</w>
do zens</w>
st ion</w>
apol is</w>
bo thered</w>
la ur
proc edu
procedu res</w>
b ic@@</w>
cru z</w>
cla ir</w>
m u</w>
re forms</w>
integr ation</w>
z am@@</w>
est ates</w>
tournam ents</w>
augu st
la sting</w>
ber keley</w>
lin d
zz led</w>
mar co</w>
al um
cry st
al t</w>
ri vals</w>
mi e</w>
consequ ently</w>
bu d</w>
d is</w>
tact ical</w>
spectr um</w>
le tt</w>
s field</w>
ş @@</w>
s nor
tan g@@</w>
mo thers</w>
aban don</w>
moder ate</w>
consi st</w>
186 8</w>
program mes</w>
lo vers</w>
cl am
promp ted</w>
broo ke</w>
um bent</w>
inc umbent</w>
ru m</w>
gl en</w>
sem inary</w>
ford shire</w>
gover nor
ig n@@</w>
con firm</w>
r ational</w>
int end</w>
a a@@</w>
bat man</w>
to ast</w>
cla u@@</w>
ou ch</w>
uni ons</w>
manag es</w>
avo ided</w>
vari ation</w>
chie fs</w>
tal ented</w>
y or@@</w>
v ent</w>
s ors</w>
pu b</w>
f is
dom s</w>
en os</w>
re moving</w>
del aware</w>
br ed</w>
chel sea</w>
bon ds</w>
cru shed</w>
past or</w>
missi onary</w>
gri ffin</w>
g ill</w>
cas ual</w>
el abor
elabor ate</w>
th r@@</w>
determin ation</w>
manufactur ers</w>
187 4</w>
и @@</w>
compl @@</w>
eth i
foo ds</w>
r u</w>
exter ior</w>
incredi bly</w>
un likely</w>
f lip</w>
expan ding</w>
fel ix</w>
o ved</w>
bel oved</w>
bu tter</w>
ch em@@</w>
part icles</w>
ex am</w>
aim s</w>
can e</w>
deliber ately</w>
ol es</w>
vari ations</w>
napol eon</w>
mi gr
mo sque</w>
mathemat ical</w>
tiv ation</w>
ar ded</w>
cu t@@</w>
apo llo</w>
ab und
str ation</w>
regi stration</w>
conqu est</w>
a ins</w>
lou dly</w>
186 6</w>
zz o</w>
nati ves</w>
so fia</w>
1 10</w>
ar c@@</w>
l é@@</w>
ge dly</w>
k ho@@</w>
gover ning</w>
voy age</w>
t less</w>
nic ole</w>
en berg</w>
ru by</w>
gar rett</w>
lan g</w>
un s</w>
z antine</w>
jo el</w>
by zantine</w>
con sent</w>
log ically</w>
comm une</w>
found ers</w>
n ick@@</w>
wea @@</w>
g ated</w>
stric tly</w>
ru mors</w>
ar range</w>
con soli
ta wa</w>
ot tawa</w>
secre tly</w>
co tt</w>
plat inum</w>
re f</w>
it t</w>
m tv</w>
bott les</w>
con voy</w>
cur ved</w>
inter ro
contro lling</w>
ox ide</w>
bur den</w>
mor oc
ri bs</w>
hel met</w>
em atic</w>
legi on</w>
di scre
187 3</w>
pra desh</w>
questi oning</w>
c it@@</w>
col ours</w>
cor k</w>
conduc ting</w>
de x</w>
val entine</w>
em o@@</w>
compl ex
hal ed</w>
si es</w>
le s
fle xi
v p</w>
south eastern</w>
o i</w>
laugh s</w>
swi ft</w>
mon go
du ll</w>
sp er
leban on</w>
cont acts</w>
de s
nation alist</w>
bat ting</w>
le slie</w>
entrepr en
ca ine</w>
trav is</w>
re st@@</w>
gri pped</w>
develop ments</w>
expla ining</w>
ja x</w>
sim p
pregn ancy</w>
tr icks</w>
c r</w>
collabor ated</w>
mor ed</w>
ew ell</w>
do or@@</w>
ber ing</w>
hum ili
wis dom</w>
contribu te</w>
tat too</w>
r ina</w>
sc i@@</w>
m ec@@</w>
d h@@</w>
wal t</w>
genu ine</w>
slow ed</w>
al ge
itu des</w>
mar sh</w>
th u@@</w>
y weight</w>
w ri@@</w>
shir ts</w>
an xious</w>
do o</w>
sophi a</w>
re solved</w>
w ag@@</w>
dec i@@</w>
stre ssed</w>
li u</w>
monit oring</w>
ru bbing</w>
seem ingly</w>
land mark</w>
to ys</w>
st ur@@</w>
ver mont</w>
ol i</w>
si blings</w>
cor n
presti gious</w>
ricul um</w>
cur riculum</w>
pi er</w>
as ed</w>
ric ky</w>
gener ous</w>
v au
l b</w>
mum bai</w>
ti ble</w>
er in</w>
sub stance</w>
ex p@@</w>
out come</w>
tu b</w>
port al</w>
fi re
j ess</w>
ou stic</w>
b ols</w>
ac oustic</w>
187 7</w>
tan g</w>
e z@@</w>
bi shops</w>
scr atch</w>
lau ren</w>
184 8</w>
in de@@</w>
frustr ated</w>
m c</w>
skir ts</w>
t apped</w>
sav age</w>
atom ic</w>
cu ps</w>
pe e</w>
for bi
forbi dden</w>
wi pe</w>
d ine</w>
proto type</w>
inst inc
shou ting</w>
cel tic</w>
sa van
har mon@@</w>
ac tic</w>
wea kness</w>
refu ses</w>
pre dic@@</w>
affili ate</w>
brea k@@</w>
lou der</w>
sc ri@@</w>
ra j</w>
vari ant</w>
us ement</w>
am usement</w>
bo unds</w>
re pri@@</w>
nov el
back wards</w>
ı @@</w>
ver s@@</w>
ra p@@</w>
chi ps</w>
pot entially</w>
ew or
curi osity</w>
ste ering</w>
glo wing</w>
sp it</w>
releg ated</w>
no wiki</w>
j ur@@</w>
u di</w>
sa udi</w>
wi zard</w>
xi ety</w>
an xiety</w>
str an
assi sts</w>
consul tant</w>
hom e@@</w>
yl on</w>
g own</w>
or ch
counci ll
quart ered</w>
dis covers</w>
consider ation</w>
c u</w>
en able</w>
organ is
organis ations</w>
target ed</w>
mi gu
migu el</w>
mer cur
mercur y</w>
bur ton</w>
life style</w>
sh ville</w>
na shville</w>
ur us</w>
refu ge</w>
disgu sting</w>
differ ently</w>
p our</w>
invest ors</w>
car son</w>
jan et</w>
cl em@@</w>
k h
mat ching</w>
ter rain</w>
ri ot</w>
archi ves</w>
e go</w>
bor o</w>
g ent@@</w>
g t</w>
u ality</w>
sex uality</w>
fa thers</w>
sym bols</w>
compri ses</w>
p oo@@</w>
em ia</w>
st on@@</w>
ent ity</w>
ali ke</w>
hom o@@</w>
1 30</w>
colom bia</w>
massac re</w>
tow @@</w>
ob er@@</w>
ur gent</w>
a sts</w>
im posed</w>
andre a</w>
sh eff
sheff ield</w>
to by</w>
re id</w>
preli min
prelimin ary</w>
k ell
ff le</w>
zo e</w>
sn u@@</w>
g id</w>
ti oned</w>
victor ies</w>
jo shua</w>
rob bery</w>
t elec
navi gation</w>
re over</w>
mo reover</w>
bur nt</w>
jo kes</w>
st ain</w>
ge ons</w>
18 50</w>
t ened</w>
dum p</w>
well ington</w>
tor n
c it
tuc ker</w>
p end@@</w>
pers on@@</w>
thi gh</w>
ren ewed</w>
theat rical</w>
dis plays</w>
hol den</w>
pur sued</w>
t ooth</w>
commun icate</w>
en abled</w>
th ra@@</w>
innov ation</w>
lu st</w>
h ates</w>
brac ed</w>
distr acted</w>
c um@@</w>
slova kia</w>
o va</w>
autonom ous</w>
j ill</w>
part ed</w>
leg ally</w>
mart y</w>
re z</w>
broadca sts</w>
up coming</w>
ow ship</w>
fell owship</w>
circu lation</w>
j ab@@</w>
d at@@</w>
in ti
p is@@</w>
investig ating</w>
at tract</w>
provi sions</w>
fron tier</w>
shar k</w>
re construction</w>
top ped</w>
clar ke</w>
ay an</w>
pap er
f itting</w>
ta i</w>
sof a</w>
ro be</w>
tra y</w>
bad ge</w>
ext ends</w>
li ver</w>
stoc k@@</w>
lad der</w>
coun sel
str ate</w>
it orial</w>
ed itorial</w>
floo ding</w>
di ving</w>
trac tion</w>
no ting</w>
k ay</w>
recipi ent</w>
apo logy</w>
go sh</w>
discu ssing</w>
speci fied</w>
trum p</w>
hybri d</w>
tri stan</w>
mean time</w>
le t@@</w>
no ds</w>
ri ages</w>
tra ge
trage dy</w>
after ward</w>
ol y</w>
h ale</w>
bor row</w>
phenom en
phenomen on</w>
ab er@@</w>
croati an</w>
c ester</w>
ri bb
m l</w>
accu s
cur tis</w>
non eth
noneth eless</w>
tol l</w>
t ens</w>
du bbed</w>
foun tain</w>
rever end</w>
cor pse</w>
cau ti
mar king</w>
186 9</w>
ic hi</w>
a de@@</w>
di ve</w>
insec ts</w>
tt en</w>
ro tten</w>
p ir@@</w>
remember ing</w>
shi pped</w>
ken ya</w>
co ached</w>
a il</w>
er up
st om@@</w>
rem n
gh ten</w>
in timate</w>
yell ing</w>
ü n@@</w>
f east</w>
sh op@@</w>
preci se</w>
b less</w>
dor f</w>
agre ements</w>
trem bling</w>
gro cer
ri ver@@</w>
re tain</w>
co inci
vi i</w>
s ony</w>
g la@@</w>
independ ently</w>
yu an</w>
resc ued</w>
cent res</w>
russi ans</w>
w end
slo pe</w>
ver t</w>
v la
ch ick</w>
sac ri
trac es</w>
fa u@@</w>
stre ams</w>
mis erable</w>
f r</w>
fi er</w>
bra dley</w>
ad mission</w>
st at@@</w>
viet nam
vietnam ese</w>
up dated</w>
bo t@@</w>
gra ves</w>
l ag
or o@@</w>
bro w@@</w>
obli @@</w>
plan tation</w>
ethi op
ank le</w>
ta u@@</w>
dri fted</w>
re m@@</w>
u ri@@</w>
cruc i@@</w>
nation wide</w>
hau l</w>
pe z</w>
v u@@</w>
pre domin
predomin antly</w>
ha y</w>
t et@@</w>
c had</w>
ant on@@</w>
m ack</w>
un happy</w>
oc ity</w>
tr ine</w>
doc trine</w>
v ector</w>
ira qi</w>
bran ded</w>
ed en</w>
s ings</w>
per u</w>
m t</w>
ben ed
ly nn</w>
in ev
un ting</w>
glo ves</w>
o live</w>
nas a</w>
dra ws</w>
ste ep</w>
argu es</w>
subur bs</w>
impro ving</w>
fro st</w>
wi shing</w>
mar ched</w>
wrec k</w>
c iting</w>
j ace</w>
ss er</w>
pi ke</w>
ca uc
vin ce</w>
st ability</w>
til ted</w>
h ir@@</w>
pi l</w>
18 0</w>
appe als</w>
recre ation</w>
li fe@@</w>
all e</w>
ber ger</w>
d ana</w>
m ack
re in@@</w>
sh ri
gu m</w>
lea se</w>
ū @@</w>
mac ed
sh ly</w>
class room</w>
ju n</w>
dd led</w>
nat alie</w>
sm ir
po ll
k is@@</w>
ed ged</w>
rel ating</w>
em ig
dis appointment</w>
explor ation</w>
consequ ence</w>
ar ri@@</w>
re formed</w>
ec ti
gu essed</w>
palest ine</w>
stev ens</w>
200 0s</w>
ra h</w>
on ds</w>
diam onds</w>
gu l@@</w>
sel fish</w>
as sure</w>
comp iled</w>
man dy</w>
enz ie</w>
stu ffed</w>
trac y</w>
mag ne@@</w>
s oo@@</w>
ten tion</w>
br yan</w>
vari ed</w>
marath on</w>
tan tly</w>
z ar
tact ics</w>
pa ths</w>
lo ads</w>
sen al</w>
ar senal</w>
a gh
ur ged</w>
be ef</w>
r as</w>
dis banded</w>
compens ation</w>
com ra
sw ick</w>
ro sa</w>
ac compan
int act</w>
sy mm
mer it</w>
adop tion</w>
pet ro@@</w>
et er@@</w>
subur ban</w>
restric tions</w>
sha kes</w>
war saw</w>
kin son</w>
test im
testim ony</w>
hu gged</w>
bul k</w>
l ton</w>
fe es</w>
discri mination</w>
requi rement</w>
t es@@</w>
instruc tor</w>
ba v
val id</w>
requ iring</w>
host ile</w>
alle gedly</w>
en listed</w>
man i@@</w>
shel f</w>
guil d</w>
dra wings</w>
willi e</w>
teen ager</w>
ll i</w>
m ented</w>
chan d@@</w>
ol ition</w>
m g</w>
cro p</w>
cla ws</w>
lec tures</w>
ing le</w>
fr amed</w>
ro ses</w>
transpor ted</w>
sim pson</w>
ci o</w>
stri pped</w>
mon roe</w>
posse ss</w>
and re</w>
lu ther</w>
run way</w>
z oo@@</w>
def ender</w>
hu b</w>
ou tra
fran co</w>
bat t@@</w>
r and</w>
crimin als</w>
goo d@@</w>
mo on@@</w>
croati a</w>
pro li
ab i</w>
foo lish</w>
law suit</w>
pan els</w>
es sex</w>
test ament</w>
bul garian</w>
in da</w>
re actions</w>
an ism</w>
interpre ted</w>
b iting</w>
squ ir@@</w>
colum bus</w>
argu ments</w>
gra sp</w>
chap ters</w>
i th@@</w>
loc ker</w>
el derly</w>
hom etown</w>
s age</w>
fle e</w>
embarra ssing</w>
gen esis</w>
pa thetic</w>
conf ession</w>
exhib itions</w>
dis k</w>
shu ttle</w>
p om
e us</w>
er nest</w>
sin king</w>
v il@@</w>
m itch</w>
cart oon</w>
ab e</w>
mo b</w>
n em@@</w>
vis itor</w>
ham let</w>
ad ol@@</w>
r ack</w>
met re</w>
den om
vel ope</w>
en velope</w>
fl am@@</w>
inter change</w>
per pet
v es@@</w>
surpri sing</w>
po ker</w>
dum ped</w>
al together</w>
mer edith</w>
ar ro
ca kes</w>
suspici on</w>
3 50</w>
mi gration</w>
v aries</w>
dol ph
dar k@@</w>
libr aries</w>
o z</w>
stab il@@</w>
ha lls</w>
ew an</w>
s worn</w>
glan cing</w>
butter fly</w>
temp er</w>
ac ker</w>
conc eived</w>
ri fl
rifl es</w>
bl er</w>
distur bed</w>
palest inian</w>
instruc ted</w>
viol in</w>
st es</w>
sh ri@@</w>
jo ins</w>
t v@@</w>
do se</w>
lea k</w>
qu oted</w>
metho dist</w>
echo ed</w>
bra dy</w>
a ho</w>
ro ster</w>
sol ely</w>
in form</w>
gam bling</w>
un certain</w>
tri angle</w>
audi ences</w>
fin dings</w>
bo unded</w>
art work</w>
qu ar
mu t@@</w>
j ar</w>
associ ations</w>
l one</w>
s d</w>
responsi bilities</w>
w es
pow @@</w>
o ath</w>
i que</w>
hat red</w>
cruc ial</w>
ari us</w>
ha z@@</w>
w inst
winst on</w>
ther mal</w>
expe lled</w>
wa shing</w>
ther fucker</w>
mo therfucker</w>
cl ara</w>
wa sted</w>
gu er@@</w>
er als</w>
so x</w>
per ing</w>
ra ven</w>
dimen sion</w>
an nex
rev el
bri d@@</w>
man ila</w>
gram my</w>
hydro gen</w>
d ew@@</w>
excell ence</w>
ap pl@@</w>
the l</w>
comp act</w>
pat ron</w>
ar o</w>
port ers</w>
sha m</w>
sen sed</w>
m ickey</w>
ter n</w>
comm entary</w>
consider ably</w>
br it@@</w>
ra v@@</w>
liter acy</w>
dag ger</w>
k ö@@</w>
wit z</w>
d anced</w>
hol dings</w>
oper ators</w>
n as</w>
s killed</w>
pr u@@</w>
choo sing</w>
sm art@@</w>
touch downs</w>
we ster@@</w>
ancest ors</w>
é s</w>
re sc@@</w>
dam p</w>
ninet eenth</w>
pe lled</w>
d man</w>
ju st@@</w>
administr ator</w>
ob a</w>
pol ite</w>
stan i</w>
sch u@@</w>
s ão</w>
twenti eth</w>
hoo ked</w>
in qu@@</w>
k au@@</w>
fai thful</w>
stron gest</w>
z en
zen ship</w>
citi zenship</w>
v il
d it@@</w>
pol es</w>
so li@@</w>
tun nels</w>
popu lated</w>
lin gu
ing re
surpri singly</w>
dea f</w>
ban ner</w>
o ple</w>
mon ks</w>
tr ic@@</w>
se gments</w>
gi o
ingre di
im eter</w>
head quartered</w>
or da
orda ined</w>
ham burg</w>
with draw</w>
hom eless</w>
185 7</w>
ma z@@</w>
ex port</w>
wo o</w>
st ag@@</w>
ar se</w>
bi as</w>
w u@@</w>
crit eria</w>
ster ing</w>
sustain able</w>
su cks</w>
eu gene</w>
hen ri</w>
organi ze</w>
o hh</w>
int entions</w>
sle eve</w>
pro vo
am i@@</w>
po or
poor ly</w>
detec ted</w>
luc @@</w>
fre ely</w>
in to
ri m</w>
lim bs</w>
d all</w>
e h@@</w>
sc ales</w>
an onymous</w>
harmon y</w>
whi p</w>
butt ons</w>
assassin ation</w>
argent ine</w>
ge om
heav yweight</w>
ss i</w>
arm strong</w>
lan a</w>
prospec t</w>
е @@</w>
in land</w>
mis es</w>
n ur@@</w>
vi d</w>
sl apped</w>
cu b@@</w>
consu med</w>
event ual</w>
ha ired</w>
super intend
superintend ent</w>
ber land</w>
s words</w>
ad ds</w>
doc torate</w>
185 9</w>
ti ago</w>
san tiago</w>
j i
enhan ced</w>
lear ns</w>
ter ies</w>
gar ia</w>
bul garia</w>
bat teries</w>
ss r</w>
zer ba
a zerba
j ar
strang ers</w>
over night</w>
accoun ting</w>
nee ding</w>
floo ded</w>
dar ker</w>
van d@@</w>
pen n</w>
mu s@@</w>
t ick@@</w>
fil m
evalu ation</w>
ad en</w>
g ha@@</w>
sh ir@@</w>
acqu ire</w>
musi @@</w>
it er@@</w>
ris ks</w>
yugosla via</w>
ty ard</w>
cour tyard</w>
sh ments</w>
st aged</w>
mo dest</w>
a ver@@</w>
co incidence</w>
north eastern</w>
gr am@@</w>
y right</w>
cop yright</w>
rit a</w>
cho re
cur tain</w>
sw a@@</w>
bloc king</w>
fran kie</w>
jessi e</w>
r t</w>
jew el
jewel ry</w>
shell s</w>
mo ses</w>
y ell</w>
chan g</w>
sil ver@@</w>
ê @@</w>
s ap@@</w>
hu go</w>
fresh man</w>
g u</w>
nol ds</w>
main tains</w>
bom ber</w>
accep tance</w>
z h@@</w>
all an</w>
as i</w>
pac king</w>
si on
sion ate</w>
g y
dam on</w>
mem o
l or</w>
predic ted</w>
up right</w>
sk y
hi v</w>
cardin als</w>
anc he</w>
var ying</w>
wall et</w>
p d</w>
appr ent
sc o</w>
accep ting</w>
blo g</w>
fl ag@@</w>
dynam ics</w>
ln ess</w>
eth ics</w>
k lace</w>
auth ored</w>
enzy me</w>
nec klace</w>
g om@@</w>
ch ic@@</w>
sh attered</w>
collea gue</w>
un anim
ey ball</w>
har dy</w>
dis abled</w>
r ew@@</w>
kur t</w>
arab ia</w>
k nuc
op enly</w>
gu ez</w>
ep i@@</w>
j im@@</w>
bur ke</w>
dur ation</w>
bar n@@</w>
na issance</w>
exam ine</w>
arro g
publi sh</w>
eph ant</w>
dea d@@</w>
con sole</w>
indi es</w>
sol omon</w>
is sions</w>
m es
ag on</w>
andr ews</w>
pol ar</w>
any time</w>
ali stic</w>
bar k</w>
al ter@@</w>
l ens</w>
gl en
glen n</w>
inqu iry</w>
z im
r na</w>
gl u@@</w>
el ephant</w>
ko v@@</w>
eter nal</w>
ab bre
ro ll@@</w>
adju sted</w>
l ung</w>
terror ism</w>
ou ting</w>
le on@@</w>
pan ama</w>
н @@</w>
cy cles</w>
foo @@</w>
sm oo
j ets</w>
theore tical</w>
challeng ing</w>
re solve</w>
cu ban</w>
sa uce</w>
fro g</w>
i f@@</w>
a stro@@</w>
clu ster</w>
ge org
tr end</w>
ll ian</w>
aggre gate</w>
be ans</w>
shr ine</w>
h end@@</w>
end less</w>
sun set</w>
h p</w>
fat al</w>
ani me</w>
all ison</w>
h d</w>
direc ting</w>
rel ay</w>
part is
mil d</w>
vo ll
voll eyball</w>
angel o</w>
ab sent</w>
con ferences</w>
ew ise</w>
he ath</w>
met e
emp t</w>
real ised</w>
bor rowed</w>
bac on</w>
nor a</w>
dol ph</w>
conflic ts</w>
y nn</w>
t oo@@</w>
mar rying</w>
mo tors</w>
qu ad@@</w>
bra h@@</w>
swe ep</w>
recon naissance</w>
rel s</w>
ic ism</w>
reti re</w>
gg ins</w>
re pl
ari um</w>
car ing</w>
ur er</w>
bl ades</w>
under went</w>
reti ring</w>
pa th
abo lished</w>
overwhel ming</w>
fl at@@</w>
t cher</w>
u g@@</w>
k el</w>
w au
wau kee</w>
pl um@@</w>
on aries</w>
bu zz</w>
pra gue</w>
auc tion</w>
ap p</w>
compla ints</w>
investig ations</w>
em a</w>
c ade</w>
sup po
mu m@@</w>
he ating</w>
probab ility</w>
v ari@@</w>
commit tees</w>
pa tho@@</w>
epis cop
episcop al</w>
imm une</w>
ol y@@</w>
ker ala</w>
nation als</w>
st led</w>
sam antha</w>
stab bed</w>
ren ew
st op@@</w>
dial ect</w>
do c@@</w>
ma iden</w>
fre ed</w>
hu t</w>
un believ
unbeliev able</w>
thor ne</w>
som er
somer set</w>
t c</w>
whe at</w>
oa kland</w>
pan ties</w>
ext inct</w>
tt i</w>
syn dic
g ations</w>
min eral</w>
g wen</w>
de ut
comm ent
le i@@</w>
snea k</w>
qu in@@</w>
ec tives</w>
v ul@@</w>
st ead</w>
bicy cle</w>
vic inity</w>
bow ed</w>
gradu ates</w>
automob ile</w>
the ological</w>
down load</w>
trou bled</w>
ron ald</w>
my th</w>
hom o
tar i@@</w>
ori entation</w>
pow ell</w>
free zing</w>
ar bit
ic als</w>
m oo
play station</w>
pion e
sa k@@</w>
ss man</w>
w ears</w>
south western</w>
n un@@</w>
pun ched</w>
need le</w>
el yn</w>
sub tle</w>
dimen sions</w>
re pairs</w>
el ers</w>
loc king</w>
lo ser</w>
shar on</w>
sem i
tra uma</w>
hon ours</w>
pic ks</w>
suppo se
suppose dly</w>
jo y@@</w>
under wear</w>
th i</w>
re servation</w>
jama ica</w>
ali ens</w>
v eway</w>
dri veway</w>
sc outs</w>
inter active</w>
ju les</w>
sp ray</w>
sli pping</w>
ch or@@</w>
mil waukee</w>
w ade</w>
ac re</w>
coo ked</w>
ta ils</w>
circ um@@</w>
story line</w>
calcul ated</w>
ver ses</w>
pres by
provi sion</w>
at op</w>
stock holm</w>
an th@@</w>
exc ess</w>
y nolds</w>
re ynolds</w>
185 4</w>
go at</w>
journ als</w>
gg ling</w>
leg ends</w>
bran ds</w>
streng th
auc kland</w>
y mouth</w>
ti pped</w>
chec k@@</w>
arch er</w>
ang les</w>
compla int</w>
sum m@@</w>
ski p</w>
apart ments</w>
op tical</w>
ou d</w>
stor ms</w>
lin er</w>
mcc art
ex changed</w>
p ful</w>
hel pful</w>
mista ken</w>
m am
su ited</w>
shi va</w>
es cal@@</w>
kenne th</w>
an ton</w>
gran ite</w>
tur er</w>
lec turer</w>
z ones</w>
demonstr ation</w>
cow boy</w>
ch lor@@</w>
torpe do</w>
lo t@@</w>
s bury</w>
compla ined</w>
inter viewed</w>
dec eased</w>
ar ose</w>
enc o
flor a</w>
tran spar
um berland</w>
we i</w>
conveni ent</w>
san c@@</w>
revol t</w>
coll i
pay ments</w>
pi anist</w>
shoo ts</w>
d al
no tor
vi ii</w>
fran z</w>
whit ney</w>
sur name</w>
strai ghtened</w>
cr ews</w>
mor tality</w>
dri ll</w>
elim inate</w>
tu gged</w>
le ic
es sions</w>
amer ic
ght ening</w>
st ically</w>
dem ned</w>
con demned</w>
s l</w>
y as@@</w>
ch en@@</w>
ec raft</w>
fir ms</w>
o thy</w>
dor othy</w>
se e@@</w>
bl amed</w>
ku mar</w>
aer ial</w>
e sar</w>
ca esar</w>
am en</w>
si ck@@</w>
b ies</w>
innov ative</w>
đ @@</w>
at ar</w>
m at</w>
ś @@</w>
per formers</w>
ñ a</w>
z hang</w>
185 5</w>
pa th@@</w>
t son</w>
exp ense</w>
he in
xim ity</w>
pro ximity</w>
neighbour ing</w>
wa sting</w>
d well</w>
alleg ations</w>
fi anc
ser i@@</w>
in cl
our se</w>
ang a</w>
en sis</w>
pir ate</w>
scre ams</w>
day light</w>
your selves</w>
on ica</w>
t ful</w>
with drawn</w>
ha s@@</w>
observ ations</w>
e _@@</w>
deci ding</w>
estim ates</w>
anc a</w>
fit z@@</w>
att a</w>
pre mises</w>
dra gging</w>
sub way</w>
i dol</w>
ho sting</w>
pe pper</w>
p am
ed gar</w>
l om@@</w>
at tering</w>
nar row
p es@@</w>
cru m@@</w>
a est
ir is</w>
i ke</w>
loc als</w>
ch ro@@</w>
ni st</w>
all i@@</w>
f oul</w>
ver te@@</w>
ha unted</w>
cap abilities</w>
da w@@</w>
o ke</w>
k le@@</w>
cont acted</w>
tra ils</w>
be st@@</w>
th al@@</w>
pan d@@</w>
c rane</w>
san ts</w>
suspec ts</w>
su bor
bla ir</w>
capit ol</w>
nific ent</w>
mag nificent</w>
ta i@@</w>
k n@@</w>
destro yer</w>
s wore</w>
fur t</w>
civili zation</w>
vi se</w>
fin ale</w>
isa bella</w>
he el</w>
oun ce</w>
cl ick</w>
m ack@@</w>
z ards</w>
new port</w>
tu bes</w>
i ge</w>
vi e</w>
bu gs</w>
l ican</w>
ang lican</w>
men u</w>
ö u</w>
y öu</w>
hur st</w>
l ap
lap top</w>
ww w</w>
op posing</w>
super man</w>
185 8</w>
bacter ia</w>
re ig
re hab
brea sts</w>
sma ll
small est</w>
bu enos</w>
caf e</w>
v ised</w>
lic ked</w>
util ity</w>
com positions</w>
tr ans</w>
v ault</w>
ing u@@</w>
manufac ture</w>
whis pers</w>
pl ague</w>
x ton</w>
st icking</w>
sol ving</w>
for c
o val</w>
h atch</w>
brun swick</w>
nur ses</w>
ho stage</w>
fer ring</w>
wor ries</w>
an us</w>
magn us</w>
z ig</w>
el ines</w>
coll ector</w>
cu ssion</w>
o h@@</w>
can ton</w>
treas ury</w>
r ho@@</w>
in scription</w>
line up</w>
sla p</w>
re vi@@</w>
expec tations</w>
sc ha@@</w>
can on</w>
con science</w>
n ally</w>
stu b
stub born</w>
princ eton</w>
hom eland</w>
lo ses</w>
р @@</w>
im er</w>
lan do</w>
pi a</w>
geo graphic</w>
pe ered</w>
govern mental</w>
inv aded</w>
m entor</w>
ni ece</w>
mad ness</w>
me g</w>
ke es</w>
plat eau</w>
a king</w>
pho sp
mechan ics</w>
sig n@@</w>
k os</w>
menti ons</w>
ab a</w>
cr ack@@</w>
s lot</w>
up graded</w>
opin ions</w>
hy de</w>
el eanor</w>
air field</w>
fro wn</w>
con junction</w>
puni shed</w>
per th</w>
el eg
eleg ant</w>
pro claimed</w>
nati on@@</w>
mea suring</w>
car lo</w>
west minster</w>
ro tation</w>
danc ers</w>
rain fall</w>
r inging</w>
polit ically</w>
philli p</w>
pro b
m emp
memp his</w>
syn thesis</w>
sha pes</w>
ran ger</w>
st all</w>
ed mund</w>
cat ches</w>
br is</w>
es say</w>
minim al</w>
incid ents</w>
gib son</w>
develop ers</w>
al ine</w>
hel ena</w>
sevent y</w>
li p@@</w>
luc i@@</w>
ad o
n eal</w>
convic tion</w>
ti sm</w>
merchan ts</w>
up date</w>
sacri fic
evid ent</w>
man ia</w>
chec ks</w>
uni forms</w>
em press</w>
liqu or</w>
suff @@</w>
li ghted</w>
lay out</w>
z ers</w>
se x@@</w>
nick named</w>
yan ked</w>
185 6</w>
zom bie</w>
si c
re as@@</w>
venezu ela</w>
oo s</w>
ne pal</w>
la in</w>
a bu@@</w>
art a</w>
remin ds</w>
fl em
an gular</w>
ri s@@</w>
be have</w>
gl are</w>
mar a</w>
gl oria</w>
d ging</w>
compet itors</w>
algori thm</w>
dis continued</w>
bas sist</w>
ba il</w>
config uration</w>
ch eer</w>
induc ted</w>
positi oned</w>
ri p@@</w>
har m
bra d@@</w>
key board</w>
che ating</w>
le op
ex ag
occur ring</w>
ri k</w>
n in@@</w>
sun k</w>
si de@@</w>
op h@@</w>
enterpri ses</w>
c un
flo wn</w>
cap ita</w>
lik ewise</w>
draw er</w>
sa xon</w>
a ks</w>
mu lation</w>
psych ic</w>
y i@@</w>
ir on@@</w>
dep end@@</w>
missil es</w>
hend erson</w>
tho u</w>
tri m</w>
dec ree</w>
dur ham</w>
sa i</w>
di v@@</w>
depos its</w>
bri d
anno yed</w>
rain bow</w>
cro w</w>
introduc ing</w>
che z</w>
185 1</w>
k way</w>
expl ored</w>
fra ser</w>
dre amed</w>
f is@@</w>
re ase</w>
dec rease</w>
e dy</w>
s mi
stret ching</w>
gen eva</w>
a stron
met all
on tal</w>
horiz ontal</w>
hi ssed</w>
con y</w>
bal cony</w>
li fel
con e</w>
box er</w>
cl er@@</w>
ad u</w>
din osa
rou ght</w>
inspec tion</w>
trac ked</w>
fil tr@@</w>
vac ant</w>
sympa thy</w>
hom er</w>
wat ches</w>
u pri
upri sing</w>
as a</w>
reali stic</w>
dic e_@@</w>
co dice_@@</w>
terri bly</w>
list ing</w>
me stone</w>
li mestone</w>
am an</w>
e in@@</w>
gl ad
k et</w>
b ats</w>
ton es</w>
the e</w>
br un@@</w>
gran de</w>
ob st
3 60</w>
blu e@@</w>
nic ol@@</w>
con ce
cal vin</w>
her ald</w>
na i</w>
bar racks</w>
ap pre
pas sport</w>
philosoph ical</w>
th or</w>
high ness</w>
me gan</w>
af l</w>
1 60</w>
develop er</w>
acc u@@</w>
shep herd</w>
johan n</w>
ca ves</w>
wil der
wilder ness</w>
compri sing</w>
f ford</w>
no tt
ev o</w>
tox ic</w>
gover ned</w>
v ow
philosop her</w>
ch en
mar ina</w>
refu sing</w>
form ations</w>
y man</w>
f ond</w>
c ir@@</w>
conver t</w>
1 25</w>
it ali@@</w>
min ated</w>
stea dily</w>
cow ard</w>
goo se</w>
adop t</w>
sur faces</w>
har ds</w>
d ash</w>
re j
f ull
co ke</w>
k ru@@</w>
war ming</w>
trou bles</w>
tack le</w>
refer end
referend um</w>
vol tage</w>
k ell@@</w>
log ne</w>
do yle</w>
cur ves</w>
on wards</w>
hin di</w>
id aho</w>
vel ocity</w>
po ets</w>
cre st</w>
kilomet res</w>
reali zes</w>
k itty</w>
unk en</w>
w ad@@</w>
re sur
stair case</w>
davi es</w>
gr en@@</w>
y side</w>
tr yside</w>
coun tryside</w>
spe ec
so l</w>
p inned</w>
dra ined</w>
sh ima</w>
r it</w>
und ry</w>
la undry</w>
vi al</w>
propag anda</w>
elli ot</w>
mo ck</w>
r ite</w>
di ane</w>
sav ings</w>
inter ference</w>
it us</w>
elim ination</w>
a is@@</w>
ma e</w>
b am@@</w>
prof its</w>
integr al</w>
bu bble</w>
ch ol@@</w>
geor gian</w>
ob server</w>
sh eer</w>
ma bly</w>
indone sian</w>
separ ately</w>
portra its</w>
veget ables</w>
resp on@@</w>
a ur@@</w>
qu alities</w>
exp enses</w>
p ays</w>
air ing</w>
dor a</w>
pref ecture</w>
wo ol@@</w>
ou n</w>
gab e</w>
tur n@@</w>
holi days</w>
man ga</w>
m s@@</w>
de t@@</w>
as is</w>
wil helm</w>
activi sts</w>
la k@@</w>
up ward</w>
tor tured</w>
sen ators</w>
gr en
proce ed
proceed ings</w>
g lea
en i@@</w>
ro mans</w>
plan ets</w>
au x
be at@@</w>
o e</w>
jon as</w>
plea @@</w>
ob serve</w>
in d@@</w>
demonstr ate</w>
sp a</w>
discu ssions</w>
ne ts</w>
s den</w>
cap s</w>
fle tcher</w>
se ating</w>
t su@@</w>
ced es</w>
ja va</w>
embar ked</w>
indi an
indian apolis</w>
ev angel@@</w>
car rie</w>
com promise</w>
ama zon</w>
bon nie</w>
op er@@</w>
al ger
m essed</w>
sun ny</w>
val ve</w>
ligh thouse</w>
ea ster</w>
h ector</w>
compati ble</w>
wa king</w>
coordin ates</w>
18 40</w>
f ing</w>
bar nes</w>
kno w@@</w>
m ess@@</w>
na to</w>
ca v@@</w>
favor able</w>
g li
rho de</w>
invest ed</w>
h ec@@</w>
work shops</w>
l er@@</w>
bal anced</w>
ri valry</w>
ber n@@</w>
end emic</w>
leg itimate</w>
ev ille</w>
thro ws</w>
with draw
withdraw al</w>
vla dim
vladim ir</w>
ra ged</w>
fla sh
wi reless</w>
p ar</w>
ester shire</w>
wor rying</w>
inter im</w>
inv ention</w>
max im@@</w>
e ur@@</w>
ta k@@</w>
se ll@@</w>
sp er@@</w>
bro s</w>
inf ant</w>
ess ence</w>
sh ei
pet ty</w>
specim ens</w>
spon sor</w>
mar ching</w>
the ft</w>
ro ller</w>
re pl@@</w>
ga zed</w>
veget ation</w>
whis key</w>
bru tal</w>
g ö@@</w>
d ingly</w>
h ack@@</w>
mach in
machin ery</w>
x avi
xavi er</w>
at eral</w>
mon te</w>
ne gl
p am</w>
appro ve</w>
vin yl</w>
g aming</w>
d gers</w>
c ec
ag enda</w>
publ icity</w>
start er</w>
tele graph</w>
185 2</w>
sco tia</w>
z ach</w>
ric hards</w>
truste es</w>
sad ness</w>
1 40</w>
screen play</w>
en ings</w>
ab lo</w>
in age</w>
leng ths</w>
trium ph</w>
j ung</w>
chron icle</w>
eg ed</w>
ess ly</w>
sk ating</w>
ch op@@</w>
anno ying</w>
sk ins</w>
fr u@@</w>
fried rich</w>
inst inct</w>
bri en</w>
ro ll
roll ment</w>
en rollment</w>
mi xing</w>
fr ames</w>
se i</w>
o be@@</w>
sa fer</w>
grou @@</w>
van ni</w>
gio vanni</w>
tro op</w>
s sels</w>
bru ssels</w>
ani um</w>
sur rendered</w>
pro secution</w>
ne o@@</w>
am o</w>
in car
mer cedes</w>
tra iled</w>
propos als</w>
divi @@</w>
cu lar</w>
nam ing</w>
alum ni</w>
lea p</w>
wa ving</w>
su s
sus sex</w>
conv ent</w>
app a</w>
m im@@</w>
al t@@</w>
i z</w>
beg ged</w>
star ds</w>
ba stards</w>
organi zing</w>
z an@@</w>
lanca shire</w>
ch t</w>
equ ality</w>
l ore</w>
bl acks</w>
enz o</w>
a in@@</w>
theore m</w>
10 5</w>
mani pu
ç ois</w>
fran çois</w>
car di@@</w>
с @@</w>
al e
pa c</w>
ma x@@</w>
compo unds</w>
suppor ter</w>
ma k@@</w>
fra gments</w>
bu cket</w>
presu mably</w>
sw inging</w>
scrip tions</w>
im mun
or ious</w>
investig ated</w>
pen hagen</w>
co penhagen</w>
g b</w>
conqu ered</w>
snor ted</w>
b is</w>
anticip ation</w>
tw i@@</w>
per former</w>
su z
publi shers</w>
gre eted</w>
pri m
prim itive</w>
li er</w>
slo ven
g ence</w>
tea sing</w>
c is@@</w>
nom inations</w>
din er</w>
di ver@@</w>
ac claimed</w>
port fo
sc al@@</w>
fl ou
per ception</w>
t ent
part icle</w>
su cking</w>
deri v
cau tion</w>
cigar ettes</w>
fea thers</w>
dra in</w>
transm itter</w>
charac ter@@</w>
li ght@@</w>
or tho@@</w>
jo se
str act</w>
ab stract</w>
fashi oned</w>
v ag@@</w>
arti facts</w>
pl e@@</w>
em i</w>
pract icing</w>
so f@@</w>
hi er
con diti
les bian</w>
st ew@@</w>
si eur</w>
cl as@@</w>
pun jab</w>
sha wn</w>
gh test</w>
mar qu
aff ection</w>
coun @@</w>
comman ds</w>
blo ws</w>
l acked</w>
li d</w>
ab s</w>
sh iny</w>
li v@@</w>
bl ink</w>
mat t@@</w>
it ly</w>
request s</w>
cru iser</w>
mill enni
millenni um</w>
bank rup
abor tion</w>
n ash</w>
c rou
e ked</w>
wat ch@@</w>
vari eties</w>
pro j@@</w>
ag o@@</w>
s v@@</w>
st icated</w>
sophi sticated</w>
wh e@@</w>
explo sive</w>
gu ts</w>
t ended</w>
san t@@</w>
em my</w>
un clear</w>
y de</w>
cl yde</w>
wor m</w>
mc donald</w>
log s</w>
compos ers</w>
185 3</w>
wel com
welcom ed</w>
bo dy
savan nah</w>
air borne</w>
on ists</w>
shoo ter</w>
inter cep
si d</w>
fer din
ferdin and</w>
diplom a</w>
st ella</w>
deleg ates</w>
manag ers</w>
prison ment</w>
im prisonment</w>
cour thouse</w>
plu g</w>
me o</w>
er ik</w>
ta sted</w>
duc tion</w>
republ icans</w>
reluc tantly</w>
i ka</w>
dre y</w>
del u@@</w>
do ve</w>
super natural</w>
min ded</w>
anticip ated</w>
α @@</w>
prosecu tor</w>
fre eway</w>
w ickets</w>
mo tive</w>
mean ing
hu s@@</w>
ha yes</w>
gr inning</w>
consul ting</w>
org ans</w>
r ented</w>
si ves</w>
hel pless</w>
ch u</w>
s well</w>
crow ned</w>
min t</w>
me als</w>
f em@@</w>
ch ev@@</w>
whi pped</w>
environ ments</w>
cli m@@</w>
shiel ds</w>
sl ender</w>
ro d@@</w>
e uro</w>
j al@@</w>
tam pa</w>
gl ou
po sit</w>
de posit</w>
strate gies</w>
al ter</w>
po tter</w>
rec k@@</w>
ron nie</w>
dou bled</w>
y en</w>
sk etch</w>
divi de</w>
observ atory</w>
fol ding</w>
184 9</w>
head ache</w>
d ice</w>
s é@@</w>
l aps</w>
mar ion</w>
tur n
re porters</w>
stim ul
spar k</w>
de serves</w>
op ti@@</w>
op hy@@</w>
bl ical</w>
bi blical</w>
ac a</w>
mar i
re fu@@</w>
sequ ences</w>
spell ed</w>
n intend
nintend o</w>
under lying</w>
ë @@</w>
sco t</w>
sh u</w>
y ield</w>
ben ny</w>
assas sin</w>
ba h
k not</w>
me yer</w>
tur b
deter i
possi bilities</w>
n ev@@</w>
accur acy</w>
t ably</w>
ju dy</w>
pu zzle</w>
bom bers</w>
ou gh@@</w>
whit e@@</w>
mater i@@</w>
twit ter</w>
tra m</w>
compu ting</w>
christ ine</w>
insi st</w>
mo z
tr o</w>
le m</w>
st ad
stad t</w>
st ling</w>
a v</w>
br y@@</w>
un aware</w>
pe dia</w>
re ds</w>
invest ments</w>
be es</w>
sa w@@</w>
pu pil</w>
mani fe@@</w>
pi per</w>
on so</w>
convers ations</w>
dev o
ex claimed</w>
am used</w>
ac eae</w>
th care</w>
re marked</w>
heal thcare</w>
sli m</w>
enc om
f angs</w>
sc ars</w>
nan do</w>
fer nando</w>
trac ted</w>
am elia</w>
muse ums</w>
harmon ic</w>
l ings</w>
en o</w>
end angered</w>
to ss</w>
vau gh
distingu ish</w>
se ller</w>
re a</w>
const itu@@</w>
r end@@</w>
lat eral</w>
nuc le
bri ghton</w>
geo graphical</w>
wa i@@</w>
mor rison</w>
li gh@@</w>
ti se</w>
king ston</w>
th ir@@</w>
dic tionary</w>
ser ie</w>
molecu les</w>
det ect</w>
s ly</w>
n g@@</w>
ib m</w>
c ans</w>
trans form</w>
v sky</w>
achiev ements</w>
ic ating</w>
b é@@</w>
sp ra
battali ons</w>
str and</w>
co hen</w>
ob last</w>
slo pes</w>
aw a@@</w>
k es@@</w>
mic hel</w>
tt p</w>
h ttp</w>
gu ill@@</w>
can cel</w>
jen na</w>
magn itude</w>
tra iner</w>
harv est</w>
sna kes</w>
ar mored</w>
con siders</w>
after math</w>
dep end</w>
t cy</w>
bankrup tcy</w>
li b
ad or@@</w>
al co@@</w>
ench es</w>
di m@@</w>
doc toral</w>
k ira</w>
lac king</w>
super vision</w>
appreci ated</w>
fact ories</w>
r ar@@</w>
sh an
shan non</w>
model ing</w>
ey e@@</w>
pen sion</w>
ble ssing</w>
u ki</w>
st amp</w>
as set</w>
lo ans</w>
gart en</w>
contrac ted</w>
sw ir
mum bled</w>
int el</w>
viol ation</w>
equ ity</w>
mo ss</w>
f ry</w>
d oo@@</w>
fi sh@@</w>
th read</w>
pu ssy</w>
str ous</w>
ric hard
richard son</w>
fl ag
flag ship</w>
vel vet</w>
w son</w>
da wson</w>
gi deon</w>
th ms</w>
exerc ises</w>
di on</w>
ra ped</w>
ag h</w>
dispu ted</w>
dri ft</w>
neighbour hood</w>
cent r@@</w>
w ri
wri sts</w>
cathol ics</w>
w l</w>
und ings</w>
b as</w>
found ations</w>
di ll
pra yers</w>
pul sion</w>
al is</w>
come dian</w>
sen sus</w>
con sensus</w>
doub ts</w>
revi ved</w>
im ported</w>
clo ak</w>
jud ging</w>
blo om@@</w>
ph ine</w>
ed iting</w>
celebr ating</w>
pi pes</w>
thor n</w>
ad el@@</w>
wa sh@@</w>
pil gri
q ing</w>
184 7</w>
de en</w>
cha sed</w>
inf l@@</w>
spe eds</w>
char ging</w>
dro wned</w>
integr ity</w>
d ford</w>
bra dford</w>
so cks</w>
i i@@</w>
th ia</w>
tal ents</w>
moment um</w>
ack ers</w>
pro portion</w>
h eck</w>
j en</w>
regim ents</w>
dic k@@</w>
sal i@@</w>
w ick@@</w>
th ews</w>
i p</w>
an a@@</w>
w on@@</w>
surro undings</w>
sail ors</w>
ki llers</w>
bene f@@</w>
mo der@@</w>
im mortal</w>
emplo yer</w>
vac u
vacu um</w>
v ens</w>
pre vention</w>
star ving</w>
consist ently</w>
adv ancing</w>
spell s</w>
re union</w>
ve iled</w>
de bris</w>
dre am@@</w>
sher man</w>
commo d
le in</w>
i sh@@</w>
fl ick
uni fied</w>
ra ja</w>
in finite</w>
t att
a very</w>
p ouring</w>
lab els</w>
g ina</w>
convin cing</w>
cl am@@</w>
induc ed</w>
de m</w>
mul ated</w>
mess enger</w>
mal i@@</w>
pau lo</w>
ter ian</w>
sn ar
presby terian</w>
it ative</w>
s laughter</w>
deplo yment</w>
wit ches</w>
insul t</w>
sidew alk</w>
ko k@@</w>
la zy</w>
protest ed</w>
prec ed
bo thering</w>
de pressed</w>
tra itor</w>
high ways</w>
valu ed</w>
ro vers</w>
for en
com mo@@</w>
a hh</w>
diagno sed</w>
scan ned</w>
du chess</w>
y ak@@</w>
y ah</w>
yl um</w>
as ylum</w>
spec ul@@</w>
inter actions</w>
le x@@</w>
tall er</w>
fri dge</w>
se tte</w>
al am</w>
sum mon
summon ed</w>
alban ian</w>
fre y</w>
prev enting</w>
mon sieur</w>
impl ement</w>
ga e</w>
sw an</w>
heart beat</w>
re agan</w>
184 6</w>
archi ve</w>
le y@@</w>
le a</w>
d ances</w>
consu mers</w>
d itch</w>
scen ario</w>
hypo thesis</w>
lo unge</w>
advant ages</w>
continu ously</w>
promo tional</w>
craw l</w>
reluc tant</w>
er nity</w>
z ia</w>
vill agers</w>
wr ong@@</w>
war f</w>
d warf</w>
ric k@@</w>
hu a</w>
decreas ed</w>
mo tel</w>
d iti@@</w>
ga ins</w>
elli ott</w>
ama z@@</w>
i ra@@</w>
nat ur@@</w>
per t</w>
conf ess</w>
inter rupt</w>
la y@@</w>
con f@@</w>
wra pping</w>
ab original</w>
organ isms</w>
cri es</w>
i j@@</w>
c l</w>
summ ers</w>
ssi p</w>
go ssip</w>
wan dering</w>
dri a</w>
alexan dria</w>
ra iders</w>
mid fielder</w>
vill ain</w>
vo l</w>
or lando</w>
diff er</w>
et to</w>
shi fts</w>
spell ing</w>
gest ured</w>
electr on</w>
enc losed</w>
ull s</w>
el f</w>
ac claim</w>
ball ot</w>
ma ss@@</w>
ho und</w>
pas s@@</w>
c ely</w>
mar es</w>
man tle</w>
com a</w>
illu sion</w>
cho ked</w>
ba h@@</w>
med ic@@</w>
a isle</w>
e urs</w>
spr ing
spring field</w>
18 12</w>
bra vo</w>
torn ado</w>
na ples</w>
pi gs</w>
omet ric</w>
enti ve</w>
sy m@@</w>
k est</w>
clas si@@</w>
sch o@@</w>
ti li@@</w>
refl ecting</w>
l il@@</w>
ap point</w>
sur ge</w>
gu essing</w>
man d
mand atory</w>
de v</w>
min ers</w>
exper tise</w>
we e</w>
ast on
wind sor</w>
con rad</w>
ir i</w>
hi e</w>
contain er</w>
secu lar</w>
rein forced</w>
pres enting</w>
enthusi asm</w>
juli us</w>
wend y</w>
b outs</w>
sw amp</w>
bur n@@</w>
tor ch</w>
tr in@@</w>
encoura ging</w>
whi stle</w>
ti ghter</w>
contest ants</w>
gra vel</w>
wa x</w>
a ker</w>
m als</w>
spr int</w>
ro gue</w>
la va</w>
can vas</w>
sex ually</w>
com man@@</w>
pl ymouth</w>
dep ths</w>
b any</w>
al bany</w>
t apes</w>
sor ted</w>
ag on@@</w>
coff in</w>
mar l@@</w>
s ne@@</w>
pu rely</w>
yan kees</w>
mo s</w>
persu aded</w>
gen s</w>
deleg ation</w>
ac ti@@</w>
diagno sis</w>
dem o</w>
ic u@@</w>
hom ework</w>
tur tle</w>
lam b</w>
di ver
ro dri
k op@@</w>
in ers</w>
ro ar</w>
cardi ff</w>
am ar@@</w>
eter nity</w>
sal ad</w>
pi ll@@</w>
differ enti
accor dance</w>
ju d@@</w>
fru its</w>
ra ids</w>
re fri
comp are</w>
po logy</w>
occup y</w>
t gun</w>
sho tgun</w>
ma gi
so da</w>
mar g
stro ked</w>
p to@@</w>
f li@@</w>
g ari
gari on</w>
m son</w>
cri mson</w>
cou sins</w>
see ks</w>
medic ation</w>
w ns</w>
prohib ited</w>
z ack</w>
all eg@@</w>
18 00</w>
bi o</w>
paki stani</w>
geo graphy</w>
ter race</w>
under taken</w>
gas p</w>
scor er</w>
é t
sc oo@@</w>
hy dr@@</w>
sur rey</w>
se ar@@</w>
de ton@@</w>
vo id</w>
appl ying</w>
under water</w>
cap ability</w>
ry der</w>
lic ence</w>
swe ater</w>
an u@@</w>
ba k@@</w>
p s@@</w>
h ears</w>
sail or</w>
gn itive</w>
co gnitive</w>
l ick</w>
fil ter</w>
au dition</w>
s op@@</w>
wor d@@</w>
war den</w>
ni xon</w>
ok a</w>
femin ist</w>
ga dier</w>
bri gadier</w>
man ners</w>
c p</w>
battle field</w>
ac company</w>
lin king</w>
a ve</w>
regar ds</w>
p russian</w>
n is@@</w>
achiev ing</w>
ac i@@</w>
vi sions</w>
es on</w>
ac es</w>
bl ur
quart et</w>
lim pse</w>
g limpse</w>
ut terly</w>
lo sure</w>
mo du@@</w>
w ad
wad ays</w>
no wadays</w>
ru lers</w>
cre epy</w>
na omi</w>
car eers</w>
eigh ty</w>
ac et@@</w>
o ch</w>
no dding</w>
p enter</w>
car penter</w>
chem icals</w>
v ana</w>
bre ach</w>
ur ring</w>
rec urring</w>
bo tt@@</w>
in fer
ent ries</w>
t ali
appl ic
jud ged</w>
s ati@@</w>
tack les</w>
m ice</w>
mel ted</w>
de serted</w>
mob il@@</w>
fit ness</w>
jeff rey</w>
functi oning</w>
cha u@@</w>
thorou ghly</w>
brun o</w>
thre sh
thresh old</w>
t as</w>
all u@@</w>
p rus</w>
cy prus</w>
lan es</w>
expl oring</w>
ip ino</w>
fil ipino</w>
j ade</w>
vari ants</w>
r ati@@</w>
proc eeds</w>
fac ade</w>
10 2</w>
guar ded</w>
assu mption</w>
sub mit</w>
pic nic</w>
s w</w>
gener als</w>
net te</w>
ju da
fl ank</w>
er n@@</w>
h art
fa ils</w>
supp er</w>
critic ised</w>
or din@@</w>
ep h@@</w>
dra w@@</w>
shir ley</w>
b om@@</w>
sh na</w>
kri shna</w>
w re@@</w>
disc re@@</w>
lan ders</w>
gen ic</w>
stre aming</w>
ili ary</w>
aux iliary</w>
er rors</w>
zz ie</w>
he e</w>
negoti ate</w>
oper ative</w>
c t</w>
ma del
18 30</w>
y ly</w>
itt ers</w>
op tim
pro pri
stan bul</w>
tou ches</w>
volcan ic</w>
on light</w>
mo onlight</w>
fac ial</w>
tr ick@@</w>
per imeter</w>
z el@@</w>
ad ap@@</w>
gar cia</w>
werew olf</w>
w ic
mon a</w>
tan gular</w>
rec tangular</w>
on ey</w>
ly on</w>
18 45</w>
s so</w>
kni ves</w>
ter bury</w>
can terbury</w>
y r</w>
o bey</w>
accompan ying</w>
st ag
ol ine</w>
sp ear</w>
vi ol@@</w>
terri fic</w>
ed win</w>
un t@@</w>
hal i@@</w>
lo is</w>
le x</w>
com b</w>
al e@@</w>
or ous</w>
craw ford</w>
sp ur</w>
sad dle</w>
new er</w>
d enti
novel ist</w>
s berg</w>
du m</w>
ap h@@</w>
ne ill</w>
lau rel</w>
h man</w>
ju ana</w>
ic us</w>
a sha</w>
dig nity</w>
pol o</w>
lanca ster</w>
rev ol@@</w>
pen gu
bra in@@</w>
r atic</w>
blo s
go al
goal keeper</w>
s r@@</w>
anal y@@</w>
sur gical</w>
m ets</w>
in fr
craw led</w>
b hu@@</w>
i el</w>
chur chill</w>
sho ve</w>
fi ona</w>
wh oo@@</w>
ha d@@</w>
f it@@</w>
can dles</w>
d ental</w>
c b@@</w>
ran o</w>
ru sty</w>
budd ha</w>
spect acular</w>
sk ies</w>
s und
domin ic</w>
techno logical</w>
la us</w>
lo o</w>
consu l@@</w>
g ag@@</w>
ssi vely</w>
stro de</w>
sh are
indi e</w>
s nia</w>
di stress</w>
bo snia</w>
ster ling</w>
fore ig
cro w@@</w>
cra shing</w>
pur suing</w>
po li@@</w>
moroc co</w>
el o@@</w>
recre ational</w>
adv ances</w>
g m@@</w>
ste in@@</w>
wat ts</w>
mechan isms</w>
co b@@</w>
sp ac@@</w>
par am@@</w>
discipl inary</w>
bec k@@</w>
ri des</w>
con serv@@</w>
un incorporated</w>
gn ment</w>
luc ien</w>
m ali
le thal</w>
re treated</w>
i ors</w>
ne s@@</w>
pat ted</w>
per forms</w>
del ight</w>
unfortun ate</w>
sal mon</w>
to po@@</w>
comb ine</w>
arm oured</w>
au drey</w>
ceremon ies</w>
ling u@@</w>
the od
theod ore</w>
enc ia</w>
re per
fortun ately</w>
7 50</w>
t earing</w>
sal on</w>
wea kened</w>
te ed</w>
guaran teed</w>
han ding</w>
tribu tary</w>
finger tips</w>
amb itious</w>
cy clone</w>
can n
dea @@</w>
sl o</w>
o slo</w>
mo aned</w>
mater nal</w>
b ard</w>
ll ies</w>
kidn apping</w>
per i@@</w>
ribb on</w>
al pine</w>
w ool</w>
fil thy</w>
ver bal</w>
stra w</w>
rh ine</w>
teamm ate</w>
t ing@@</w>
ma sses</w>
v ain</w>
do ver</w>
assa ul
max well</w>
manu scripts</w>
pl as
plas ma</w>
on aire</w>
thank s
thanks giving</w>
inclu sion</w>
g ile</w>
fra gile</w>
ro th</w>
explor er</w>
can dle</w>
ac ute</w>
ow een</w>
hall oween</w>
spi lled</w>
le ston</w>
char leston</w>
na z@@</w>
inno cence</w>
or dering</w>
fre i@@</w>
def endant</w>
mal ta</w>
pi er@@</w>
sas kat
saskat ch
tre ati
sculp tor</w>
ec cle
l emon</w>
isa bel</w>
li k@@</w>
tan ner</w>
poll ution</w>
hea vier</w>
cooper ative</w>
a ided</w>
saskatch ewan</w>
d war@@</w>
em be
embe dded</w>
po ster</w>
hon da</w>
ar a@@</w>
cy n
y att</w>
w yatt</w>
greg or</w>
wait ress</w>
sett ings</w>
defin ite</w>
fl an@@</w>
es says</w>
mem bran
membran e</w>
we lling</w>
consoli dated</w>
o ther@@</w>
avail ability</w>
an ita</w>
q i@@</w>
at ics</w>
ninet een</w>
par i@@</w>
tra gic</w>
ni val</w>
car nival</w>
spo on</w>
far ewell</w>
b ce</w>
bel fast</w>
f ere</w>
shar ks</w>
alloc ated</w>
ni k@@</w>
p g</w>
hop kins</w>
cy ber@@</w>
refer ee</w>
cy cling</w>
re al@@</w>
m ati@@</w>
k as</w>
domin ican</w>
sk in
skin ny</w>
monum ents</w>
sil s</w>
wei ghed</w>
1 500</w>
car riers</w>
dischar ge</w>
speci alty</w>
ap or@@</w>
f ea@@</w>
prot agonist</w>
spe ed
speed way</w>
ch et</w>
re tro@@</w>
k al</w>
k ang</w>
matt ress</w>
ax e</w>
pot atoes</w>
k ies</w>
coo kies</w>
s lower</w>
brea ths</w>
d f</w>
k ul@@</w>
cla use</w>
back pack</w>
pre mi@@</w>
ssi l</w>
fo ssil</w>
da u@@</w>
stat u
sn or@@</w>
be g@@</w>
se ssed</w>
ob sessed</w>
at ro@@</w>
entrepren eur</w>
stat ues</w>
tim er</w>
in do</w>
yo ming</w>
w yoming</w>
ob sc
im pac
pract iti
swi f
swif tly</w>
no tre</w>
τ @@</w>
ou x</w>
lithu ania</w>
ag nes</w>
polic eman</w>
a idan</w>
wag ner</w>
sovere ign</w>
ad dresses</w>
kir k@@</w>
mor ton</w>
be th
pharm ac
refl ects</w>
ra z@@</w>
wi llow</w>
ig a</w>
mem or@@</w>
bu ster</w>
rober tson</w>
do dge</w>
ș @@</w>
na i
crit ically</w>
succ essive</w>
respon ses</w>
el u@@</w>
y acht</w>
ic eland</w>
disgu st</w>
compl ain</w>
n most</w>
de tention</w>
ro meo</w>
con go</w>
ick eter</w>
cr icketer</w>
step han
stephan ie</w>
k ly</w>
vari ables</w>
expres sions</w>
def l@@</w>
ag ony</w>
si re</w>
l en</w>
b ay
pe an
der i@@</w>
r t@@</w>
exhib its</w>
et al</w>
el et</w>
inter fere</w>
ic tion</w>
ti um</w>
col oured</w>
long ed</w>
he tic</w>
se oul</w>
cli p</w>
fre est
freest yle</w>
encoun ters</w>
e be</w>
desig ners</w>
corn wall</w>
pol it@@</w>
sh el@@</w>
co ff@@</w>
paper work</w>
retri eve</w>
vil ion</w>
pa vilion</w>
sp ill</w>
pr on@@</w>
me h@@</w>
remn ants</w>
hor ns</w>
flu sh</w>
ra w@@</w>
w age</w>
we b@@</w>
co oling</w>
explo de</w>
er oy</w>
i ć</w>
count ess</w>
10 4</w>
mar y@@</w>
re gained</w>
van essa</w>
cr ater</w>
pun ish</w>
v able</w>
sent ences</w>
spr ing@@</w>
flu shed</w>
f ol@@</w>
gen res</w>
car men</w>
ph s</w>
renov ation</w>
ex otic</w>
du chy</w>
deli ghted</w>
eg i@@</w>
w yn</w>
provi der</w>
sub si@@</w>
cor al</w>
min u@@</w>
con ce@@</w>
se lle</w>
re sign</w>
li st@@</w>
k ata</w>
h ali
hali fax</w>
18 37</w>
ver i
ance stry</w>
per cy</w>
her o@@</w>
re fer@@</w>
emig rated</w>
ki ll@@</w>
iri e</w>
exc essive</w>
ch ur@@</w>
treas urer</w>
stri al</w>
re strial</w>
ram id</w>
py ramid</w>
cow boys</w>
ba hn</w>
scre ening</w>
dam ien</w>
co logne</w>
fell ows</w>
resear cher</w>
commerci ally</w>
el vis</w>
sec tors</w>
radi o@@</w>
sidew ays</w>
cal y
t ch@@</w>
b ates</w>
constitu ted</w>
frank furt</w>
im pe@@</w>
conf essed</w>
cal mly</w>
ha mm
spec ulation</w>
s me@@</w>
r er@@</w>
frank ly</w>
swit ching</w>
ewor ks</w>
fran k@@</w>
excep tions</w>
re gain</w>
pe p@@</w>
sour @@</w>
d ment</w>
rob bie</w>
sev er@@</w>
bever ly</w>
volun tary</w>
f etch</w>
di xon</w>
beat les</w>
ri gid</w>
correc ted</w>
af ter@@</w>
dev i@@</w>
ther an</w>
lu theran</w>
mil it
ta ke@@</w>
sad ly</w>
mad onna</w>
cel ed</w>
can celed</w>
fla shing</w>
gener ating</w>
facil itate</w>
my thology</w>
p russia</w>
su tton</w>
ro of
son ny</w>
em an@@</w>
traff icking</w>
mor se</w>
u ts</w>
pra ying</w>
ro m@@</w>
conveni ence</w>
ti res</w>
ver onica</w>
alge bra</w>
telec om
ro chester</w>
corpor ations</w>
alexan dra</w>
no bility</w>
y up</w>
arc ade</w>
scre ens</w>
compani ons</w>
et ric</w>
l d</w>
equ i@@</w>
s oo
k ö
sk ir@@</w>
man it
manit oba</w>
detec tion</w>
th ru@@</w>
sculp tures</w>
po stal</w>
renov ated</w>
comman ders</w>
dem o
d j@@</w>
c ease</w>
so aked</w>
ta to</w>
po tato</w>
si ding</w>
tex t
und a</w>
á n
no bel</w>
du l</w>
ab dul</w>
ber g@@</w>
teen agers</w>
clo wn</w>
fu lness</w>
ta m</w>
ju li@@</w>
ta stes</w>
wal sh</w>
par d</w>
er n</w>
revel ation</w>
al ison</w>
shru g</w>
appoin ting</w>
hol t</w>
por k</w>
tea sed</w>
el ders</w>
at ly</w>
wait er</w>
j et@@</w>
su it
suit case</w>
char itable</w>
sma shed</w>
um bre
umbre lla</w>
virt ue</w>
enc y
su dan</w>
ber ries</w>
re united</w>
rum bled</w>
princi p
sid ney</w>
arch i@@</w>
e di@@</w>
n im@@</w>
cou pled</w>
specim en</w>
sam my</w>
mm ing</w>
pot tery</w>
governor s</w>
obj ectives</w>
co dy</w>
contr @@</w>
counc ils</w>
rever sed</w>
th om@@</w>
d ane</w>
d win</w>
bal dwin</w>
exp an@@</w>
re la@@</w>
ri ots</w>
al ex@@</w>
o z@@</w>
ra ine</w>
ay ing</w>
bel grade</w>
we i@@</w>
distur bing</w>
long time</w>
c oul@@</w>
op ed</w>
si l</w>
or ph@@</w>
don ations</w>
dis orders</w>
du sty</w>
clam ation</w>
om ar</w>
up side</w>
n h</w>
cl are</w>
gh ana</w>
ra pper</w>
sm oo@@</w>
mon arch</w>
laur ence</w>
bro ok@@</w>
au gu@@</w>
am ine</w>
immi grant</w>
inev itable</w>
an as</w>
est e</w>
t ap
cal gary</w>
car bon@@</w>
kin der
kinder garten</w>
cu m</w>
grocer y</w>
femin ine</w>
releg ation</w>
in filtr@@</w>
neighbor hoods</w>
fas cin
fascin ating</w>
cap turing</w>
doub ted</w>
do d@@</w>
wes ley</w>
b ours</w>
stum es</w>
co stumes</w>
tend ency</w>
sm outh</w>
bl end</w>
184 1</w>
provi sional</w>
thri ller</w>
deli vering</w>
liv est
livest ock</w>
v y@@</w>
correspon dence</w>
bru shing</w>
pro pose</w>
comm u@@</w>
mis ery</w>
ef s</w>
reg ent</w>
escap ing</w>
c f</w>
e der</w>
e iro</w>
gi g</w>
spar k
squad rons</w>
un sure</w>
adm ired</w>
bu sted</w>
over time</w>
pas sionate</w>
i ah</w>
educ @@</w>
k ry@@</w>
est i@@</w>
po unded</w>
184 4</w>
cc i</w>
an ic</w>
survi vor</w>
z ier</w>
ch at
bu ff@@</w>
new man</w>
bec ky</w>
u ssr</w>
cent ric</w>
by pass</w>
im pro@@</w>
un ite</w>
g ator</w>
au ghter</w>
jen kins</w>
ch ro
c ay@@</w>
m á@@</w>
radi us</w>
10 3</w>
pre ce
prece ding</w>
f ade</w>
en son</w>
in er@@</w>
hau led</w>
m our@@</w>
ed itors</w>
jan a</w>
er o
w es@@</w>
sympa thetic</w>
portfo lio</w>
ah med</w>
boy d</w>
ro gen</w>
cur ling</w>
gr ams</w>
ju de</w>
dram atically</w>
depic ting</w>
ven ile</w>
ju venile</w>
as ser@@</w>
î @@</w>
classi cs</w>
certi fication</w>
hom icide</w>
re conc
ab ling</w>
pro jected</w>
presid ents</w>
hear @@</w>
gam e
game play</w>
ag gre@@</w>
r ory</w>
indu stri@@</w>
w ing
wing span</w>
yo ga</w>
regu lat
regulat ory</w>
pati ently</w>
whis pering</w>
k ade</w>
hu m</w>
wh ale</w>
w es</w>
g la
mem @@</w>
gre ene</w>
ol ds</w>
at ories</w>
un fair</w>
gr ac@@</w>
in tri
graph s</w>
t ying</w>
ph an
phan tom</w>
fran ces</w>
2 5th</w>
predic table</w>
tri b
trib une</w>
s ory</w>
on t@@</w>
t ening</w>
al ma</w>
syn thetic</w>
king doms</w>
air plane</w>
thi eves</w>
ul tra</w>
man date</w>
y ne</w>
ti mo
timo thy</w>
overwhel med</w>
i jan</w>
azerba ijan</w>
de ep@@</w>
g mina</w>
pa ved</w>
wood land</w>
ma ple</w>
break down</w>
j es@@</w>
laun ching</w>
sl ice</w>
ar rows</w>
excep tional</w>
hy m
bl ance</w>
woo dy</w>
twi sting</w>
v it
bro o@@</w>
th ames</w>
swe eping</w>
o que</w>
bar oque</w>
fol ds</w>
or d</w>
in ti@@</w>
ra o</w>
ball oon</w>
an der@@</w>
pres enter</w>
t essa</w>
al oud</w>
rho des</w>
me ll@@</w>
d h</w>
wh ites</w>
cont am
re mix</w>
man ned</w>
o tes</w>
geom etry</w>
sem in
ob taining</w>
ve d@@</w>
mack enzie</w>
n c</w>
eth ical</w>
secur ities</w>
heav ens</w>
bor is</w>
instruc @@</w>
hy p
zi p</w>
crow ds</w>
e ans</w>
vi g@@</w>
th ri@@</w>
int ensive</w>
fi ber</w>
w ages</w>
l end</w>
o ta</w>
d led</w>
va e</w>
a str@@</w>
ac knowledge</w>
plea ded</w>
pur su@@</w>
er g@@</w>
v at@@</w>
fr ac
persu ade</w>
st en@@</w>
scar let</w>
luc k
luck ily</w>
wan dered</w>
terror ists</w>
an gie</w>
measu rement</w>
pea ks</w>
preci sion</w>
18 36</w>
detec @@</w>
z is</w>
na zis</w>
strugg les</w>
cl ergy</w>
r al@@</w>
icu lar</w>
aff ir
armen ia</w>
deb ts</w>
flexi ble</w>
vo i
port smouth</w>
bo eing</w>
accor dingly</w>
v icious</w>
gi fted</w>
jeal ousy</w>
do g@@</w>
ch op
mel ani
melani e</w>
ar ma@@</w>
i re@@</w>
cu e</w>
sm u@@</w>
con fined</w>
se y@@</w>
buil der</w>
k s@@</w>
g art</w>
jo intly</w>
18 38</w>
man eu
el ect</w>
bar ney</w>
18 39</w>
alban ia</w>
bat ted</w>
skel eton</w>
op y</w>
test @@</w>
joh n@@</w>
da emon</w>
j unk</w>
ul ated</w>
threat en</w>
g uru</w>
i os</w>
n at</w>
buddhi sm</w>
i stanbul</w>
fu m
en er
missi onaries</w>
for bes</w>
nerv ously</w>
f en</w>
su m@@</w>
ne at</w>
re bounds</w>
jac ob@@</w>
in tru@@</w>
r ental</w>
bel ar
bu z
ent ities</w>
d air
dair y</w>
che at</w>
ver b</w>
sma sh</w>
fl ags</w>
gre y@@</w>
san g@@</w>
equ ations</w>
flow ed</w>
contro ller</w>
schem es</w>
accommo dation</w>
w ong</w>
am os</w>
some place</w>
e ti@@</w>
el in</w>
gra bs</w>
fr action</w>
intri gu
gu at
se d@@</w>
o ll
oll en</w>
disgu ise</w>
ur ai</w>
modu le</w>
4 50</w>
recru it</w>
compri sed</w>
wh ir
confron ted</w>
h f</w>
hi ll
ca iro</w>
eng aging</w>
dar win</w>
mu g</w>
cl ary</w>
accid ents</w>
dis belief</w>
sw an@@</w>
ham m@@</w>
v at
vat ican</w>
h ance</w>
en hance</w>
dam mit</w>
bor dered</w>
en burg</w>
spon tan
á n@@</w>
boo ked</w>
f ton</w>
ba it</w>
sta b</w>
g inger</w>
un employment</w>
mar ker</w>
new s@@</w>
sw ollen</w>
o van</w>
don ovan</w>
lithu anian</w>
as he</w>
am in</w>
prin ces</w>
govern ance</w>
h t</w>
ur ated</w>
inaug urated</w>
n ch</w>
ly nch</w>
appreci ation</w>
diplom at</w>
sn a@@</w>
y on</w>
professi onally</w>
mu sh
wheel chair</w>
ho lo@@</w>
da vi@@</w>
bl in@@</w>
initi atives</w>
mam mals</w>
bra kes</w>
tem p@@</w>
ta e</w>
cor rupt</w>
st ool</w>
de p@@</w>
quant ity</w>
indic ation</w>
t ends</w>
col um@@</w>
te aches</w>
cor p</w>
vi su@@</w>
mo tivated</w>
ma ur@@</w>
wrest ler</w>
termin ated</w>
measu rements</w>
bra ke</w>
baron et</w>
cl ou@@</w>
cor in@@</w>
po lished</w>
184 2</w>
fl an
bab y@@</w>
u li@@</w>
cam ping</w>
sto ke</w>
lind say</w>
che er@@</w>
pen is</w>
loc ality</w>
be h@@</w>
ol as</w>
nic olas</w>
web b</w>
transm itted</w>
pra irie</w>
aver aged</w>
recommend ation</w>
pas sive</w>
be ar@@</w>
min im@@</w>
bul ous</w>
volcan o</w>
cap tive</w>
the or@@</w>
pri zes</w>
sa c</w>
da i</w>
day time</w>
a via</w>
gran dd
grandd aughter</w>
olymp i@@</w>
к @@</w>
termin @@</w>
pi x@@</w>
recomm end</w>
sh en@@</w>
kno x</w>
ou rable</w>
dal ton</w>
celebr ities</w>
scram bled</w>
shu d
shud dered</w>
m ons</w>
patri ots</w>
under cover</w>
recommend ations</w>
et ically</w>
ma ha@@</w>
high land</w>
gl orious</w>
lin d@@</w>
appro pri@@</w>
swe at
p ill</w>
pp o</w>
i lls</w>
spar ks</w>
ten ants</w>
un es</w>
x x@@</w>
cor nell</w>
bart on</w>
regu lated</w>
activ ation</w>
a ven
18 32</w>
sco ts</w>
gener ator</w>
fav ored</w>
know le@@</w>
coordin ator</w>
c ents</w>
ab bot</w>
fil ing</w>
be aches</w>
arch ie</w>
re gre@@</w>
emp ow@@</w>
tra iling</w>
gu ar@@</w>
cla d</w>
syn chron@@</w>
ker ry</w>
bal tic</w>
un successfully</w>
ch ec@@</w>
ha ble</w>
sl ick</w>
ri dges</w>
communi sts</w>
man ic</w>
dd ling</w>
at ers</w>
mac donald</w>
ton ic</w>
nel t</w>
mo und</w>
neu tr@@</w>
multi pl@@</w>
pl as@@</w>
ac credited</w>
ban g@@</w>
andr é</w>
isol ation</w>
comb ining</w>
de acon</w>
f th</w>
в @@</w>
stra it</w>
m essing</w>
h eter
heter o@@</w>
10 6</w>
le f@@</w>
ro sen@@</w>
u tter</w>
sem ents</w>
dem o@@</w>
sor row</w>
inv iting</w>
l are</w>
dec lare</w>
h ra</w>
son ville</w>
tu g</w>
clar ence</w>
emplo y</w>
recep tor</w>
d die</w>
be et
provi dence</w>
con c@@</w>
k nelt</w>
win ding</w>
ra il@@</w>
ex ams</w>
gro an</w>
at ra</w>
cat cher</w>
rock ets</w>
emer ge</w>
bo s</w>
tra dem
tradem ark</w>
unti e</w>
it orium</w>
aud itorium</w>
di sh@@</w>
spac ecraft</w>
hes itation</w>
ced ar</w>
b har@@</w>
gu son</w>
fi xing</w>
fer guson</w>
w int
wint ers</w>
thor pe</w>
li sm</w>
w h</w>
ull ah</w>
r m</w>
desp air</w>
bea ms</w>
thri lled</w>
mon archy</w>
18 35</w>
resur rec
car roll</w>
port able</w>
rel ate</w>
x y@@</w>
mid st</w>
ga elic</w>
ad her@@</w>
shi vered</w>
s our</w>
rou s</w>
dic ally</w>
fl ynn</w>
fl icked</w>
notor ious</w>
phi es</w>
je ep</w>
th um@@</w>
dr y@@</w>
twel fth</w>
mel t</w>
gymna sium</w>
privil ege</w>
lu dwi
ludwi g</w>
satis fy</w>
bo ll@@</w>
boo st</w>
decor ation</w>
kno ck
knock out</w>
bre a@@</w>
ar d@@</w>
her man</w>
narrow ly</w>
strang ely</w>
pra yed</w>
in herit
inherit ance</w>
mon ton</w>
hast ings</w>
ed monton</w>
d oom</w>
qu ir@@</w>
chil d@@</w>
si st@@</w>
chor d</w>
promin ence</w>
spher ic</w>
han a</w>
esp n</w>
cas ually</w>
f ters</w>
correspon dent</w>
ro bots</w>
de o</w>
gon z
sin clair</w>
si ck
sick ness</w>
pro m</w>
mo or</w>
se iz
proph et</w>
ff er</w>
salv ation</w>
off rey</w>
ge offrey</w>
app lies</w>
jour @@</w>
т @@</w>
prepar ations</w>
en nan</w>
br ennan</w>
stam ps</w>
deci sive</w>
reali se</w>
mum my</w>
out lets</w>
de xter</w>
ro y
appe aled</w>
k icks</w>
inv ent
invent ory</w>
fe ed
feed back</w>
qu ote</w>
r onic</w>
ge ological</w>
ch ronic</w>
pac ks</w>
in sight</w>
é r@@</w>
defin es</w>
bre tt</w>
184 3</w>
ter esa</w>
t ick</w>
d red</w>
di zzy</w>
ro bbed</w>
disp er@@</w>
nin ety</w>
trem end
tremend ous</w>
te ens</w>
ss is</w>
erup ted</w>
nor ton</w>
ran dall</w>
un ic@@</w>
af t</w>
caf é</w>
op en@@</w>
ber gen</w>
dar ren</w>
pe de
coo per@@</w>
co cked</w>
physici ans</w>
z io</w>
col span</w>
d ler</w>
congre ssman</w>
chan dler</w>
in formal</w>
op ing</w>
ci de</w>
anth ro@@</w>
in os</w>
eg a</w>
ful fill</w>
b bs</w>
cla yton</w>
fre sh@@</w>
sa ves</w>
m acy</w>
decor ative</w>
re pu@@</w>
pill ar</w>
j ol@@</w>
off ended</w>
o ids</w>
escap es</w>
dis appearance</w>
8 0s</w>
catal y@@</w>
incl ined</w>
advoc ated</w>
ingredi ents</w>
bloc k@@</w>
hard t</w>
gl ing</w>
ad am@@</w>
mon ten
fini shes</w>
y er@@</w>
ew ood</w>
rehab il
rehabil itation</w>
sha m@@</w>
mat tered</w>
stat ute</w>
break through</w>
ï @@</w>
zar re</w>
bi zarre</w>
le um</w>
au st</w>
ch art@@</w>
ran kings</w>
qu ick@@</w>
escor ted</w>
param eters</w>
bu mp</w>
on o</w>
comfor tably</w>
week ends</w>
l ame</w>
ex trac@@</w>
en acted</w>
deva stated</w>
flo at</w>
gu i@@</w>
glan ces</w>
pret ended</w>
bo unced</w>
ra e</w>
an es</w>
tum or</w>
gard ner</w>
ug anda</w>
po ps</w>
bi om@@</w>
an thology</w>
supervis or</w>
compar able</w>
coo kie</w>
sy ll
in hib@@</w>
con dem@@</w>
ad just</w>
k ni@@</w>
ne gie</w>
car negie</w>
i on@@</w>
em issions</w>
val ent@@</w>
fal con</w>
loo sely</w>
rec tor</w>
a sted</w>
qu il@@</w>
h ens</w>
high lights</w>
night mares</w>
sa x@@</w>
gg led</w>
ob serv@@</w>
so ber</w>
po s</w>
conf is
nati @@</w>
lab eled</w>
dispu tes</w>
guid elines</w>
c ass</w>
bu b@@</w>
al do</w>
sens ors</w>
op ted</w>
b l</w>
religi ons</w>
tar ies</w>
depic ts</w>
christ ina</w>
struc tured</w>
ser ena</w>
org asm</w>
ve in</w>
ei ve</w>
har i</w>
stra y</w>
f ear
reali zation</w>
anno unce</w>
sli des</w>
bi ous</w>
w we</w>
arm our</w>
ben son</w>
avi an</w>
di zed</w>
re actor</w>
pa v@@</w>
ill o</w>
ther hood</w>
bro therhood</w>
leic ester</w>
proc essor</w>
m per</w>
direc @@</w>
lev i</w>
de b@@</w>
gr in@@</w>
conserv atory</w>
g le@@</w>
v est</w>
pre ceded</w>
z able</w>
de ed</w>
ra fa
rafa el</w>
mec han@@</w>
an tic</w>
for t@@</w>
du pl@@</w>
up grade</w>
develop s</w>
fell as</w>
m oul@@</w>
dispo sal</w>
complex ity</w>
mer cen
dan i@@</w>
pre ference</w>
must n</w>
ka th@@</w>
ph i</w>
sp ra@@</w>
un necessary</w>
ol er</w>
co oler</w>
im per@@</w>
st int</w>
wal d</w>
read ily</w>
helicop ters</w>
john ston</w>
isl am@@</w>
to w</w>
bull s</w>
p enc
penc il</w>
ec u@@</w>
fo ols</w>
web sites</w>
g na@@</w>
pea sants</w>
partis an</w>
cu ffs</w>
am phi@@</w>
tre k</w>
ig an</w>
ro leum</w>
pet roleum</w>
fil i@@</w>
com b@@</w>
ly dia</w>
resem ble</w>
du bai</w>
pu ppy</w>
si us</w>
lu c</w>
cre pt</w>
sh man</w>
cell ular</w>
am ne
progre ssed</w>
t ess</w>
but cher</w>
wor ms</w>
k ening</w>
po ds</w>
sl um@@</w>
sma ll@@</w>
resu me</w>
inter v
ham mond</w>
co ats</w>
kend ra</w>
co caine</w>
ni er</w>
co ve</w>
off shore</w>
he al@@</w>
for getting</w>
auto biography</w>
fis cal</w>
hi ro@@</w>
guit ars</w>
ha b</w>
au t</w>
lam ps</w>
model ed</w>
mo des</w>
explo sives</w>
cur tains</w>
dro wning</w>
americ as</w>
ban ana</w>
met als</w>
shi ver</w>
const able</w>
experi encing</w>
des sert</w>
jo yce</w>
pen n@@</w>
respon ding</w>
re covering</w>
mark eted</w>
metall ic</w>
mo an</w>
pet erson</w>
k ick@@</w>
musc ular</w>
sic ily</w>
or g</w>
r hin@@</w>
gro und@@</w>
r icia</w>
pat ricia</w>
tr i</w>
scr at
st ab@@</w>
re ta
stir red</w>
je w</w>
cy to@@</w>
se par@@</w>
court esy</w>
o de</w>
tin ople</w>
constan tinople</w>
h n@@</w>
g ou@@</w>
qu int@@</w>
tri gg
trigg ered</w>
be it</w>
al beit</w>
dedic ation</w>
3 000</w>
jew el</w>
zom bies</w>
gro om</w>
vis a</w>
secur ing</w>
ver non</w>
bo hem
g at
gat eway</w>
nik ki</w>
r ine</w>
pi us</w>
juli et</w>
c w</w>
fi ers</w>
di stances</w>
kno b</w>
man ship</w>
confir mation</w>
human itarian</w>
im pres@@</w>
bloo m</w>
commerci als</w>
de a</w>
gl en@@</w>
b ew
ssi e</w>
corpor al</w>
come back</w>
knuc k
knuck les</w>
v re</w>
wan da</w>
conserv atives</w>
ki dney</w>
clau dia</w>
v ague</w>
p per
par a</w>
tur k@@</w>
win ked</w>
bur ma</w>
o ak@@</w>
i van@@</w>
pred ators</w>
el bows</w>
teach ings</w>
is o</w>
po ols</w>
ν @@</w>
n adu</w>
lea sed</w>
depu ties</w>
aff ecting</w>
pois oned</w>
is ers</w>
han dic
zz i</w>
theat ers</w>
eccle si
pe i</w>
ter med</w>
s late</w>
lar vae</w>
formula_ 1</w>
k hu@@</w>
um i</w>
no ti
fun k</w>
con federation</w>
embarra ssment</w>
aci onal</w>
ha irs</w>
cover @@</w>
compla ining</w>
as c@@</w>
moti oned</w>
ma fia</w>
bu m</w>
pap al</w>
ss ings</w>
mar i</w>
ol e@@</w>
identi fying</w>
e g</w>
at er@@</w>
inspec @@</w>
den ny</w>
bun ny</w>
hi r</w>
spir al</w>
n il@@</w>
ven us</w>
tre y</w>
ex tra@@</w>
out skirts</w>
rend ering</w>
e ine</w>
li an</w>
lo we</w>
arrog ant</w>
ī @@</w>
cla w</w>
j ew@@</w>
bar gain</w>
luc i
sn atched</w>
ol es
def enders</w>
in mates</w>
sch mid
schmid t</w>
d ab@@</w>
ñ o</w>
ex er@@</w>
ti st</w>
ent ations</w>
emp tion</w>
exam ining</w>
sk et@@</w>
fi replace</w>
met ro@@</w>
pot ent</w>
d ha@@</w>
im an</w>
h es@@</w>
heal ed</w>
de bu@@</w>
stro kes</w>
import antly</w>
flo ated</w>
k age</w>
p ses</w>
est er@@</w>
sto rey</w>
cell ar</w>
brew ery</w>
explic itly</w>
p ablo</w>
ev elyn</w>
en ers</w>
sac ked</w>
hab its</w>
g p</w>
salv ador</w>
bri a</w>
z an</w>
web ster</w>
lis bon</w>
ta vern</w>
colli sion</w>
emo tionally</w>
ul ster</w>
pill ars</w>
sem ester</w>
volunte ered</w>
fr at
frat ernity</w>
grow l</w>
re qu@@</w>
fa bulous</w>
det ached</w>
m ck@@</w>
con front</w>
resi sted</w>
lun ar</w>
par as@@</w>
bom bay</w>
ic z</w>
sha des</w>
in as</w>
g ay@@</w>
high lighted</w>
confron tation</w>
g ency</w>
mi k
mik hail</w>
accus ations</w>
ro th@@</w>
ł aw</w>
man ning</w>
re co@@</w>
par amount</w>
ir regular</w>
w it</w>
jas mine</w>
a val
mid way</w>
un stable</w>
om o</w>
dam ages</w>
ric hie</w>
disc o</w>
forc ements</w>
ten sions</w>
mo tto</w>
rober to</w>
alig ned</w>
v om
as p@@</w>
var sity</w>
mou ths</w>
hum ble</w>
chart ed</w>
lar ged</w>
en larged</w>
ali gnment</w>
advis er</w>
v ous</w>
foll @@</w>
in ched</w>
hal ted</w>
no ti@@</w>
di pped</w>
august us</w>
con ception</w>
peri ph
a il@@</w>
un locked</w>
in ception</w>
cha ssis</w>
b und@@</w>
u ph
gg ers</w>
p ecu
pecu liar</w>
nas car</w>
celebr ations</w>
tea med</w>
similar ities</w>
li fts</w>
lim itations</w>
high lands</w>
sa sha</w>
desi res</w>
s ach@@</w>
fin ancing</w>
an a
un veiled</w>
distr action</w>
thir ds</w>
pupp et</w>
leng thy</w>
un certainty</w>
l ena</w>
gg le</w>
18 15</w>
compet ent</w>
south ampton</w>
bom bar
bombar dment</w>
stri ps</w>
el an</w>
ma u
m itt@@</w>
f é@@</w>
the med</w>
ll es</w>
ex pose</w>
dre sser</w>
cli ffe</w>
an ch@@</w>
consu l</w>
tea se</w>
stun ning</w>
pl er</w>
til ity</w>
habit ats</w>
c un@@</w>
v end
de ser@@</w>
sor ship</w>
g and
gand hi</w>
deleg ate</w>
amp li@@</w>
x box</w>
youn g@@</w>
se duc
bo b@@</w>
san to</w>
wi res</w>
over looking</w>
c d@@</w>
pr ick</w>
sh one</w>
suff ici
suffici ently</w>
kin dness</w>
joh ns</w>
v ory</w>
i vory</w>
s ma@@</w>
st ems</w>
ro om
room mate</w>
lou is
louis ville</w>
man kind</w>
slova k</w>
endor sed</w>
reg ina</w>
def enses</w>
provi ders</w>
bi g@@</w>
mar riages</w>
am or@@</w>
gi veness</w>
for giveness</w>
bit es</w>
flo yd</w>
wil dly</w>
t ica</w>
eli hood</w>
ir ene</w>
diff @@</w>
in stances</w>
un usually</w>
pro ving</w>
loc aust</w>
ho locaust</w>
y in</w>
ma in@@</w>
desig ning</w>
mor t@@</w>
co t</w>
af c</w>
quant ities</w>
rein forcements</w>
thir sty</w>
re acted</w>
ad diction</w>
fe lla</w>
k awa</w>
am al
craw ling</w>
n ea
nea polis</w>
in ver@@</w>
smu gg@@</w>
ta il@@</w>
rati on@@</w>
ra k@@</w>
lab s</w>
premi ership</w>
ori ental</w>
on ne</w>
fing er@@</w>
mel ting</w>
el ope</w>
b ally</w>
a ar@@</w>
tea u</w>
sk rit</w>
san skrit</w>
imag ing</w>
bened ict</w>
2 5@@</w>
ru sted</w>
ac s</w>
we ir@@</w>
san tos</w>
syl via</w>
lan tern</w>
re sses</w>
vi ated</w>
abbre viated</w>
dec om
accomp lish</w>
no lan</w>
aim ing</w>
fi ji</w>
nom in
nomin ee</w>
gre eks</w>
cha p@@</w>
si ber
obj ection</w>
adm ire</w>
g ps</w>
ic e@@</w>
nott ingham</w>
se lls</w>
ev angel
evangel ical</w>
ar is</w>
prof essors</w>
lu min@@</w>
alcoho lic</w>
is ite</w>
qu ar@@</w>
k ro@@</w>
trans lator</w>
fla v@@</w>
3 0s</w>
ra ises</w>
vir al</w>
dra inage</w>
scot ch</w>
r amp</w>
bu shes</w>
paraly mp
constitu te</w>
sand stone</w>
ven ge
venge ance</w>
v ings</w>
ap a</w>
stri ker</w>
sponsor ship</w>
su cker</w>
re marks</w>
trans l
z or@@</w>
c ic@@</w>
form ats</w>
d ling</w>
10 7</w>
lu gg
lugg age</w>
inj ection</w>
nic ely</w>
flu te</w>
chem ist</w>
san ders</w>
det achment</w>
man ny</w>
bad en</w>
ni es</w>
f aul@@</w>
wh at@@</w>
obli vi
int e@@</w>
spar hawk</w>
lim p</w>
sh re@@</w>
t r</w>
as si@@</w>
f ang</w>
betra yal</w>
tar es</w>
pres ses</w>
distr act</w>
b ind</w>
testi fy</w>
fac t@@</w>
ro pes</w>
li king</w>
con s</w>
de ship</w>
p ou@@</w>
dro id</w>
an droid</w>
n agar</w>
de si@@</w>
v alle
valle ys</w>
an at
so vo</w>
ko sovo</w>
flu t
tre ats</w>
n c@@</w>
gr an</w>
itt any</w>
br ittany</w>
it v</w>
cur ed</w>
ver dict</w>
che ated</w>
psychiat ric</w>
lit er@@</w>
f all@@</w>
her b</w>
syst ematic</w>
eli za</w>
flow ering</w>
the a</w>
gu il@@</w>
par k@@</w>
im port</w>
sy rac
syrac use</w>
gro w@@</w>
en abling</w>
aff ects</w>
p am@@</w>
event h</w>
el eventh</w>
car a</w>
b ending</w>
л @@</w>
h iring</w>
le is
leis ure</w>
the o@@</w>
deri ves</w>
dis appearing</w>
re stra
all ion</w>
im press</w>
r att
k em@@</w>
fo rec@@</w>
semi finals</w>
exclu ded</w>
d z@@</w>
d ick
an ta</w>
m its</w>
clas sm
cur b</w>
ge tic</w>
mo ist</w>
pre va
sac ram
sacram ento</w>
treas on</w>
lar a</w>
ro cking</w>
dis ability</w>
ethiop ia</w>
k ow@@</w>
alex is</w>
int enti
intenti onally</w>
grat itude</w>
pl ea</w>
he ed</w>
apprent ice</w>
s ler</w>
ag ged</w>
p ent
vic ar</w>
ma ll
bi lli
par i
pari shes</w>
differ ential</w>
s onal</w>
el aine</w>
kri st@@</w>
utili zed</w>
investig ator</w>
pe ll@@</w>
aban don
fi ance</w>
na ve</w>
ther e@@</w>
w inter@@</w>
er otic</w>
car ey</w>
en ham</w>
hi m@@</w>
e is
mani pul
do lls</w>
co y</w>
vi vian</w>
positi vely</w>
confu sing</w>
ma ils</w>
i ian</w>
hawa iian</w>
v ell@@</w>
symbo lic</w>
clu es</w>
p est@@</w>
quar ry</w>
str a</w>
person alities</w>
don ation</w>
counsel or</w>
employ ers</w>
clut ched</w>
pe ers</w>
min neapolis</w>
ro dney</w>
ch it@@</w>
analy st</w>
w al</w>
anti qu
ri g</w>
tri logy</w>
sub species</w>
n st</w>
er nst</w>
an tes</w>
pharm ac@@</w>
uti ves</w>
tr ous
trous ers</w>
exec utives</w>
r ha@@</w>
out line</w>
gib bs</w>
under took</w>
bol ton</w>
hon ey
honey moon</w>
is lander</w>
g love</w>
ad er</w>
en z@@</w>
18 14</w>
man i</w>
tel es
teles cope</w>
ec o
p as</w>
trans action</w>
mir rors</w>
re en</w>
mort gage</w>
doc ks</w>
obli ged</w>
hun ted</w>
ph en@@</w>
ser y</w>
publ @@</w>
mac ro@@</w>
ec o</w>
di stor
si est</w>
d ant</w>
en gra@@</w>
il yn</w>
dwi ght</w>
y ana</w>
le dge</w>
duc ks</w>
gall eries</w>
si m</w>
ug u</w>
stea k</w>
gas oline</w>
t we@@</w>
n en</w>
play wright</w>
hein rich</w>
cu pped</w>
thi as</w>
w y</w>
pha bet</w>
al phabet</w>
bat ch</w>
tel ep@@</w>
pu mping</w>
fa v@@</w>
te book</w>
no tebook</w>
ro ared</w>
[...]
